{
  "version": "1.0",
  "truncation": null,
  "padding": null,
  "added_tokens": [
    {
      "id": 0,
      "content": "<pad>",
      "single_word": false,
      "lstrip": false,
      "rstrip": false,
      "normalized": false,
      "special": true
    },
    {
      "id": 1,
      "content": "<unk>",
      "single_word": false,
      "lstrip": false,
      "rstrip": false,
      "normalized": false,
      "special": true
    },
    {
      "id": 2,
      "content": "<bos>",
      "single_word": false,
      "lstrip": false,
      "rstrip": false,
      "normalized": false,
      "special": true
    },
    {
      "id": 3,
      "content": "<eos>",
      "single_word": false,
      "lstrip": false,
      "rstrip": false,
      "normalized": false,
      "special": true
    },
    {
      "id": 4,
      "content": "<user>",
      "single_word": false,
      "lstrip": false,
      "rstrip": false,
      "normalized": false,
      "special": true
    },
    {
      "id": 5,
      "content": "<assistant>",
      "single_word": false,
      "lstrip": false,
      "rstrip": false,
      "normalized": false,
      "special": true
    },
    {
      "id": 6,
      "content": "0",
      "single_word": false,
      "lstrip": false,
      "rstrip": false,
      "normalized": false,
      "special": true
    },
    {
      "id": 7,
      "content": "1",
      "single_word": false,
      "lstrip": false,
      "rstrip": false,
      "normalized": false,
      "special": true
    },
    {
      "id": 8,
      "content": "2",
      "single_word": false,
      "lstrip": false,
      "rstrip": false,
      "normalized": false,
      "special": true
    },
    {
      "id": 9,
      "content": "3",
      "single_word": false,
      "lstrip": false,
      "rstrip": false,
      "normalized": false,
      "special": true
    },
    {
      "id": 10,
      "content": "4",
      "single_word": false,
      "lstrip": false,
      "rstrip": false,
      "normalized": false,
      "special": true
    },
    {
      "id": 11,
      "content": "5",
      "single_word": false,
      "lstrip": false,
      "rstrip": false,
      "normalized": false,
      "special": true
    },
    {
      "id": 12,
      "content": "6",
      "single_word": false,
      "lstrip": false,
      "rstrip": false,
      "normalized": false,
      "special": true
    },
    {
      "id": 13,
      "content": "7",
      "single_word": false,
      "lstrip": false,
      "rstrip": false,
      "normalized": false,
      "special": true
    },
    {
      "id": 14,
      "content": "8",
      "single_word": false,
      "lstrip": false,
      "rstrip": false,
      "normalized": false,
      "special": true
    },
    {
      "id": 15,
      "content": "9",
      "single_word": false,
      "lstrip": false,
      "rstrip": false,
      "normalized": false,
      "special": true
    },
    {
      "id": 50000,
      "content": "<mask>",
      "single_word": false,
      "lstrip": false,
      "rstrip": false,
      "normalized": false,
      "special": true
    }
  ],
  "normalizer": {
    "type": "NFKC"
  },
  "pre_tokenizer": {
    "type": "Metaspace",
    "replacement": "▁",
    "prepend_scheme": "always",
    "split": true
  },
  "post_processor": null,
  "decoder": {
    "type": "Metaspace",
    "replacement": "▁",
    "prepend_scheme": "always",
    "split": true
  },
  "model": {
    "type": "BPE",
    "dropout": null,
    "unk_token": "<unk>",
    "continuing_subword_prefix": null,
    "end_of_word_suffix": null,
    "fuse_unk": false,
    "byte_fallback": false,
    "ignore_merges": false,
    "vocab": {
      "<pad>": 0,
      "<unk>": 1,
      "<bos>": 2,
      "<eos>": 3,
      "<user>": 4,
      "<assistant>": 5,
      "0": 6,
      "1": 7,
      "2": 8,
      "3": 9,
      "4": 10,
      "5": 11,
      "6": 12,
      "7": 13,
      "8": 14,
      "9": 15,
      "\t": 16,
      "\n": 17,
      "!": 18,
      "\"": 19,
      "#": 20,
      "$": 21,
      "%": 22,
      "&": 23,
      "'": 24,
      "(": 25,
      ")": 26,
      "*": 27,
      "+": 28,
      ",": 29,
      "-": 30,
      ".": 31,
      "/": 32,
      ":": 33,
      ";": 34,
      "<": 35,
      "=": 36,
      ">": 37,
      "?": 38,
      "@": 39,
      "A": 40,
      "B": 41,
      "C": 42,
      "D": 43,
      "E": 44,
      "F": 45,
      "G": 46,
      "H": 47,
      "I": 48,
      "J": 49,
      "K": 50,
      "L": 51,
      "M": 52,
      "N": 53,
      "O": 54,
      "P": 55,
      "Q": 56,
      "R": 57,
      "S": 58,
      "T": 59,
      "U": 60,
      "V": 61,
      "W": 62,
      "X": 63,
      "Y": 64,
      "Z": 65,
      "[": 66,
      "\\": 67,
      "]": 68,
      "^": 69,
      "_": 70,
      "`": 71,
      "a": 72,
      "b": 73,
      "c": 74,
      "d": 75,
      "e": 76,
      "f": 77,
      "g": 78,
      "h": 79,
      "i": 80,
      "j": 81,
      "k": 82,
      "l": 83,
      "m": 84,
      "n": 85,
      "o": 86,
      "p": 87,
      "q": 88,
      "r": 89,
      "s": 90,
      "t": 91,
      "u": 92,
      "v": 93,
      "w": 94,
      "x": 95,
      "y": 96,
      "z": 97,
      "{": 98,
      "|": 99,
      "}": 100,
      "~": 101,
      "¡": 102,
      "¢": 103,
      "£": 104,
      "¥": 105,
      "§": 106,
      "©": 107,
      "«": 108,
      "¬": 109,
      "®": 110,
      "°": 111,
      "±": 112,
      "¶": 113,
      "·": 114,
      "»": 115,
      "¿": 116,
      "À": 117,
      "Á": 118,
      "Â": 119,
      "Ä": 120,
      "Å": 121,
      "Æ": 122,
      "Ç": 123,
      "È": 124,
      "É": 125,
      "Ê": 126,
      "Ë": 127,
      "Í": 128,
      "Î": 129,
      "Ï": 130,
      "Ñ": 131,
      "Ò": 132,
      "Ó": 133,
      "Ô": 134,
      "Ö": 135,
      "×": 136,
      "Ø": 137,
      "Ù": 138,
      "Ú": 139,
      "Û": 140,
      "Ü": 141,
      "Ý": 142,
      "Þ": 143,
      "ß": 144,
      "à": 145,
      "á": 146,
      "â": 147,
      "ã": 148,
      "ä": 149,
      "å": 150,
      "æ": 151,
      "ç": 152,
      "è": 153,
      "é": 154,
      "ê": 155,
      "ë": 156,
      "ì": 157,
      "í": 158,
      "î": 159,
      "ï": 160,
      "ð": 161,
      "ñ": 162,
      "ò": 163,
      "ó": 164,
      "ô": 165,
      "õ": 166,
      "ö": 167,
      "ø": 168,
      "ù": 169,
      "ú": 170,
      "û": 171,
      "ü": 172,
      "ý": 173,
      "ÿ": 174,
      "Ā": 175,
      "ā": 176,
      "ă": 177,
      "Ą": 178,
      "ą": 179,
      "ć": 180,
      "Č": 181,
      "č": 182,
      "Ď": 183,
      "ď": 184,
      "đ": 185,
      "Ē": 186,
      "ē": 187,
      "ė": 188,
      "ę": 189,
      "Ě": 190,
      "ě": 191,
      "ğ": 192,
      "ģ": 193,
      "Ī": 194,
      "ī": 195,
      "Į": 196,
      "į": 197,
      "İ": 198,
      "ı": 199,
      "ķ": 200,
      "Ļ": 201,
      "ļ": 202,
      "ľ": 203,
      "Ł": 204,
      "ł": 205,
      "ń": 206,
      "ņ": 207,
      "ň": 208,
      "ō": 209,
      "ő": 210,
      "Œ": 211,
      "œ": 212,
      "ŕ": 213,
      "Ř": 214,
      "ř": 215,
      "Ś": 216,
      "ś": 217,
      "ş": 218,
      "Š": 219,
      "š": 220,
      "ţ": 221,
      "Ť": 222,
      "ť": 223,
      "ũ": 224,
      "ū": 225,
      "Ů": 226,
      "ů": 227,
      "ű": 228,
      "ų": 229,
      "Ÿ": 230,
      "Ź": 231,
      "ź": 232,
      "Ż": 233,
      "ż": 234,
      "Ž": 235,
      "ž": 236,
      "Ə": 237,
      "ț": 238,
      "ə": 239,
      "ɛ": 240,
      "ɪ": 241,
      "ʃ": 242,
      "ʒ": 243,
      "ʻ": 244,
      "ˈ": 245,
      "ː": 246,
      "́": 247,
      "̃": 248,
      "̇": 249,
      "̊": 250,
      "̓": 251,
      "̧": 252,
      "ͤ": 253,
      "ͥ": 254,
      "Ά": 255,
      "Έ": 256,
      "Ή": 257,
      "Ί": 258,
      "Ό": 259,
      "Ύ": 260,
      "Ώ": 261,
      "ΐ": 262,
      "Α": 263,
      "Β": 264,
      "Γ": 265,
      "Δ": 266,
      "Ε": 267,
      "Ζ": 268,
      "Η": 269,
      "Θ": 270,
      "Ι": 271,
      "Κ": 272,
      "Λ": 273,
      "Μ": 274,
      "Ν": 275,
      "Ξ": 276,
      "Ο": 277,
      "Π": 278,
      "Ρ": 279,
      "Σ": 280,
      "Τ": 281,
      "Υ": 282,
      "Φ": 283,
      "Χ": 284,
      "Ψ": 285,
      "Ω": 286,
      "Ϊ": 287,
      "Ϋ": 288,
      "ά": 289,
      "έ": 290,
      "ή": 291,
      "ί": 292,
      "ΰ": 293,
      "α": 294,
      "β": 295,
      "γ": 296,
      "δ": 297,
      "ε": 298,
      "ζ": 299,
      "η": 300,
      "θ": 301,
      "ι": 302,
      "κ": 303,
      "λ": 304,
      "μ": 305,
      "ν": 306,
      "ξ": 307,
      "ο": 308,
      "π": 309,
      "ρ": 310,
      "ς": 311,
      "σ": 312,
      "τ": 313,
      "υ": 314,
      "φ": 315,
      "χ": 316,
      "ψ": 317,
      "ω": 318,
      "ϊ": 319,
      "ϋ": 320,
      "ό": 321,
      "ύ": 322,
      "ώ": 323,
      "Ё": 324,
      "Ђ": 325,
      "Є": 326,
      "Ѕ": 327,
      "І": 328,
      "Ї": 329,
      "Ј": 330,
      "Љ": 331,
      "Њ": 332,
      "Ћ": 333,
      "Ў": 334,
      "А": 335,
      "Б": 336,
      "В": 337,
      "Г": 338,
      "Д": 339,
      "Е": 340,
      "Ж": 341,
      "З": 342,
      "И": 343,
      "Й": 344,
      "К": 345,
      "Л": 346,
      "М": 347,
      "Н": 348,
      "О": 349,
      "П": 350,
      "Р": 351,
      "С": 352,
      "Т": 353,
      "У": 354,
      "Ф": 355,
      "Х": 356,
      "Ц": 357,
      "Ч": 358,
      "Ш": 359,
      "Щ": 360,
      "Ъ": 361,
      "Ы": 362,
      "Ь": 363,
      "Э": 364,
      "Ю": 365,
      "Я": 366,
      "а": 367,
      "б": 368,
      "в": 369,
      "г": 370,
      "д": 371,
      "е": 372,
      "ж": 373,
      "з": 374,
      "и": 375,
      "й": 376,
      "к": 377,
      "л": 378,
      "м": 379,
      "н": 380,
      "о": 381,
      "п": 382,
      "р": 383,
      "с": 384,
      "т": 385,
      "у": 386,
      "ф": 387,
      "х": 388,
      "ц": 389,
      "ч": 390,
      "ш": 391,
      "щ": 392,
      "ъ": 393,
      "ы": 394,
      "ь": 395,
      "э": 396,
      "ю": 397,
      "я": 398,
      "ё": 399,
      "ђ": 400,
      "ѓ": 401,
      "є": 402,
      "ѕ": 403,
      "і": 404,
      "ї": 405,
      "ј": 406,
      "љ": 407,
      "њ": 408,
      "ћ": 409,
      "ќ": 410,
      "ў": 411,
      "џ": 412,
      "Ѣ": 413,
      "ѣ": 414,
      "Ѳ": 415,
      "ѳ": 416,
      "Ѵ": 417,
      "ѵ": 418,
      "Ґ": 419,
      "ґ": 420,
      "Ғ": 421,
      "ғ": 422,
      "Җ": 423,
      "Ҙ": 424,
      "ҙ": 425,
      "Қ": 426,
      "қ": 427,
      "Ҡ": 428,
      "ҡ": 429,
      "Ң": 430,
      "ң": 431,
      "Ҥ": 432,
      "Ү": 433,
      "ү": 434,
      "Ұ": 435,
      "ұ": 436,
      "Ҹ": 437,
      "ҹ": 438,
      "Һ": 439,
      "һ": 440,
      "Ә": 441,
      "ә": 442,
      "ӛ": 443,
      "Ӣ": 444,
      "Ө": 445,
      "ө": 446,
      "Ӯ": 447,
      "ӯ": 448,
      "Հ": 449,
      "ա": 450,
      "կ": 451,
      "յ": 452,
      "ն": 453,
      "ո": 454,
      "պ": 455,
      "ս": 456,
      "տ": 457,
      "ւ": 458,
      "ְ": 459,
      "ֲ": 460,
      "ִ": 461,
      "ֵ": 462,
      "ֶ": 463,
      "ַ": 464,
      "ָ": 465,
      "ֹ": 466,
      "ּ": 467,
      "־": 468,
      "ֿ": 469,
      "ׁ": 470,
      "ׂ": 471,
      "א": 472,
      "ב": 473,
      "ג": 474,
      "ד": 475,
      "ה": 476,
      "ו": 477,
      "ז": 478,
      "ח": 479,
      "ט": 480,
      "י": 481,
      "ך": 482,
      "כ": 483,
      "ל": 484,
      "ם": 485,
      "מ": 486,
      "ן": 487,
      "נ": 488,
      "ס": 489,
      "ע": 490,
      "ף": 491,
      "פ": 492,
      "ץ": 493,
      "צ": 494,
      "ק": 495,
      "ר": 496,
      "ש": 497,
      "ת": 498,
      "װ": 499,
      "ױ": 500,
      "ײ": 501,
      "׳": 502,
      "״": 503,
      "ء": 504,
      "آ": 505,
      "أ": 506,
      "ؤ": 507,
      "إ": 508,
      "ئ": 509,
      "ا": 510,
      "ب": 511,
      "ة": 512,
      "ت": 513,
      "ث": 514,
      "ج": 515,
      "ح": 516,
      "خ": 517,
      "د": 518,
      "ذ": 519,
      "ر": 520,
      "ز": 521,
      "س": 522,
      "ش": 523,
      "ص": 524,
      "ض": 525,
      "ط": 526,
      "ظ": 527,
      "ع": 528,
      "غ": 529,
      "ف": 530,
      "ق": 531,
      "ك": 532,
      "ل": 533,
      "م": 534,
      "ن": 535,
      "ه": 536,
      "و": 537,
      "ى": 538,
      "ي": 539,
      "ً": 540,
      "٠": 541,
      "گ": 542,
      "ی": 543,
      "۰": 544,
      "۴": 545,
      "۸": 546,
      "۹": 547,
      "ย": 548,
      "ร": 549,
      "อ": 550,
      "เ": 551,
      "᷑": 552,
      "ᷓ": 553,
      "ᷣ": 554,
      "ẽ": 555,
      "ἀ": 556,
      "ἁ": 557,
      "ἄ": 558,
      "ἅ": 559,
      "ἆ": 560,
      "ἐ": 561,
      "ἑ": 562,
      "ἔ": 563,
      "Ἐ": 564,
      "Ἑ": 565,
      "ἠ": 566,
      "ἡ": 567,
      "Ἠ": 568,
      "Ἡ": 569,
      "ἰ": 570,
      "ἱ": 571,
      "ἴ": 572,
      "ἵ": 573,
      "ἶ": 574,
      "ἷ": 575,
      "Ἱ": 576,
      "ὀ": 577,
      "ὁ": 578,
      "ὃ": 579,
      "ὄ": 580,
      "ὅ": 581,
      "Ὀ": 582,
      "Ὄ": 583,
      "Ὅ": 584,
      "ὐ": 585,
      "ὑ": 586,
      "ὔ": 587,
      "ὕ": 588,
      "ὖ": 589,
      "ὗ": 590,
      "Ὑ": 591,
      "ὡ": 592,
      "ὤ": 593,
      "ὥ": 594,
      "ὧ": 595,
      "Ὠ": 596,
      "ὰ": 597,
      "ὲ": 598,
      "ὴ": 599,
      "ὶ": 600,
      "ὸ": 601,
      "ὺ": 602,
      "ᾖ": 603,
      "ᾶ": 604,
      "ᾷ": 605,
      "ῃ": 606,
      "ῄ": 607,
      "ῆ": 608,
      "ῇ": 609,
      "ῖ": 610,
      "ῤ": 611,
      "ῥ": 612,
      "ῦ": 613,
      "Ῥ": 614,
      "ῳ": 615,
      "ῶ": 616,
      "ῷ": 617,
      "​": 618,
      "‎": 619,
      "‏": 620,
      "‐": 621,
      "–": 622,
      "—": 623,
      "―": 624,
      "‘": 625,
      "’": 626,
      "‚": 627,
      "“": 628,
      "”": 629,
      "„": 630,
      "•": 631,
      "‰": 632,
      "′": 633,
      "‹": 634,
      "›": 635,
      "⁄": 636,
      "€": 637,
      "→": 638,
      "−": 639,
      "∘": 640,
      "≤": 641,
      "≥": 642,
      "⋅": 643,
      "▁": 644,
      "▒": 645,
      "■": 646,
      "□": 647,
      "▲": 648,
      "►": 649,
      "▼": 650,
      "★": 651,
      "☉": 652,
      "☺": 653,
      "♦": 654,
      "✓": 655,
      "❖": 656,
      "⨀": 657,
      "⸗": 658,
      "、": 659,
      "。": 660,
      "あ": 661,
      "い": 662,
      "う": 663,
      "え": 664,
      "か": 665,
      "が": 666,
      "き": 667,
      "く": 668,
      "け": 669,
      "げ": 670,
      "こ": 671,
      "さ": 672,
      "し": 673,
      "じ": 674,
      "す": 675,
      "ず": 676,
      "た": 677,
      "ち": 678,
      "っ": 679,
      "つ": 680,
      "て": 681,
      "で": 682,
      "と": 683,
      "な": 684,
      "に": 685,
      "ぬ": 686,
      "の": 687,
      "は": 688,
      "ひ": 689,
      "へ": 690,
      "ま": 691,
      "み": 692,
      "ゆ": 693,
      "よ": 694,
      "ら": 695,
      "り": 696,
      "る": 697,
      "れ": 698,
      "ん": 699,
      "ァ": 700,
      "ア": 701,
      "ィ": 702,
      "イ": 703,
      "ウ": 704,
      "ェ": 705,
      "エ": 706,
      "オ": 707,
      "カ": 708,
      "ガ": 709,
      "キ": 710,
      "ク": 711,
      "グ": 712,
      "ケ": 713,
      "ゲ": 714,
      "コ": 715,
      "ゴ": 716,
      "サ": 717,
      "ザ": 718,
      "シ": 719,
      "ジ": 720,
      "ス": 721,
      "ズ": 722,
      "ゼ": 723,
      "タ": 724,
      "ダ": 725,
      "チ": 726,
      "ッ": 727,
      "ツ": 728,
      "テ": 729,
      "デ": 730,
      "ト": 731,
      "ド": 732,
      "ナ": 733,
      "ニ": 734,
      "ネ": 735,
      "ノ": 736,
      "ハ": 737,
      "バ": 738,
      "パ": 739,
      "ピ": 740,
      "フ": 741,
      "ブ": 742,
      "プ": 743,
      "ヘ": 744,
      "ベ": 745,
      "ホ": 746,
      "ボ": 747,
      "マ": 748,
      "ミ": 749,
      "メ": 750,
      "モ": 751,
      "ャ": 752,
      "ヤ": 753,
      "ュ": 754,
      "ユ": 755,
      "ョ": 756,
      "ヨ": 757,
      "ラ": 758,
      "リ": 759,
      "ル": 760,
      "レ": 761,
      "ロ": 762,
      "ワ": 763,
      "ン": 764,
      "ヴ": 765,
      "・": 766,
      "ー": 767,
      "一": 768,
      "上": 769,
      "世": 770,
      "中": 771,
      "丸": 772,
      "主": 773,
      "举": 774,
      "久": 775,
      "乙": 776,
      "也": 777,
      "二": 778,
      "于": 779,
      "五": 780,
      "人": 781,
      "仁": 782,
      "介": 783,
      "代": 784,
      "以": 785,
      "任": 786,
      "会": 787,
      "作": 788,
      "使": 789,
      "信": 790,
      "修": 791,
      "入": 792,
      "公": 793,
      "六": 794,
      "兼": 795,
      "円": 796,
      "册": 797,
      "冒": 798,
      "冬": 799,
      "刀": 800,
      "切": 801,
      "初": 802,
      "利": 803,
      "制": 804,
      "剛": 805,
      "力": 806,
      "加": 807,
      "千": 808,
      "南": 809,
      "原": 810,
      "参": 811,
      "參": 812,
      "取": 813,
      "古": 814,
      "可": 815,
      "司": 816,
      "合": 817,
      "吉": 818,
      "君": 819,
      "吾": 820,
      "命": 821,
      "和": 822,
      "国": 823,
      "園": 824,
      "土": 825,
      "在": 826,
      "地": 827,
      "坂": 828,
      "堂": 829,
      "境": 830,
      "変": 831,
      "夏": 832,
      "多": 833,
      "大": 834,
      "太": 835,
      "奇": 836,
      "奈": 837,
      "套": 838,
      "女": 839,
      "如": 840,
      "妙": 841,
      "姫": 842,
      "子": 843,
      "字": 844,
      "学": 845,
      "宇": 846,
      "守": 847,
      "寺": 848,
      "将": 849,
      "小": 850,
      "尚": 851,
      "尾": 852,
      "山": 853,
      "島": 854,
      "崎": 855,
      "川": 856,
      "工": 857,
      "市": 858,
      "帝": 859,
      "平": 860,
      "应": 861,
      "府": 862,
      "庫": 863,
      "式": 864,
      "影": 865,
      "很": 866,
      "心": 867,
      "悟": 868,
      "您": 869,
      "悲": 870,
      "慧": 871,
      "或": 872,
      "戸": 873,
      "手": 874,
      "拿": 875,
      "接": 876,
      "推": 877,
      "政": 878,
      "文": 879,
      "料": 880,
      "新": 881,
      "早": 882,
      "时": 883,
      "春": 884,
      "最": 885,
      "月": 886,
      "有": 887,
      "木": 888,
      "本": 889,
      "杆": 890,
      "条": 891,
      "東": 892,
      "松": 893,
      "林": 894,
      "果": 895,
      "校": 896,
      "桐": 897,
      "桜": 898,
      "欠": 899,
      "正": 900,
      "武": 901,
      "汰": 902,
      "治": 903,
      "泉": 904,
      "洁": 905,
      "流": 906,
      "清": 907,
      "港": 908,
      "瀬": 909,
      "炎": 910,
      "無": 911,
      "然": 912,
      "爱": 913,
      "犬": 914,
      "理": 915,
      "生": 916,
      "用": 917,
      "田": 918,
      "由": 919,
      "甲": 920,
      "界": 921,
      "的": 922,
      "皐": 923,
      "盘": 924,
      "目": 925,
      "直": 926,
      "相": 927,
      "真": 928,
      "知": 929,
      "石": 930,
      "研": 931,
      "碎": 932,
      "祐": 933,
      "神": 934,
      "空": 935,
      "竜": 936,
      "管": 937,
      "紅": 938,
      "純": 939,
      "線": 940,
      "组": 941,
      "结": 942,
      "给": 943,
      "美": 944,
      "羽": 945,
      "考": 946,
      "良": 947,
      "花": 948,
      "華": 949,
      "葉": 950,
      "葵": 951,
      "蔬": 952,
      "蕗": 953,
      "薄": 954,
      "虎": 955,
      "蛇": 956,
      "蝉": 957,
      "装": 958,
      "西": 959,
      "要": 960,
      "諸": 961,
      "请": 962,
      "谷": 963,
      "豆": 964,
      "豪": 965,
      "进": 966,
      "选": 967,
      "通": 968,
      "道": 969,
      "遠": 970,
      "郎": 971,
      "部": 972,
      "都": 973,
      "酸": 974,
      "野": 975,
      "金": 976,
      "鉄": 977,
      "锋": 978,
      "間": 979,
      "限": 980,
      "険": 981,
      "集": 982,
      "音": 983,
      "風": 984,
      "飛": 985,
      "首": 986,
      "香": 987,
      "馬": 988,
      "马": 989,
      "高": 990,
      "鬼": 991,
      "鳥": 992,
      "鷹": 993,
      "黃": 994,
      "黄": 995,
      "黒": 996,
      "龍": 997,
      "ꝛ": 998,
      "돼": 999,
      "안": 1000,
      "이": 1001,
      "팩": 1002,
      "호": 1003,
      "﻿": 1004,
      "🇰": 1005,
      "▁\n": 1006,
      "▁\n\n": 1007,
      "▁п": 1008,
      "▁с": 1009,
      "▁в": 1010,
      "ст": 1011,
      "▁и": 1012,
      "на": 1013,
      "но": 1014,
      "ра": 1015,
      "ко": 1016,
      "▁о": 1017,
      "ен": 1018,
      "то": 1019,
      "ро": 1020,
      "го": 1021,
      "▁д": 1022,
      "ре": 1023,
      "ка": 1024,
      "ли": 1025,
      "▁по": 1026,
      "ва": 1027,
      "ни": 1028,
      "▁1": 1029,
      "ет": 1030,
      "ри": 1031,
      "во": 1032,
      "▁\n\n\n": 1033,
      "ло": 1034,
      "не": 1035,
      "ны": 1036,
      "▁м": 1037,
      "ль": 1038,
      "ла": 1039,
      "та": 1040,
      "▁на": 1041,
      "те": 1042,
      "▁б": 1043,
      "ть": 1044,
      "▁з": 1045,
      "\n\n": 1046,
      "ер": 1047,
      "да": 1048,
      "▁у": 1049,
      "▁а": 1050,
      "ки": 1051,
      "▁ч": 1052,
      "▁(": 1053,
      "ле": 1054,
      "ти": 1055,
      "▁к": 1056,
      "ся": 1057,
      "мъ": 1058,
      "▁г": 1059,
      "▁е": 1060,
      "▁не": 1061,
      "▁С": 1062,
      "по": 1063,
      "ру": 1064,
      "ми": 1065,
      "ви": 1066,
      "▁В": 1067,
      "▁ко": 1068,
      "▁—": 1069,
      "▁П": 1070,
      "▁2": 1071,
      "хъ": 1072,
      "ди": 1073,
      "до": 1074,
      "ля": 1075,
      "▁въ": 1076,
      "▁со": 1077,
      "▁т": 1078,
      "ени": 1079,
      "▁за": 1080,
      "же": 1081,
      "га": 1082,
      "▁А": 1083,
      "ем": 1084,
      "ес": 1085,
      "▁ра": 1086,
      "▁К": 1087,
      "де": 1088,
      "▁во": 1089,
      "ма": 1090,
      "хо": 1091,
      "▁то": 1092,
      "мо": 1093,
      "бо": 1094,
      "▁М": 1095,
      "er": 1096,
      "▁при": 1097,
      "▁от": 1098,
      "ве": 1099,
      "▁до": 1100,
      "ar": 1101,
      "ча": 1102,
      "чи": 1103,
      "за": 1104,
      "▁об": 1105,
      "▁про": 1106,
      "▁ка": 1107,
      "..": 1108,
      "па": 1109,
      "ста": 1110,
      "со": 1111,
      "ско": 1112,
      "▁Н": 1113,
      "▁О": 1114,
      "са": 1115,
      "въ": 1116,
      "st": 1117,
      "ше": 1118,
      "іі": 1119,
      "си": 1120,
      "сти": 1121,
      "се": 1122,
      "en": 1123,
      "р.": 1124,
      "▁э": 1125,
      "▁Г": 1126,
      "пи": 1127,
      "ры": 1128,
      "лу": 1129,
      "ду": 1130,
      "▁3": 1131,
      "му": 1132,
      "▁го": 1133,
      "ну": 1134,
      "сто": 1135,
      "in": 1136,
      "\n\n\n\n": 1137,
      "to": 1138,
      "ши": 1139,
      "ку": 1140,
      "te": 1141,
      "▁Р": 1142,
      "▁a": 1143,
      "сть": 1144,
      "▁что": 1145,
      "▁из": 1146,
      "іе": 1147,
      "жи": 1148,
      "▁Т": 1149,
      "пе": 1150,
      "вы": 1151,
      "ги": 1152,
      "▁И": 1153,
      "ря": 1154,
      "▁бы": 1155,
      "▁мо": 1156,
      "▁я": 1157,
      "сь": 1158,
      "ци": 1159,
      "▁та": 1160,
      "▁Д": 1161,
      "ня": 1162,
      "ще": 1163,
      "▁л": 1164,
      "▁Б": 1165,
      "▁4": 1166,
      "▁-": 1167,
      ").": 1168,
      ".,": 1169,
      "ной": 1170,
      "ный": 1171,
      "ере": 1172,
      "▁па": 1173,
      "ме": 1174,
      "▁вы": 1175,
      "▁«": 1176,
      "ск": 1177,
      "on": 1178,
      "ге": 1179,
      "че": 1180,
      "ша": 1181,
      "▁Л": 1182,
      "▁d": 1183,
      "ву": 1184,
      "ъ,": 1185,
      "▁,": 1186,
      "▁c": 1187,
      "щи": 1188,
      "жа": 1189,
      "тель": 1190,
      "▁.": 1191,
      "▁да": 1192,
      "в.": 1193,
      "▁5": 1194,
      "▁пре": 1195,
      "ту": 1196,
      "▁ф": 1197,
      "▁s": 1198,
      "ски": 1199,
      "лен": 1200,
      "▁p": 1201,
      "▁р": 1202,
      "▁те": 1203,
      "es": 1204,
      "ска": 1205,
      "xt": 1206,
      "an": 1207,
      "▁8": 1208,
      "ей": 1209,
      "|>": 1210,
      "star": 1211,
      "<|": 1212,
      "fte": 1213,
      "starto": 1214,
      "xt|>": 1215,
      "<|starto": 1216,
      "ftext|>": 1217,
      "<|startoftext|>": 1218,
      "\n\n<|startoftext|>": 1219,
      "ты": 1220,
      "▁o": 1221,
      "къ": 1222,
      "▁бо": 1223,
      "▁n": 1224,
      "▁і": 1225,
      "ют": 1226,
      "ного": 1227,
      "мен": 1228,
      "л.": 1229,
      "▁но": 1230,
      "су": 1231,
      "ха": 1232,
      "ца": 1233,
      "▁t": 1234,
      "▁раз": 1235,
      "▁18": 1236,
      "чес": 1237,
      "м.": 1238,
      "▁A": 1239,
      "е,": 1240,
      "й,": 1241,
      "▁же": 1242,
      "11": 1243,
      "ег": 1244,
      "▁ст": 1245,
      "▁ро": 1246,
      "▁Е": 1247,
      "▁ма": 1248,
      "я,": 1249,
      "▁\nи": 1250,
      "об": 1251,
      "▁6": 1252,
      "▁ре": 1253,
      "ные": 1254,
      "▁н": 1255,
      "or": 1256,
      "ется": 1257,
      "),": 1258,
      "ных": 1259,
      "00": 1260,
      "ба": 1261,
      "гу": 1262,
      "еп": 1263,
      "▁съ": 1264,
      "нъ": 1265,
      "вер": 1266,
      "бы": 1267,
      "▁\nп": 1268,
      "зо": 1269,
      "▁\nс": 1270,
      "▁\n\n1": 1271,
      "▁под": 1272,
      "▁ли": 1273,
      "ств": 1274,
      "лъ": 1275,
      "іи": 1276,
      "ство": 1277,
      "▁^": 1278,
      "▁19": 1279,
      "▁это": 1280,
      "▁ш": 1281,
      "би": 1282,
      "▁сво": 1283,
      "▁I": 1284,
      "▁\n\n—": 1285,
      "лю": 1286,
      "he": 1287,
      "ения": 1288,
      "▁У": 1289,
      "ез": 1290,
      "is": 1291,
      "it": 1292,
      "ор": 1293,
      "▁са": 1294,
      "іа": 1295,
      "▁З": 1296,
      "▁се": 1297,
      "▁кото": 1298,
      "▁ни": 1299,
      "тъ": 1300,
      "ды": 1301,
      "ic": 1302,
      "▁ве": 1303,
      "'Ь": 1304,
      "▁N": 1305,
      "жен": 1306,
      "▁7": 1307,
      "вя": 1308,
      "1е": 1309,
      "us": 1310,
      "ар": 1311,
      "▁По": 1312,
      "re": 1313,
      "▁его": 1314,
      "at": 1315,
      "▁х": 1316,
      "т.": 1317,
      "ное": 1318,
      "зи": 1319,
      "▁\nо": 1320,
      "al": 1321,
      "\n\n\n\n\n\n\n\n": 1322,
      "▁9": 1323,
      "▁m": 1324,
      "▁ц": 1325,
      "▁|": 1326,
      "мы": 1327,
      "пу": 1328,
      ".\n\n<|startoftext|>": 1329,
      "▁І": 1330,
      "ная": 1331,
      "лы": 1332,
      "зы": 1333,
      "▁си": 1334,
      "▁ме": 1335,
      "▁H": 1336,
      "ства": 1337,
      "ение": 1338,
      "▁Ф": 1339,
      "1.": 1340,
      "▁для": 1341,
      "ща": 1342,
      "▁бу": 1343,
      "ro": 1344,
      "▁\nпо": 1345,
      "▁или": 1346,
      "гда": 1347,
      "▁b": 1348,
      "▁ру": 1349,
      "▁все": 1350,
      "рав": 1351,
      "вать": 1352,
      "▁пере": 1353,
      "▁ва": 1354,
      "▁ста": 1355,
      "▁су": 1356,
      "из": 1357,
      "▁l": 1358,
      "м,": 1359,
      "шь": 1360,
      "▁\nв": 1361,
      "▁де": 1362,
      "нов": 1363,
      "▁f": 1364,
      "▁Ко": 1365,
      "▁Ч": 1366,
      "дъ": 1367,
      "▁ви": 1368,
      "ос": 1369,
      "▁\n\n2": 1370,
      "бу": 1371,
      "ie": 1372,
      "▁e": 1373,
      "н.": 1374,
      "▁B": 1375,
      "▁\n1": 1376,
      "мя": 1377,
      "▁хо": 1378,
      "▁Ь": 1379,
      "4.": 1380,
      "ch": 1381,
      "нь": 1382,
      "0.": 1383,
      "▁\n\nП": 1384,
      "6.": 1385,
      "5.": 1386,
      "ень": 1387,
      "ис": 1388,
      "жно": 1389,
      "...": 1390,
      "▁P": 1391,
      "й.": 1392,
      "п.": 1393,
      "ія": 1394,
      "ствен": 1395,
      "▁г.": 1396,
      "д.": 1397,
      "▁\n\n\n\n": 1398,
      "▁Х": 1399,
      "ке": 1400,
      "un": 1401,
      "▁ча": 1402,
      "ныхъ": 1403,
      "ra": 1404,
      "▁На": 1405,
      "▁пос": 1406,
      "іо": 1407,
      "ван": 1408,
      "кой": 1409,
      "бе": 1410,
      "г.": 1411,
      "▁v": 1412,
      "▁дру": 1413,
      "ден": 1414,
      "2.": 1415,
      "ков": 1416,
      "▁как": 1417,
      "▁h": 1418,
      "сп": 1419,
      "гра": 1420,
      "um": 1421,
      "лько": 1422,
      "ской": 1423,
      "дь": 1424,
      "3.": 1425,
      "шо": 1426,
      "ев": 1427,
      "вани": 1428,
      "il": 1429,
      "ia": 1430,
      "каза": 1431,
      "▁од": 1432,
      "7.": 1433,
      "▁жи": 1434,
      "▁M": 1435,
      "▁Ка": 1436,
      "▁\nна": 1437,
      "▁ж": 1438,
      "сЬ": 1439,
      "став": 1440,
      "спо": 1441,
      "▁the": 1442,
      "с.": 1443,
      "▁\n\nС": 1444,
      "▁сто": 1445,
      "▁Я": 1446,
      "▁ми": 1447,
      "мъ,": 1448,
      "8.": 1449,
      "рь": 1450,
      "▁0": 1451,
      "▁T": 1452,
      "▁\nП": 1453,
      "ть,": 1454,
      "▁пред": 1455,
      "ред": 1456,
      "еть": 1457,
      "▁Ш": 1458,
      "-Ь": 1459,
      "лов": 1460,
      "гі": 1461,
      "▁C": 1462,
      "зна": 1463,
      "ета": 1464,
      "етъ": 1465,
      "ров": 1466,
      "ur": 1467,
      "ю,": 1468,
      "▁так": 1469,
      "от": 1470,
      "▁\n\nВ": 1471,
      "▁че": 1472,
      "ран": 1473,
      "el": 1474,
      "▁й": 1475,
      "▁воз": 1476,
      "^^": 1477,
      "▁му": 1478,
      "id": 1479,
      "и,": 1480,
      "це": 1481,
      "ности": 1482,
      "дя": 1483,
      "к.": 1484,
      "▁пер": 1485,
      "фи": 1486,
      "сс": 1487,
      "зу": 1488,
      "▁пи": 1489,
      "▁къ": 1490,
      "▁Ма": 1491,
      "9.": 1492,
      "сли": 1493,
      "ться": 1494,
      "тя": 1495,
      "qu": 1496,
      "ч.": 1497,
      "▁No": 1498,
      "ан": 1499,
      "▁in": 1500,
      "▁пра": 1501,
      "про": 1502,
      "om": 1503,
      "▁=": 1504,
      "▁\n(": 1505,
      "▁лю": 1506,
      "▁\nС": 1507,
      "т,": 1508,
      "ходи": 1509,
      "le": 1510,
      "▁пол": 1511,
      "▁Бо": 1512,
      "сту": 1513,
      "▁'": 1514,
      "▁слу": 1515,
      "▁S": 1516,
      "чески": 1517,
      "го,": 1518,
      "▁10": 1519,
      "▁которы": 1520,
      "▁зна": 1521,
      "чен": 1522,
      "▁\n\n\n1": 1523,
      "▁[": 1524,
      "хи": 1525,
      "пі": 1526,
      "род": 1527,
      "▁of": 1528,
      "▁Э": 1529,
      "1а": 1530,
      "as": 1531,
      "е.": 1532,
      "▁с.": 1533,
      "вой": 1534,
      "▁*": 1535,
      "тся": 1536,
      "1я": 1537,
      "ii": 1538,
      "▁Во": 1539,
      "но,": 1540,
      "сі": 1541,
      "ность": 1542,
      "ac": 1543,
      "▁Со": 1544,
      "▁пу": 1545,
      "▁\nу": 1546,
      "мер": 1547,
      "▁ку": 1548,
      "▁ос": 1549,
      "ръ": 1550,
      "ent": 1551,
      "▁ѵ": 1552,
      "ющи": 1553,
      "».": 1554,
      "лся": 1555,
      "ol": 1556,
      "▁вре": 1557,
      "pe": 1558,
      "▁\nд": 1559,
      "▁\nко": 1560,
      "ным": 1561,
      "▁11": 1562,
      "▁Мо": 1563,
      "На": 1564,
      "▁an": 1565,
      "ка,": 1566,
      "▁w": 1567,
      "▁обра": 1568,
      "тов": 1569,
      "наго": 1570,
      "ную": 1571,
      "▁пе": 1572,
      "вет": 1573,
      "▁изъ": 1574,
      "▁\nВ": 1575,
      "цы": 1576,
      "ак": 1577,
      "▁K": 1578,
      "я.": 1579,
      "▁17": 1580,
      "ig": 1581,
      "въ,": 1582,
      "▁т.": 1583,
      "б.": 1584,
      "он": 1585,
      "am": 1586,
      "сы": 1587,
      "шен": 1588,
      "▁(1": 1589,
      "▁\n\nК": 1590,
      "зя": 1591,
      "стоя": 1592,
      "▁\nа": 1593,
      "▁оп": 1594,
      "▁зем": 1595,
      "ются": 1596,
      "▁им": 1597,
      "▁\n\nО": 1598,
      "po": 1599,
      "▁дол": 1600,
      "ном": 1601,
      "▁ле": 1602,
      "im": 1603,
      "▁de": 1604,
      "0,": 1605,
      "▁сло": 1606,
      "сты": 1607,
      "▁ин": 1608,
      "ит": 1609,
      "ion": 1610,
      "скаго": 1611,
      "оп": 1612,
      "лись": 1613,
      "ат": 1614,
      "ul": 1615,
      "▁/": 1616,
      "ми,": 1617,
      "▁кон": 1618,
      "▁12": 1619,
      "▁Но": 1620,
      "▁он": 1621,
      "▁15": 1622,
      "стро": 1623,
      "ап": 1624,
      "▁ду": 1625,
      "▁V": 1626,
      "ae": 1627,
      "лав": 1628,
      "HH": 1629,
      "у,": 1630,
      "▁\"": 1631,
      "и.": 1632,
      "нд": 1633,
      "чь": 1634,
      "▁g": 1635,
      "ние": 1636,
      "▁отъ": 1637,
      "▁ты": 1638,
      "ского": 1639,
      "\n\n\n\n\n\n\n\n\n\n\n\n\n\n\n\n": 1640,
      "ed": 1641,
      "▁;": 1642,
      "▁\nК": 1643,
      "на,": 1644,
      "ing": 1645,
      "ій": 1646,
      "▁А.": 1647,
      "▁\n\n3": 1648,
      "▁Ц": 1649,
      "▁га": 1650,
      "ству": 1651,
      "»,": 1652,
      "01": 1653,
      "зе": 1654,
      "тре": 1655,
      "▁16": 1656,
      "дет": 1657,
      "▁L": 1658,
      "кра": 1659,
      "em": 1660,
      "▁мы": 1661,
      "?-": 1662,
      ");": 1663,
      "io": 1664,
      "аль": 1665,
      "к,": 1666,
      "▁ди": 1667,
      "тр": 1668,
      "зъ": 1669,
      "зыва": 1670,
      "▁Ва": 1671,
      "ки,": 1672,
      "▁В.": 1673,
      "л,": 1674,
      "▁\nне": 1675,
      "нен": 1676,
      "дер": 1677,
      "▁\n\n4": 1678,
      "ог": 1679,
      "▁\nто": 1680,
      "▁\nра": 1681,
      "II": 1682,
      "▁\n\n\n\n\n": 1683,
      "▁боль": 1684,
      "et": 1685,
      "▁без": 1686,
      "ему": 1687,
      "▁стр.": 1688,
      "съ": 1689,
      "ными": 1690,
      "▁было": 1691,
      "▁14": 1692,
      "ut": 1693,
      "его": 1694,
      "х,": 1695,
      "кого": 1696,
      "▁За": 1697,
      "дар": 1698,
      "▁ло": 1699,
      "з.": 1700,
      "ния": 1701,
      "вод": 1702,
      "▁рабо": 1703,
      "ТЬ": 1704,
      "ника": 1705,
      "тив": 1706,
      "1,": 1707,
      "▁\nк": 1708,
      "▁гра": 1709,
      "мь": 1710,
      "тому": 1711,
      "▁\\": 1712,
      "▁вс": 1713,
      "хъ,": 1714,
      "ции": 1715,
      "▁\nА": 1716,
      "oc": 1717,
      "стви": 1718,
      "лось": 1719,
      "pa": 1720,
      "▁Ра": 1721,
      "лек": 1722,
      "ео": 1723,
      "▁ба": 1724,
      "▁р.": 1725,
      "▁только": 1726,
      "ский": 1727,
      "ер.": 1728,
      "ec": 1729,
      "іп": 1730,
      "▁:": 1731,
      "ек": 1732,
      "бра": 1733,
      "ir": 1734,
      "▁ар": 1735,
      "нима": 1736,
      "10": 1737,
      "ин": 1738,
      "▁X": 1739,
      "▁\nво": 1740,
      "▁Ж": 1741,
      "▁•": 1742,
      "пол": 1743,
      "▁кре": 1744,
      "▁ее": 1745,
      "▁объ": 1746,
      "▁13": 1747,
      ".-": 1748,
      "▁полу": 1749,
      "пы": 1750,
      "18": 1751,
      "щен": 1752,
      "▁\nсо": 1753,
      "▁\n\nТ": 1754,
      "▁Го": 1755,
      "e,": 1756,
      "▁\n2": 1757,
      "▁\nМ": 1758,
      "цо": 1759,
      "▁пр": 1760,
      "сте": 1761,
      "ром": 1762,
      "▁тре": 1763,
      "▁\nО": 1764,
      "▁поло": 1765,
      "▁„": 1766,
      "ли,": 1767,
      "тра": 1768,
      "▁&": 1769,
      "ь,": 1770,
      "три": 1771,
      "▁их": 1772,
      "▁\nза": 1773,
      "5,": 1774,
      "4,": 1775,
      "сло": 1776,
      "вич": 1777,
      "ник": 1778,
      "ети": 1779,
      "▁\n\n\n2": 1780,
      "ская": 1781,
      "вши": 1782,
      "пра": 1783,
      "лей": 1784,
      "при": 1785,
      "▁Па": 1786,
      "▁свя": 1787,
      "въ.": 1788,
      "bi": 1789,
      "гла": 1790,
      "2,": 1791,
      "▁\n\n5": 1792,
      "▁чтобы": 1793,
      "▁to": 1794,
      "аг": 1795,
      "▁\nдо": 1796,
      "▁no": 1797,
      "▁\nч": 1798,
      "тор": 1799,
      "чно": 1800,
      "иг": 1801,
      "▁Да": 1802,
      "▁and": 1803,
      "бли": 1804,
      "вор": 1805,
      "ва,": 1806,
      "в,": 1807,
      "нг": 1808,
      "емы": 1809,
      "▁Се": 1810,
      "6,": 1811,
      "▁М.": 1812,
      "бря": 1813,
      "▁O": 1814,
      "вори": 1815,
      "жда": 1816,
      "▁пла": 1817,
      "дин": 1818,
      "▁\nка": 1819,
      "op": 1820,
      "жду": 1821,
      "бя": 1822,
      "▁см.": 1823,
      "▁F": 1824,
      "▁Та": 1825,
      "▁\n\nМ": 1826,
      "ней": 1827,
      "сш": 1828,
      "лаго": 1829,
      "СТ": 1830,
      "обра": 1831,
      "▁мен": 1832,
      "вая": 1833,
      "▁ри": 1834,
      "і.": 1835,
      "сл": 1836,
      "рой": 1837,
      "99": 1838,
      "номъ": 1839,
      "No": 1840,
      "▁Ми": 1841,
      "▁20": 1842,
      "н,": 1843,
      "ib": 1844,
      "х.": 1845,
      "▁д.": 1846,
      "ъ.": 1847,
      "писа": 1848,
      "▁какъ": 1849,
      "os": 1850,
      "соб": 1851,
      "▁кра": 1852,
      "тер": 1853,
      "ю.": 1854,
      "вля": 1855,
      "▁То": 1856,
      "▁ки": 1857,
      "▁ту": 1858,
      "тро": 1859,
      "кое": 1860,
      "ком": 1861,
      "сла": 1862,
      "шу": 1863,
      "▁<": 1864,
      "▁дву": 1865,
      "прав": 1866,
      "▁сы": 1867,
      "▁1.": 1868,
      "▁\nни": 1869,
      "▁qu": 1870,
      "лась": 1871,
      "▁когда": 1872,
      "▁гу": 1873,
      "1;": 1874,
      "лове": 1875,
      "▁D": 1876,
      "▁эти": 1877,
      "▁r": 1878,
      "▁свои": 1879,
      "▁ап": 1880,
      "кая": 1881,
      "3,": 1882,
      "1и": 1883,
      "8,": 1884,
      "вали": 1885,
      "▁ю": 1886,
      "▁\nТ": 1887,
      "дѣ": 1888,
      "▁\n\nР": 1889,
      "▁ско": 1890,
      "нк": 1891,
      "ныя": 1892,
      "шя": 1893,
      "ep": 1894,
      "тельно": 1895,
      "емо": 1896,
      "▁G": 1897,
      "▁есть": 1898,
      "7,": 1899,
      "оло": 1900,
      "▁ти": 1901,
      "▁Ро": 1902,
      ":-": 1903,
      "ет,": 1904,
      "▁\nго": 1905,
      "Ъ,": 1906,
      "▁чет": 1907,
      "▁E": 1908,
      "кла": 1909,
      "▁С.": 1910,
      "мъ.": 1911,
      "стра": 1912,
      "od": 1913,
      "ть.": 1914,
      "ении": 1915,
      "12": 1916,
      "▁При": 1917,
      "▁они": 1918,
      "▁\nпри": 1919,
      "вый": 1920,
      "▁\nГ": 1921,
      "гь": 1922,
      "іс": 1923,
      "▁Са": 1924,
      "но-": 1925,
      "!\n\n<|startoftext|>": 1926,
      "иа": 1927,
      "да,": 1928,
      "торы": 1929,
      "▁вер": 1930,
      "▁Не": 1931,
      "▁жен": 1932,
      "▁Ве": 1933,
      "▁также": 1934,
      "ур": 1935,
      "ter": 1936,
      "▁\n\nА": 1937,
      "▁произ": 1938,
      "la": 1939,
      "ску": 1940,
      "шни": 1941,
      "▁\nта": 1942,
      "пре": 1943,
      "ВА": 1944,
      "▁187": 1945,
      "н-": 1946,
      "зь": 1947,
      "▁если": 1948,
      "ла,": 1949,
      "▁■": 1950,
      "▁время": 1951,
      "▁чи": 1952,
      "▁ха": 1953,
      "9,": 1954,
      "▁re": 1955,
      "зд": 1956,
      "ху": 1957,
      "▁ор": 1958,
      "▁еще": 1959,
      "бер": 1960,
      "ст.": 1961,
      "if": 1962,
      "дей": 1963,
      "нымъ": 1964,
      "ят": 1965,
      "▁‘": 1966,
      "▁само": 1967,
      "За": 1968,
      "▁\nро": 1969,
      "кры": 1970,
      "▁рас": 1971,
      "нн": 1972,
      "▁вели": 1973,
      "ете": 1974,
      "г,": 1975,
      "▁бра": 1976,
      "лѣ": 1977,
      "фа": 1978,
      "▁\nпро": 1979,
      "▁\n\nИ": 1980,
      "▁al": 1981,
      "TB": 1982,
      "ления": 1983,
      "ио": 1984,
      "▁\n\nГ": 1985,
      "▁\nР": 1986,
      "▁после": 1987,
      "тери": 1988,
      "ских": 1989,
      "▁оста": 1990,
      "▁R": 1991,
      "гъ": 1992,
      "▁случа": 1993,
      "▁\nт": 1994,
      "цу": 1995,
      "фе": 1996,
      "ми.": 1997,
      "ти,": 1998,
      "▁+": 1999,
      "▁\nИ": 2000,
      "мЪ": 2001,
      "ставля": 2002,
      "ний": 2003,
      "ному": 2004,
      "a,": 2005,
      "15": 2006,
      "ich": 2007,
      "▁\n\nД": 2008,
      "Ье": 2009,
      "▁Об": 2010,
      "▁быть": 2011,
      "зда": 2012,
      "▁\nвъ": 2013,
      "▁un": 2014,
      "ция": 2015,
      "▁бе": 2016,
      "▁\n\n\nП": 2017,
      "▁она": 2018,
      "аз": 2019,
      "та,": 2020,
      "1о": 2021,
      "пер": 2022,
      "чу": 2023,
      "17": 2024,
      "▁уже": 2025,
      "▁Ви": 2026,
      "▁отно": 2027,
      "▁спо": 2028,
      "▁\n\nЛ": 2029,
      "том": 2030,
      "th": 2031,
      "▁ла": 2032,
      "жу": 2033,
      "стья": 2034,
      "ка.": 2035,
      "▁день": 2036,
      "▁j": 2037,
      "▁\nмо": 2038,
      "сг": 2039,
      "▁нача": 2040,
      "ене": 2041,
      "іг": 2042,
      "▁мож": 2043,
      "ман": 2044,
      ".\n\n<|startoftext|>-": 2045,
      "▁\nда": 2046,
      "▁И.": 2047,
      "вое": 2048,
      "рев": 2049,
      "мѣ": 2050,
      "дов": 2051,
      "вед": 2052,
      "ab": 2053,
      "ол": 2054,
      "юще": 2055,
      "ва.": 2056,
      "▁были": 2057,
      "▁об.": 2058,
      "▁Си": 2059,
      "▁обо": 2060,
      "20": 2061,
      "▁\n«": 2062,
      "пера": 2063,
      "▁ша": 2064,
      "ce": 2065,
      "▁ок": 2066,
      "▁\nно": 2067,
      "▁по-": 2068,
      "▁пло": 2069,
      "ны,": 2070,
      "од": 2071,
      "льно": 2072,
      "▁\nе": 2073,
      "▁фи": 2074,
      "▁фор": 2075,
      "▁25": 2076,
      "жд": 2077,
      "води": 2078,
      "▁{": 2079,
      "мени": 2080,
      "▁стра": 2081,
      "вые": 2082,
      "рг": 2083,
      "▁Въ": 2084,
      "▁Вы": 2085,
      "▁сторо": 2086,
      "ap": 2087,
      "▁\nБ": 2088,
      "▁\nН": 2089,
      "есь": 2090,
      "-то": 2091,
      "▁\nг": 2092,
      "14": 2093,
      "▁чу": 2094,
      "iv": 2095,
      "шей": 2096,
      "^о": 2097,
      "ус": 2098,
      "жден": 2099,
      "▁>": 2100,
      "▁други": 2101,
      "рен": 2102,
      "на.": 2103,
      "скихъ": 2104,
      "ный,": 2105,
      "а,": 2106,
      "кон": 2107,
      "AT": 2108,
      "▁\nли": 2109,
      "ход": 2110,
      "▁y": 2111,
      "ct": 2112,
      "вания": 2113,
      "вѣ": 2114,
      "▁ком": 2115,
      "▁тру": 2116,
      "ья": 2117,
      "иі": 2118,
      "▁между": 2119,
      "жде": 2120,
      "▁іп": 2121,
      "ас": 2122,
      "▁ему": 2123,
      "ті": 2124,
      "зни": 2125,
      "▁ав": 2126,
      "▁госу": 2127,
      "19": 2128,
      "▁дан": 2129,
      "ou": 2130,
      "▁τ": 2131,
      "▁Ю": 2132,
      "▁Су": 2133,
      "лени": 2134,
      "fl": 2135,
      "▁\nз": 2136,
      "▁цер": 2137,
      "яв": 2138,
      "ип": 2139,
      "▁лу": 2140,
      "хь": 2141,
      "доб": 2142,
      "хе": 2143,
      "ск.": 2144,
      "▁II": 2145,
      "▁кня": 2146,
      "▁П.": 2147,
      "▁Рос": 2148,
      "▁испо": 2149,
      "▁челове": 2150,
      "дова": 2151,
      "▁\n\n6": 2152,
      "мет": 2153,
      "ра,": 2154,
      "▁2.": 2155,
      "▁того": 2156,
      "рак": 2157,
      "16": 2158,
      "▁исто": 2159,
      "▁вла": 2160,
      "▁Ни": 2161,
      "чита": 2162,
      "▁сле": 2163,
      "ш.": 2164,
      "ere": 2165,
      "▁24": 2166,
      "▁До": 2167,
      "▁k": 2168,
      "ковъ": 2169,
      "▁\nД": 2170,
      "▁\nпа": 2171,
      "сно": 2172,
      "▁ихъ": 2173,
      "клю": 2174,
      "вра": 2175,
      "▁можно": 2176,
      "лн": 2177,
      "▁ше": 2178,
      "рт": 2179,
      "ходя": 2180,
      "ЕН": 2181,
      "▁$": 2182,
      "с-": 2183,
      "^а": 2184,
      "▁\nва": 2185,
      "▁\n\nН": 2186,
      "вание": 2187,
      "▁\n\n8": 2188,
      "ютъ": 2189,
      "▁гла": 2190,
      "▁гру": 2191,
      "▁име": 2192,
      "ad": 2193,
      "▁\n\n\nС": 2194,
      "30": 2195,
      "із": 2196,
      "▁потому": 2197,
      "▁190": 2198,
      "▁\n\nБ": 2199,
      "▁це": 2200,
      "▁оч": 2201,
      "▁гл.": 2202,
      "*.": 2203,
      "▁Н.": 2204,
      "▁th": 2205,
      "ешь": 2206,
      "▁\nре": 2207,
      "теля": 2208,
      "AN": 2209,
      "им": 2210,
      "иъ": 2211,
      "▁был": 2212,
      "Ь.": 2213,
      "нови": 2214,
      "▁1,": 2215,
      "▁пря": 2216,
      "рѣ": 2217,
      "она": 2218,
      "ки.": 2219,
      "90": 2220,
      "с,": 2221,
      "іу": 2222,
      "▁года": 2223,
      "ОВ": 2224,
      "▁вЪ": 2225,
      "▁эк": 2226,
      "стей": 2227,
      "стя": 2228,
      "^.": 2229,
      "СК": 2230,
      "ji": 2231,
      "ні": 2232,
      "▁чис": 2233,
      "е-": 2234,
      "▁2)": 2235,
      "вал": 2236,
      "ление": 2237,
      "РА": 2238,
      "▁л.": 2239,
      "жъ": 2240,
      "▁в.": 2241,
      "▁et": 2242,
      "▁друго": 2243,
      "▁кни": 2244,
      "стави": 2245,
      "....": 2246,
      "ии": 2247,
      "Ba": 2248,
      "▁поч": 2249,
      "лее": 2250,
      "і^": 2251,
      "нт": 2252,
      "▁говори": 2253,
      "▁Про": 2254,
      "and": 2255,
      "▁была": 2256,
      "▁меня": 2257,
      "▁‚": 2258,
      "▁\nб": 2259,
      "вв": 2260,
      "ж.": 2261,
      "п,": 2262,
      "а.": 2263,
      "фо": 2264,
      "▁От": 2265,
      "ess": 2266,
      "стве": 2267,
      "!-": 2268,
      "13": 2269,
      "▁обще": 2270,
      "вен": 2271,
      "стре": 2272,
      "Ъ.": 2273,
      "▁i": 2274,
      "▁четь": 2275,
      "▁ге": 2276,
      "▁con": 2277,
      "▁22": 2278,
      "▁\nоб": 2279,
      "рі": 2280,
      "▁»": 2281,
      "▁над": 2282,
      "▁\nЛ": 2283,
      "40": 2284,
      "▁Ы": 2285,
      "og": 2286,
      "нова": 2287,
      "лет": 2288,
      "▁\n\n\n\n\n\n": 2289,
      "▁рус": 2290,
      "▁жа": 2291,
      "▁א": 2292,
      "▁образо": 2293,
      "вого": 2294,
      "▁ца": 2295,
      "▁дво": 2296,
      "▁30": 2297,
      "з,": 2298,
      "▁Ива": 2299,
      "▁\nот": 2300,
      "▁\nc": 2301,
      "▁кор": 2302,
      "пс": 2303,
      "▁два": 2304,
      "▁мно": 2305,
      "тора": 2306,
      "і,": 2307,
      "вь": 2308,
      "▁рг": 2309,
      "каго": 2310,
      "ov": 2311,
      "1й": 2312,
      "лич": 2313,
      "зан": 2314,
      "бор": 2315,
      "▁\nн": 2316,
      "вре": 2317,
      "▁п.": 2318,
      "▁J": 2319,
      "ly": 2320,
      "ку,": 2321,
      "пита": 2322,
      "▁ну": 2323,
      "▁\nя": 2324,
      "50": 2325,
      "ІІ": 2326,
      "у.": 2327,
      "a.": 2328,
      "лѵ": 2329,
      "в-": 2330,
      "▁дей": 2331,
      "▁\nэ": 2332,
      "ческой": 2333,
      "▁ск": 2334,
      "ag": 2335,
      "мф": 2336,
      "▁этого": 2337,
      "HO": 2338,
      "нии": 2339,
      "m.": 2340,
      "ряд": 2341,
      "держа": 2342,
      "ие": 2343,
      "▁\n\n\nВ": 2344,
      "▁поли": 2345,
      "▁которые": 2346,
      "▁3.": 2347,
      "▁сла": 2348,
      "\n\n\n\n\n\n\n\n\n\n\n\n\n\n\n\n\n\n\n\n\n\n\n\n\n\n\n\n\n\n\n\n": 2349,
      "ющ": 2350,
      "дель": 2351,
      "ГО": 2352,
      "ступ": 2353,
      "▁которо": 2354,
      "сле": 2355,
      "▁буду": 2356,
      "▁земли": 2357,
      "▁м.": 2358,
      "реде": 2359,
      "▁будет": 2360,
      "▁23": 2361,
      "▁доб": 2362,
      "e.": 2363,
      "▁би": 2364,
      "▁Пет": 2365,
      "лл": 2366,
      "ЕР": 2367,
      "▁1)": 2368,
      "▁\nте": 2369,
      "вар": 2370,
      "жо": 2371,
      "▁26": 2372,
      "▁W": 2373,
      "▁каж": 2374,
      "емъ": 2375,
      "▁\nвы": 2376,
      "цъ": 2377,
      "▁\nбо": 2378,
      "ant": 2379,
      "▁\nр": 2380,
      "вает": 2381,
      "▁Га": 2382,
      "торо": 2383,
      "хъ.": 2384,
      "▁\n\n7": 2385,
      "▁\n\n\n3": 2386,
      "▁горо": 2387,
      "ут": 2388,
      "ip": 2389,
      "▁\nd": 2390,
      "▁К.": 2391,
      "▁(с": 2392,
      "лЪ": 2393,
      "1^": 2394,
      "25": 2395,
      "ub": 2396,
      "Ьа": 2397,
      "▁z": 2398,
      "пере": 2399,
      "end": 2400,
      "▁сказа": 2401,
      "▁or": 2402,
      "▁дв.": 2403,
      "▁Мар": 2404,
      "▁Ha": 2405,
      "▁соб": 2406,
      "▁ы": 2407,
      "рии": 2408,
      "▁Ъ": 2409,
      "▁\n\nЕ": 2410,
      "▁\nn": 2411,
      "ot": 2412,
      "▁27": 2413,
      "та.": 2414,
      "1Й": 2415,
      ".)": 2416,
      "▁Ар": 2417,
      "^е": 2418,
      "▁\n3": 2419,
      "▁\nма": 2420,
      "дно": 2421,
      "нат": 2422,
      "РО": 2423,
      "▁Ба": 2424,
      "фор": 2425,
      "рова": 2426,
      "▁\nло": 2427,
      "спе": 2428,
      "▁подъ": 2429,
      "▁\ns": 2430,
      "лага": 2431,
      "▁году": 2432,
      "л-": 2433,
      "ц.": 2434,
      "шка": 2435,
      "ское": 2436,
      "АН": 2437,
      "▁on": 2438,
      "дан": 2439,
      "▁чере": 2440,
      "▁\nбы": 2441,
      "скому": 2442,
      "кий": 2443,
      "вых": 2444,
      "кі": 2445,
      "▁Г.": 2446,
      "▁три": 2447,
      "Tb": 2448,
      "оо": 2449,
      "лі": 2450,
      "р,": 2451,
      "▁крестья": 2452,
      "теп": 2453,
      "▁U": 2454,
      "нее": 2455,
      "нако": 2456,
      "▁\nA": 2457,
      "▁\n\n\n—": 2458,
      "▁28": 2459,
      "55": 2460,
      "▁чер": 2461,
      "▁\n\nНа": 2462,
      "▁se": 2463,
      "▁много": 2464,
      "▁обы": 2465,
      "▁рго": 2466,
      "▁упо": 2467,
      "up": 2468,
      "▁слова": 2469,
      "▁прави": 2470,
      "▁]": 2471,
      "▁кру": 2472,
      "комъ": 2473,
      "лова": 2474,
      "24": 2475,
      "s.": 2476,
      "1Я": 2477,
      "▁Это": 2478,
      "рю": 2479,
      "▁\nм": 2480,
      "▁8.": 2481,
      "▁помо": 2482,
      "еш": 2483,
      "▁вся": 2484,
      "енно": 2485,
      "▁благо": 2486,
      "are": 2487,
      "а-": 2488,
      "нѣ": 2489,
      "▁Де": 2490,
      "сси": 2491,
      "▁точ": 2492,
      "ОЛ": 2493,
      "над": 2494,
      "дела": 2495,
      "ud": 2496,
      "хов": 2497,
      "▁\n\nУ": 2498,
      "▁него": 2499,
      "яс": 2500,
      "▁е.": 2501,
      "▁Ли": 2502,
      "пп": 2503,
      "т-": 2504,
      "ема": 2505,
      "▁Из": 2506,
      "ist": 2507,
      "▁ши": 2508,
      "▁сер": 2509,
      "▁ь": 2510,
      "▁pro": 2511,
      "дни": 2512,
      "22": 2513,
      "▁ак": 2514,
      "▁вой": 2515,
      "▁\n\n\nО": 2516,
      "▁дер.": 2517,
      "▁\nви": 2518,
      "дом": 2519,
      "уа": 2520,
      "вно": 2521,
      "ские": 2522,
      "▁\nш": 2523,
      "eH": 2524,
      "▁Ѵ": 2525,
      "60": 2526,
      "1)": 2527,
      "80": 2528,
      "▁который": 2529,
      "чени": 2530,
      "▁st": 2531,
      "s,": 2532,
      "тера": 2533,
      "▁дере": 2534,
      "▁Й": 2535,
      "▁la": 2536,
      "логи": 2537,
      "ель": 2538,
      "твер": 2539,
      "▁может": 2540,
      "той": 2541,
      "▁\nЕ": 2542,
      "▁\n\n\n4": 2543,
      "▁таки": 2544,
      "art": 2545,
      "▁онъ": 2546,
      "ran": 2547,
      "къ,": 2548,
      "▁тем": 2549,
      "▁вз": 2550,
      "Ьо": 2551,
      "р-": 2552,
      "АТ": 2553,
      "▁буд": 2554,
      "TO": 2555,
      "гре": 2556,
      "▁кла": 2557,
      "▁кто": 2558,
      "▁язы": 2559,
      "лъ,": 2560,
      "▁x": 2561,
      "▁29": 2562,
      "▁мне": 2563,
      "▁стро": 2564,
      "▁совер": 2565,
      "▁Ру": 2566,
      "▁be": 2567,
      "д-": 2568,
      "000": 2569,
      "▁ne": 2570,
      "▁ис": 2571,
      "82": 2572,
      "лко": 2573,
      "▁г.,": 2574,
      "▁сем": 2575,
      "ш,": 2576,
      "▁коро": 2577,
      "▁св": 2578,
      "▁ска": 2579,
      "AP": 2580,
      "скі": 2581,
      "льзо": 2582,
      "ation": 2583,
      "▁женщи": 2584,
      "го.": 2585,
      "щая": 2586,
      "▁\n\n(": 2587,
      "▁)": 2588,
      "бой": 2589,
      "ца,": 2590,
      "аа": 2591,
      "▁for": 2592,
      "ць": 2593,
      "цен": 2594,
      "тно": 2595,
      "▁Р.": 2596,
      "▁части": 2597,
      "о-": 2598,
      "▁вра": 2599,
      "лож": 2600,
      "er,": 2601,
      "▁голо": 2602,
      "▁!": 2603,
      "ства,": 2604,
      "▁Ме": 2605,
      "▁всего": 2606,
      "шъ": 2607,
      "Ha": 2608,
      "кую": 2609,
      "▁смо": 2610,
      "87": 2611,
      "ай": 2612,
      "ваться": 2613,
      "▁фу": 2614,
      "пя": 2615,
      "бъ": 2616,
      "нъ,": 2617,
      "▁к.": 2618,
      "пй": 2619,
      "▁дѣ": 2620,
      "бле": 2621,
      "▁сред": 2622,
      "▁явля": 2623,
      "вается": 2624,
      "▁іі": 2625,
      "▁зе": 2626,
      "чина": 2627,
      "▁\nУ": 2628,
      "ет.": 2629,
      "▁ги": 2630,
      "вс": 2631,
      "▁(-": 2632,
      "СС": 2633,
      "▁ad": 2634,
      "АЛ": 2635,
      "бару": 2636,
      "▁\nча": 2637,
      "▁такъ": 2638,
      "ell": 2639,
      "▁Ку": 2640,
      "ню": 2641,
      "88": 2642,
      "хЪ": 2643,
      "97": 2644,
      "льни": 2645,
      "-2": 2646,
      "▁Ти": 2647,
      "казыва": 2648,
      "ніе": 2649,
      "ers": 2650,
      "].": 2651,
      "ho": 2652,
      "▁долж": 2653,
      "йте": 2654,
      "▁\n4": 2655,
      "▁\np": 2656,
      "можно": 2657,
      "▁того,": 2658,
      "тен": 2659,
      "А.": 2660,
      "▁Ки": 2661,
      "ав": 2662,
      "▁іе": 2663,
      "веден": 2664,
      "стран": 2665,
      "▁суще": 2666,
      "▁\n\n\nТ": 2667,
      "▁\nти": 2668,
      "ne": 2669,
      "▁пашни": 2670,
      "▁\n\n\nК": 2671,
      "▁обла": 2672,
      "ью": 2673,
      "іт": 2674,
      "▁даже": 2675,
      "95": 2676,
      "выхъ": 2677,
      "▁50": 2678,
      "▁60": 2679,
      "...\n\n<|startoftext|>": 2680,
      "▁сл": 2681,
      "ее": 2682,
      "лле": 2683,
      "▁чем": 2684,
      "оз": 2685,
      "▁§": 2686,
      "▁кри": 2687,
      "чет": 2688,
      "▁дес": 2689,
      "▁хоро": 2690,
      "▁писа": 2691,
      "шки": 2692,
      "▁“": 2693,
      "▁He": 2694,
      "НЫ": 2695,
      "ра.": 2696,
      "▁\nса": 2697,
      "б,": 2698,
      "▁\n\nПо": 2699,
      "ca": 2700,
      "ложен": 2701,
      "iH": 2702,
      "▁ог": 2703,
      "KO": 2704,
      "лт": 2705,
      "кре": 2706,
      "i,": 2707,
      "ками": 2708,
      "1:": 2709,
      "▁Л.": 2710,
      "▁Ста": 2711,
      "жить": 2712,
      "тъ,": 2713,
      "▁сист": 2714,
      "ла.": 2715,
      "MH": 2716,
      "▁\nси": 2717,
      "▁зо": 2718,
      "лан": 2719,
      "дол": 2720,
      "бира": 2721,
      "мина": 2722,
      "ению": 2723,
      "еди": 2724,
      "▁муж": 2725,
      "▁вну": 2726,
      "77": 2727,
      "тур": 2728,
      "▁очень": 2729,
      "▁40": 2730,
      "аи": 2731,
      "сти,": 2732,
      "га,": 2733,
      "гс": 2734,
      "▁моло": 2735,
      "23": 2736,
      "▁уста": 2737,
      "▁\nm": 2738,
      "▁гре": 2739,
      "тере": 2740,
      "шего": 2741,
      "▁могу": 2742,
      "хра": 2743,
      "стан": 2744,
      "вЪ": 2745,
      "ческих": 2746,
      "тября": 2747,
      "еу": 2748,
      "▁где": 2749,
      "▁кар": 2750,
      "▁ря": 2751,
      "ens": 2752,
      "▁na": 2753,
      "▁вопро": 2754,
      "ль-": 2755,
      "▁\nчто": 2756,
      "ющих": 2757,
      "пр": 2758,
      "НИ": 2759,
      "п-": 2760,
      "▁св.": 2761,
      "которы": 2762,
      "лин": 2763,
      "26": 2764,
      "'b": 2765,
      "▁мона": 2766,
      "▁состоя": 2767,
      "▁доро": 2768,
      "▁186": 2769,
      "▁\nве": 2770,
      "ft": 2771,
      "ow": 2772,
      "ate": 2773,
      "44": 2774,
      "еи": 2775,
      "▁\n\n\n5": 2776,
      "вари": 2777,
      "рго": 2778,
      "▁\nде": 2779,
      "пз": 2780,
      "▁des": 2781,
      "▁дер": 2782,
      "▁необ": 2783,
      "▁этой": 2784,
      "▁\nt": 2785,
      "скомъ": 2786,
      "лев": 2787,
      "д,": 2788,
      "▁Моск": 2789,
      "▁ры": 2790,
      "чение": 2791,
      "▁is": 2792,
      "▁нау": 2793,
      "рус": 2794,
      "рая": 2795,
      "▁Гу": 2796,
      "дЪ": 2797,
      "тни": 2798,
      "▁дела": 2799,
      "▁Алек": 2800,
      "▁коп": 2801,
      "Іі": 2802,
      "ax": 2803,
      "ide": 2804,
      "пас": 2805,
      "▁поз": 2806,
      "нъ.": 2807,
      "1-": 2808,
      "▁4.": 2809,
      "раз": 2810,
      "▁опреде": 2811,
      "▁смер": 2812,
      "ы,": 2813,
      "27": 2814,
      "▁ней": 2815,
      "НО": 2816,
      "ло,": 2817,
      "▁сви": 2818,
      "▁np": 2819,
      "▁ro": 2820,
      "вую": 2821,
      "▁уча": 2822,
      "тели": 2823,
      "▁\nсе": 2824,
      "тей": 2825,
      "▁ей": 2826,
      "ны.": 2827,
      "▁орга": 2828,
      "ять": 2829,
      "рей": 2830,
      "да.": 2831,
      "В.": 2832,
      "сіі": 2833,
      "сколько": 2834,
      "r.": 2835,
      "--": 2836,
      "▁себя": 2837,
      "чения": 2838,
      "▁\n|": 2839,
      "Ьі": 2840,
      "чка": 2841,
      "с1": 2842,
      "ith": 2843,
      "uc": 2844,
      "сков": 2845,
      "чной": 2846,
      "вест": 2847,
      "лп": 2848,
      "▁ст.": 2849,
      "сть,": 2850,
      "▁выра": 2851,
      "ма,": 2852,
      "▁особ": 2853,
      "чер": 2854,
      "▁учи": 2855,
      "Не": 2856,
      "льной": 2857,
      "▁\nди": 2858,
      "вш": 2859,
      "блю": 2860,
      "i.": 2861,
      "ся,": 2862,
      "▁уда": 2863,
      "▁свой": 2864,
      "▁своей": 2865,
      "▁le": 2866,
      "^,": 2867,
      "треб": 2868,
      "▁взя": 2869,
      "▁ху": 2870,
      "лез": 2871,
      "ства.": 2872,
      "лом": 2873,
      "me": 2874,
      "21": 2875,
      "ений": 2876,
      "ill": 2877,
      "^и": 2878,
      "81": 2879,
      "йти": 2880,
      "о,": 2881,
      "96": 2882,
      "сов": 2883,
      "▁\nЧ": 2884,
      "лемен": 2885,
      "▁(П": 2886,
      "▁Васи": 2887,
      "▁лишь": 2888,
      "CT": 2889,
      "▁спи": 2890,
      "СЯ": 2891,
      "▁\n5": 2892,
      "ies": 2893,
      "оу": 2894,
      "ше,": 2895,
      "▁(С": 2896,
      "му,": 2897,
      "▁\n\n\n\n\n\n\n": 2898,
      "во,": 2899,
      "86": 2900,
      "РИ": 2901,
      "ов": 2902,
      "зі": 2903,
      "кло": 2904,
      "телей": 2905,
      "слу": 2906,
      "▁тра": 2907,
      "ium": 2908,
      "94": 2909,
      "▁\n\nI": 2910,
      "те,": 2911,
      "гЬ": 2912,
      "▁\nиз": 2913,
      "▁_": 2914,
      "ро-": 2915,
      "шая": 2916,
      "▁co": 2917,
      "воз": 2918,
      "ты,": 2919,
      "▁ПА": 2920,
      "▁счита": 2921,
      "ЛА": 2922,
      "▁Росси": 2923,
      "цес": 2924,
      "▁государ": 2925,
      "▁Что": 2926,
      "пла": 2927,
      "▁наз": 2928,
      "кола": 2929,
      "▁Б.": 2930,
      "о.": 2931,
      "▁бол": 2932,
      "рта": 2933,
      "▁Пу": 2934,
      "aa": 2935,
      "менно": 2936,
      "къ.": 2937,
      "==": 2938,
      "▁дви": 2939,
      "▁\nми": 2940,
      "▁5.": 2941,
      "▁\n\n11": 2942,
      "▁свое": 2943,
      "вян": 2944,
      "стъ": 2945,
      "стру": 2946,
      "ль,": 2947,
      "▁der": 2948,
      "▁po": 2949,
      "сса": 2950,
      "ОТ": 2951,
      "85": 2952,
      "сн": 2953,
      "▁\n\nЧ": 2954,
      "▁\n\n\nМ": 2955,
      "▁бли": 2956,
      "▁зако": 2957,
      "▁ино": 2958,
      "▁этом": 2959,
      "рон": 2960,
      "▁зд": 2961,
      "еа": 2962,
      "▁руко": 2963,
      "^Ь": 2964,
      "ой": 2965,
      "гг": 2966,
      "▁ѵ.": 2967,
      "▁мило": 2968,
      "ііі": 2969,
      "▁сЪ": 2970,
      "І.": 2971,
      "(1": 2972,
      "▁Если": 2973,
      "дать": 2974,
      "▁\nри": 2975,
      "\".": 2976,
      "ф.": 2977,
      "в.,": 2978,
      "цион": 2979,
      "имо": 2980,
      "ды,": 2981,
      "того": 2982,
      "личе": 2983,
      "дня": 2984,
      "▁получи": 2985,
      "us,": 2986,
      "ge": 2987,
      "▁Т.": 2988,
      "▁должно": 2989,
      "щу": 2990,
      "пло": 2991,
      "▁своего": 2992,
      "▁оу": 2993,
      "ob": 2994,
      "▁зъ": 2995,
      "▁\nже": 2996,
      "BH": 2997,
      "AA": 2998,
      "y,": 2999,
      "▁\n^": 3000,
      "▁\n\n\nА": 3001,
      "▁Пер": 3002,
      "idae": 3003,
      "▁`": 3004,
      "ок": 3005,
      "▁часть": 3006,
      "av": 3007,
      "жения": 3008,
      "іег": 3009,
      "▁харак": 3010,
      "льный": 3011,
      "▁ф.": 3012,
      "доро": 3013,
      "▁осно": 3014,
      "▁ци": 3015,
      "▁as": 3016,
      "▁гро": 3017,
      "рв": 3018,
      "▁соот": 3019,
      "циаль": 3020,
      "коло": 3021,
      "▁а,": 3022,
      "93": 3023,
      "▁35": 3024,
      "ною": 3025,
      "▁...": 3026,
      "ких": 3027,
      "кова": 3028,
      "ли.": 3029,
      "▁\nме": 3030,
      "▁мѣ": 3031,
      "47": 3032,
      "▁той": 3033,
      "▁жизни": 3034,
      "св": 3035,
      "томъ": 3036,
      "ои": 3037,
      "кви": 3038,
      "'^": 3039,
      "КА": 3040,
      "*,": 3041,
      "теле": 3042,
      "ал": 3043,
      "▁называ": 3044,
      "тн": 3045,
      "▁и,": 3046,
      "'к": 3047,
      "рован": 3048,
      "ется,": 3049,
      "ine": 3050,
      "▁проти": 3051,
      "▁поро": 3052,
      "вин": 3053,
      "▁21": 3054,
      "28": 3055,
      "▁\nH": 3056,
      "лены": 3057,
      "▁\nP": 3058,
      "▁бес": 3059,
      "▁сей": 3060,
      "au": 3061,
      "жение": 3062,
      "▁пар": 3063,
      "лежа": 3064,
      "их": 3065,
      "дн": 3066,
      "▁сего": 3067,
      "▁тя": 3068,
      "что": 3069,
      "сут": 3070,
      "▁безъ": 3071,
      "ском": 3072,
      "ire": 3073,
      "▁Пре": 3074,
      "▁und": 3075,
      "сит": 3076,
      "▁воло": 3077,
      "нуть": 3078,
      "▁расп": 3079,
      "▁тогда": 3080,
      "ig.": 3081,
      "чего": 3082,
      "ung": 3083,
      "▁200": 3084,
      "▁осо": 3085,
      "▁\n\nЗ": 3086,
      "ности,": 3087,
      "Ка": 3088,
      "ph": 3089,
      "ОД": 3090,
      "▁2,": 3091,
      "▁древ": 3092,
      "нет": 3093,
      "▁\nФ": 3094,
      "жъ,": 3095,
      "45": 3096,
      "воря": 3097,
      "ением": 3098,
      "знь": 3099,
      "горо": 3100,
      "▁находи": 3101,
      "▁дня": 3102,
      "▁Ле": 3103,
      "ир": 3104,
      "en,": 3105,
      "▁u": 3106,
      "ak": 3107,
      "-b": 3108,
      "▁1е": 3109,
      "нта": 3110,
      "слав": 3111,
      "ь.": 3112,
      "вича": 3113,
      "?\n\n<|startoftext|>": 3114,
      "▁\n\nЗа": 3115,
      "трен": 3116,
      "9)": 3117,
      "вле": 3118,
      "no": 3119,
      "ure": 3120,
      "▁цен": 3121,
      "▁право": 3122,
      "аі": 3123,
      "▁нас": 3124,
      "й-": 3125,
      "графи": 3126,
      "санд": 3127,
      "▁спра": 3128,
      "▁Бу": 3129,
      "НА": 3130,
      "70": 3131,
      "но.": 3132,
      "▁бере": 3133,
      "лия": 3134,
      "же.": 3135,
      "сь,": 3136,
      "▁\n\n_": 3137,
      "▁0,": 3138,
      "▁зада": 3139,
      "дра": 3140,
      "РЕ": 3141,
      "▁былъ": 3142,
      "ау": 3143,
      "Ka": 3144,
      "скую": 3145,
      "шли": 3146,
      "ческий": 3147,
      "▁пода": 3148,
      "кому": 3149,
      "ію": 3150,
      "▁сти": 3151,
      "▁тех": 3152,
      "вают": 3153,
      "обще": 3154,
      "▁высо": 3155,
      "ну,": 3156,
      "кие": 3157,
      "гля": 3158,
      "▁pr": 3159,
      "са,": 3160,
      "▁свою": 3161,
      "лв": 3162,
      "Ь,": 3163,
      "▁фо": 3164,
      "▁Фе": 3165,
      "▁\n\n\nИ": 3166,
      "!е": 3167,
      "вати": 3168,
      "▁оди": 3169,
      "▁AL": 3170,
      "лк": 3171,
      "▁ё": 3172,
      "ье": 3173,
      "▁хра": 3174,
      "35": 3175,
      "▁сх": 3176,
      "▁ex": 3177,
      "▁Д.": 3178,
      "▁Ре": 3179,
      "рн": 3180,
      "личи": 3181,
      "98": 3182,
      "ero": 3183,
      "мой": 3184,
      "ом": 3185,
      "▁Ду": 3186,
      "кан": 3187,
      "▁Сп": 3188,
      "стой": 3189,
      "'.": 3190,
      "▁\n\n.": 3191,
      "оспо": 3192,
      "yn": 3193,
      "▁глу": 3194,
      "▁кро": 3195,
      "этому": 3196,
      "ческие": 3197,
      "▁глав": 3198,
      "тичес": 3199,
      "xo": 3200,
      "▁Так": 3201,
      "▁вос": 3202,
      "▁\nчи": 3203,
      "ко-": 3204,
      "▁\n\nПри": 3205,
      "ta": 3206,
      "гит": 3207,
      "▁дет": 3208,
      "36": 3209,
      "▁указа": 3210,
      "▁Ав": 3211,
      "▁одно": 3212,
      "ющие": 3213,
      "▁ж.": 3214,
      "▁значи": 3215,
      "est": 3216,
      "кто": 3217,
      "▁ус": 3218,
      "▁утвер": 3219,
      "тки": 3220,
      "▁(2": 3221,
      "▁заклю": 3222,
      "ЕЛ": 3223,
      "стер": 3224,
      "ющий": 3225,
      "37": 3226,
      "ляр": 3227,
      "не,": 3228,
      "▁Ьу": 3229,
      "▁вид": 3230,
      "▁уго": 3231,
      "лли": 3232,
      "▁них": 3233,
      "верх": 3234,
      "▁действи": 3235,
      "▁com": 3236,
      "▁\n\n\nР": 3237,
      "▁уч": 3238,
      "кт": 3239,
      "кси": 3240,
      "рия": 3241,
      "▁\n\n10": 3242,
      "▁пер.": 3243,
      "щей": 3244,
      "ваго": 3245,
      "ственно": 3246,
      "▁следу": 3247,
      "▁Бе": 3248,
      "ц,": 3249,
      "ff": 3250,
      "оро": 3251,
      "▁\nга": 3252,
      "во-": 3253,
      "ЕТ": 3254,
      "▁которой": 3255,
      "шения": 3256,
      "▁др.": 3257,
      "▁сіе": 3258,
      "▁показа": 3259,
      "рави": 3260,
      "92": 3261,
      "ходит": 3262,
      "и-": 3263,
      "тия": 3264,
      "▁то,": 3265,
      "▁100": 3266,
      "▁спе": 3267,
      "▁мог": 3268,
      "льта": 3269,
      "нять": 3270,
      "▁\nЗ": 3271,
      "ber": 3272,
      "▁\n\n-": 3273,
      "▁через": 3274,
      "ге,": 3275,
      "▁капита": 3276,
      "еі": 3277,
      "▁en": 3278,
      "▁\n\n\nГ": 3279,
      "▁I.": 3280,
      "▁π": 3281,
      "▁у.": 3282,
      "тв": 3283,
      "▁пес": 3284,
      "дить": 3285,
      "▁вол": 3286,
      "▁более": 3287,
      "▁груп": 3288,
      "▁1-": 3289,
      "нами": 3290,
      "▁уг": 3291,
      "▁функ": 3292,
      "али": 3293,
      "▁6.": 3294,
      "сен": 3295,
      "ll": 3296,
      "▁содержа": 3297,
      "ѵѵ": 3298,
      "75": 3299,
      "▁\n\nа": 3300,
      "гап": 3301,
      "тья": 3302,
      "▁пока": 3303,
      "льные": 3304,
      "▁пор": 3305,
      "ступа": 3306,
      "▁ех": 3307,
      "▁Кра": 3308,
      "▁вне": 3309,
      "дой": 3310,
      "чай": 3311,
      "ры,": 3312,
      "▁\nНа": 3313,
      "84": 3314,
      "BO": 3315,
      "▁наро": 3316,
      "лЬ": 3317,
      "чный": 3318,
      "▁всех": 3319,
      "34": 3320,
      "▁@": 3321,
      "пъ": 3322,
      "▁поль": 3323,
      "▁Сенат": 3324,
      "▁\n\n«": 3325,
      "▁шо": 3326,
      "б.,": 3327,
      "▁?": 3328,
      "ян": 3329,
      "мента": 3330,
      "▁ея": 3331,
      "▁необходи": 3332,
      "тый": 3333,
      "мн": 3334,
      "▁Му": 3335,
      "▁исп": 3336,
      "И.": 3337,
      "▁соп": 3338,
      "▁луч": 3339,
      "нить": 3340,
      "cr": 3341,
      "▁времени": 3342,
      "▁3,": 3343,
      "лить": 3344,
      "▁Кон": 3345,
      "▁дома": 3346,
      "61": 3347,
      "М.": 3348,
      "▁гор": 3349,
      "▁печа": 3350,
      "▁\nсу": 3351,
      "ід": 3352,
      "▁тебя": 3353,
      "тан": 3354,
      "▁Ла": 3355,
      "ровъ": 3356,
      "город": 3357,
      "▁просто": 3358,
      "ники": 3359,
      "кру": 3360,
      "реди": 3361,
      "▁ош": 3362,
      "▁фа": 3363,
      "ВО": 3364,
      "\n\n\n": 3365,
      "же,": 3366,
      "▁весь": 3367,
      "ших": 3368,
      "▁Все": 3369,
      "▁Ге": 3370,
      "рс": 3371,
      "д'Ь": 3372,
      "▁против": 3373,
      "вымъ": 3374,
      "ж-": 3375,
      "▁Он": 3376,
      "▁урав": 3377,
      "▁еі": 3378,
      "▁больше": 3379,
      "▁призна": 3380,
      "щих": 3381,
      "смо": 3382,
      "▁\n.": 3383,
      "каз": 3384,
      "▁Пе": 3385,
      "ИТ": 3386,
      "чин": 3387,
      "TH": 3388,
      "▁#": 3389,
      "▁щ": 3390,
      "▁\n\nо": 3391,
      "64": 3392,
      "32": 3393,
      "носи": 3394,
      "чки": 3395,
      "▁ая,": 3396,
      "p.": 3397,
      "ong": 3398,
      "▁ал": 3399,
      "▁согла": 3400,
      "тельство": 3401,
      "▁with": 3402,
      "По": 3403,
      "тин": 3404,
      "▁лег": 3405,
      "oe": 3406,
      "ем,": 3407,
      "▁аи": 3408,
      "▁тер": 3409,
      "▁созда": 3410,
      "▁живо": 3411,
      "▁\nХ": 3412,
      "ער": 3413,
      "▁\n\n0": 3414,
      "▁ср.": 3415,
      "▁распо": 3416,
      "▁Пи": 3417,
      "▁рав": 3418,
      "▁\nІ": 3419,
      "строй": 3420,
      "Ьи": 3421,
      "ru": 3422,
      "▁The": 3423,
      "▁перед": 3424,
      "▁и.": 3425,
      "▁\n8": 3426,
      "сю": 3427,
      "▁людей": 3428,
      "se": 3429,
      "чо": 3430,
      "ения,": 3431,
      "р1": 3432,
      "erm": 3433,
      "▁ио": 3434,
      "▁\nраз": 3435,
      "енера": 3436,
      "тка": 3437,
      "▁Од": 3438,
      "▁хозя": 3439,
      "▁один": 3440,
      "n.": 3441,
      "▁Е.": 3442,
      "▁вь": 3443,
      "▁про-": 3444,
      "▁пара": 3445,
      "▁\n\n■": 3446,
      "aro": 3447,
      "):": 3448,
      "▁возможно": 3449,
      "▁ч.": 3450,
      "дв": 3451,
      "33": 3452,
      "ht": 3453,
      "ций": 3454,
      "▁выше": 3455,
      "р.,": 3456,
      "▁эта": 3457,
      "тем": 3458,
      "▁(по": 3459,
      "▁\nле": 3460,
      "пись": 3461,
      "i-": 3462,
      "▁\n\n*": 3463,
      "65": 3464,
      "▁собо": 3465,
      "▁est": 3466,
      "вести": 3467,
      "▁элемен": 3468,
      "▁мя": 3469,
      "▁матери": 3470,
      "▁\nC": 3471,
      "йе": 3472,
      "ay": 3473,
      "▁©": 3474,
      "▁\n—": 3475,
      "ким": 3476,
      "г^": 3477,
      "▁вес": 3478,
      "▁самы": 3479,
      "▁роди": 3480,
      "▁\nста": 3481,
      "ница": 3482,
      "ID": 3483,
      "ерт": 3484,
      "іш": 3485,
      "іѵ": 3486,
      "к-": 3487,
      "тить": 3488,
      "▁себ": 3489,
      "▁ан": 3490,
      "▁мн": 3491,
      "стр.": 3492,
      "▁\n\n^": 3493,
      "гово": 3494,
      "▁хотя": 3495,
      "29": 3496,
      "▁ab": 3497,
      "▁бро": 3498,
      "!.": 3499,
      "▁сот": 3500,
      "ite": 3501,
      "▁народ": 3502,
      "ду,": 3503,
      "▁\nф": 3504,
      "лье": 3505,
      "▁всегда": 3506,
      "п^": 3507,
      "▁\nПо": 3508,
      "▁\nжи": 3509,
      "КО": 3510,
      "▁прав": 3511,
      "▁сдела": 3512,
      "67": 3513,
      "▁монасты": 3514,
      "жь": 3515,
      "новъ": 3516,
      "вать,": 3517,
      "/.": 3518,
      "ко,": 3519,
      "▁тво": 3520,
      "щения": 3521,
      "fer": 3522,
      "▁\nШ": 3523,
      "неч": 3524,
      "▁im": 3525,
      "▁пов": 3526,
      "V.": 3527,
      "▁церков": 3528,
      "рк": 3529,
      "Ко": 3530,
      "py": 3531,
      "нія": 3532,
      "!я": 3533,
      "га.": 3534,
      "кро": 3535,
      "ковъ,": 3536,
      "38": 3537,
      "▁ас": 3538,
      "▁я,": 3539,
      "▁Вели": 3540,
      "▁на-": 3541,
      "▁Іа": 3542,
      "явлен": 3543,
      "▁работа": 3544,
      "уго": 3545,
      "йо": 3546,
      "ment": 3547,
      "▁\n\nЯ": 3548,
      "тельный": 3549,
      "Но": 3550,
      "▁сф": 3551,
      "кіе": 3552,
      "ел": 3553,
      "▁которая": 3554,
      "OM": 3555,
      "▁еп": 3556,
      "▁195": 3557,
      "!,": 3558,
      "йа": 3559,
      "то-": 3560,
      "С.": 3561,
      "роб": 3562,
      "ях": 3563,
      "▁см": 3564,
      "▁\nB": 3565,
      "или": 3566,
      "кс": 3567,
      "Te": 3568,
      "▁одной": 3569,
      "циона": 3570,
      "▁поп": 3571,
      "▁\nM": 3572,
      "пуска": 3573,
      "▁сна": 3574,
      "rom": 3575,
      "ло-": 3576,
      "▁поля": 3577,
      "▁иа": 3578,
      "▁чего": 3579,
      "▁ден": 3580,
      "ní": 3581,
      "▁управ": 3582,
      "▁откры": 3583,
      "▁\n„": 3584,
      "рую": 3585,
      "▁ה": 3586,
      "▁AP": 3587,
      "▁ет": 3588,
      "ствова": 3589,
      "гл": 3590,
      "▁люди": 3591,
      "в1": 3592,
      "готов": 3593,
      "вид": 3594,
      "▁Госу": 3595,
      "еп,": 3596,
      "▁Миха": 3597,
      "зем": 3598,
      "ей,": 3599,
      "o-": 3600,
      "▁ип": 3601,
      "ников": 3602,
      "вро": 3603,
      "66": 3604,
      "воль": 3605,
      "щаго": 3606,
      "Й,": 3607,
      "31": 3608,
      "вн": 3609,
      "іеп": 3610,
      "▁недо": 3611,
      "вичъ": 3612,
      "вить": 3613,
      "▁себе": 3614,
      "стоян": 3615,
      "гна": 3616,
      "▁является": 3617,
      "▁\nла": 3618,
      "г-": 3619,
      "ги,": 3620,
      "бро": 3621,
      "▁авто": 3622,
      "▁ана": 3623,
      "тура": 3624,
      "▁34": 3625,
      "пад": 3626,
      "▁\nсъ": 3627,
      "ево": 3628,
      "А,": 3629,
      "▁иск": 3630,
      "са.": 3631,
      "per": 3632,
      "довъ": 3633,
      "ку.": 3634,
      "ках": 3635,
      "▁\nц": 3636,
      "шаго": 3637,
      "▁при-": 3638,
      "ложи": 3639,
      "па,": 3640,
      "▁\nпре": 3641,
      "бург": 3642,
      "▁\n\nХ": 3643,
      "тий": 3644,
      "ед": 3645,
      "▁нихъ": 3646,
      "▁коп.": 3647,
      "▁Ан": 3648,
      "ил": 3649,
      "рш": 3650,
      "▁7.": 3651,
      "§о": 3652,
      "f.": 3653,
      "в^": 3654,
      "лит": 3655,
      "05": 3656,
      "ство,": 3657,
      "▁госуда": 3658,
      "ans": 3659,
      "▁нет": 3660,
      "ставлен": 3661,
      "▁\n\nТо": 3662,
      "скимъ": 3663,
      "91": 3664,
      "ыта": 3665,
      "▁\nпе": 3666,
      "▁различ": 3667,
      "HM": 3668,
      "слови": 3669,
      "ііе": 3670,
      "▁Гри": 3671,
      "▁роз": 3672,
      "a-": 3673,
      "писи": 3674,
      "▁%": 3675,
      "ческого": 3676,
      "К.": 3677,
      "▁ие": 3678,
      "гез": 3679,
      "▁\n\n•": 3680,
      "▁(Р": 3681,
      "тс": 3682,
      "▁способ": 3683,
      "^у": 3684,
      "боль": 3685,
      "ни,": 3686,
      "us.": 3687,
      "точ": 3688,
      "▁..": 3689,
      "▁проис": 3690,
      "ТЬСЯ": 3691,
      "ern": 3692,
      "▁лѵ": 3693,
      "Іе": 3694,
      "Г.": 3695,
      "▁другой": 3696,
      "39": 3697,
      "▁\nb": 3698,
      "▁Как": 3699,
      "рга": 3700,
      "iqu": 3701,
      "ваю": 3702,
      "рЪ": 3703,
      "яя": 3704,
      "▁яко": 3705,
      "▁du": 3706,
      "▁gen": 3707,
      "▁Объ": 3708,
      "ной,": 3709,
      "▁род": 3710,
      "ci": 3711,
      "▁Лу": 3712,
      "рё": 3713,
      "▁ад": 3714,
      "▁наи": 3715,
      "▁ch": 3716,
      "de": 3717,
      "▁тепер": 3718,
      "ου": 3719,
      "▁pl": 3720,
      "ться,": 3721,
      "▁9.": 3722,
      "▁аа": 3723,
      "▁\nS": 3724,
      "меча": 3725,
      "III": 3726,
      "▁тако": 3727,
      "▁\nЯ": 3728,
      "▁\nсто": 3729,
      "▁\nру": 3730,
      "oro": 3731,
      "сти.": 3732,
      "▁разви": 3733,
      "▁виде": 3734,
      "▁непо": 3735,
      "▁Вла": 3736,
      "▁органи": 3737,
      "\",": 3738,
      "уз": 3739,
      "лки": 3740,
      "▁мало": 3741,
      "будь": 3742,
      "▁\nче": 3743,
      "вом": 3744,
      "▁Ты": 3745,
      "ііа": 3746,
      "▁\nхо": 3747,
      "▁имъ": 3748,
      "▁процес": 3749,
      "Ta": 3750,
      "▁\n\nШ": 3751,
      "рабо": 3752,
      "4-": 3753,
      "▁Ье": 3754,
      "ниц": 3755,
      "АС": 3756,
      "ТЬ,": 3757,
      "кѣ": 3758,
      "fe": 3759,
      "es,": 3760,
      "▁au": 3761,
      "▁две": 3762,
      "79": 3763,
      "кти": 3764,
      "!»": 3765,
      "AE": 3766,
      "''": 3767,
      "all": 3768,
      "▁служ": 3769,
      "ore": 3770,
      "▁}": 3771,
      "▁ег": 3772,
      "м-": 3773,
      "ui": 3774,
      "▁185": 3775,
      "89": 3776,
      "▁лет": 3777,
      "ss": 3778,
      "льных": 3779,
      "і-": 3780,
      "ען": 3781,
      "▁золо": 3782,
      "нец": 3783,
      "домъ": 3784,
      "▁сва": 3785,
      "лка": 3786,
      "▁te": 3787,
      "▁par": 3788,
      "цы,": 3789,
      "▁вме": 3790,
      "шь,": 3791,
      "ти.": 3792,
      "▁Обще": 3793,
      "ort": 3794,
      "▁прямо": 3795,
      "вым": 3796,
      "▁alq": 3797,
      "▁it": 3798,
      "▁\n\nи": 3799,
      "▁пись": 3800,
      "рб": 3801,
      "es.": 3802,
      "товъ": 3803,
      "▁стре": 3804,
      "▁Z": 3805,
      "▁Сер": 3806,
      "▁дума": 3807,
      "ον": 3808,
      "ata": 3809,
      "▁дес.": 3810,
      "ческая": 3811,
      "мп": 3812,
      "▁Че": 3813,
      "щ.": 3814,
      "▁Ьа": 3815,
      "**": 3816,
      "▁поня": 3817,
      "CH": 3818,
      "▁Нач.": 3819,
      "рф": 3820,
      "▁поме": 3821,
      "нце": 3822,
      "▁кн.": 3823,
      "тй": 3824,
      "tor": 3825,
      "▁обя": 3826,
      "▁часто": 3827,
      "cc": 3828,
      "▁\nду": 3829,
      "▁опу": 3830,
      "▁ум": 3831,
      "гар": 3832,
      "тъ.": 3833,
      "скій": 3834,
      "▁губер": 3835,
      "▁вѣ": 3836,
      "▁совершен": 3837,
      "ющей": 3838,
      "шло": 3839,
      "▁Анг": 3840,
      "лы,": 3841,
      "ach": 3842,
      "гру": 3843,
      "▁\nл": 3844,
      "ш-": 3845,
      "▁коло": 3846,
      "ѵа": 3847,
      "шение": 3848,
      "42": 3849,
      "ik": 3850,
      "▁вто": 3851,
      "ін": 3852,
      "станов": 3853,
      "чем": 3854,
      "▁тек": 3855,
      "▁ое,": 3856,
      "гп": 3857,
      "en.": 3858,
      "▁Бы": 3859,
      "Л.": 3860,
      "тье": 3861,
      "дый": 3862,
      "▁опред": 3863,
      "цев": 3864,
      "ard": 3865,
      "геп": 3866,
      "евра": 3867,
      "держи": 3868,
      "никъ": 3869,
      "бен": 3870,
      "▁1о": 3871,
      "▁κ": 3872,
      "▁\n\nСу": 3873,
      "рез": 3874,
      "ступи": 3875,
      "▁вот": 3876,
      "▁бога": 3877,
      "зульта": 3878,
      "hr": 3879,
      "хі": 3880,
      "ѵ.": 3881,
      "лый": 3882,
      "ОР": 3883,
      "рин": 3884,
      "▁одного": 3885,
      "▁сте": 3886,
      "▁надо": 3887,
      "▁\n\nІ": 3888,
      "жать": 3889,
      "▁уни": 3890,
      "шй": 3891,
      "кихъ": 3892,
      "шее": 3893,
      "iss": 3894,
      "ССР": 3895,
      "▁деву": 3896,
      "▁Высо": 3897,
      "che": 3898,
      "▁are": 3899,
      "ностью": 3900,
      "▁боя": 3901,
      "▁примен": 3902,
      "ую": 3903,
      "стов": 3904,
      "▁’": 3905,
      "ег,": 3906,
      "густа": 3907,
      "жет": 3908,
      "▁воен": 3909,
      "▁М.,": 3910,
      "ссле": 3911,
      "▁\nпод": 3912,
      "ября": 3913,
      "▁производ": 3914,
      "▁об.;": 3915,
      "ian": 3916,
      "▁сту": 3917,
      "ue": 3918,
      "▁\nбу": 3919,
      "дф": 3920,
      "▁вас": 3921,
      "-1": 3922,
      "▁оно": 3923,
      "рма": 3924,
      "дъ.": 3925,
      "und": 3926,
      "bl": 3927,
      "грам": 3928,
      "Го": 3929,
      "▁ap": 3930,
      "▁должен": 3931,
      "гіе": 3932,
      "ѵі": 3933,
      "у-": 3934,
      "лё": 3935,
      "▁Те": 3936,
      "▁жела": 3937,
      "л^": 3938,
      "нем": 3939,
      "▁\nпи": 3940,
      "▁à": 3941,
      "щее": 3942,
      "тт": 3943,
      "▁подоб": 3944,
      "▁\nv": 3945,
      "кою": 3946,
      "бри": 3947,
      "▁каче": 3948,
      "еп.": 3949,
      "▁v.": 3950,
      "▁чув": 3951,
      "▁Госпо": 3952,
      "▁сим": 3953,
      "нци": 3954,
      "▁памя": 3955,
      "мыш": 3956,
      "ам": 3957,
      "41": 3958,
      "ord": 3959,
      "▁продол": 3960,
      "▁спа": 3961,
      "▁наши": 3962,
      "▁1—": 3963,
      "него": 3964,
      "49": 3965,
      "гор": 3966,
      "туры": 3967,
      "▁этот": 3968,
      "▁Кар": 3969,
      "▁36": 3970,
      "ским": 3971,
      "ОМ": 3972,
      "▁\n\n\n(": 3973,
      "▁свобо": 3974,
      "▁любо": 3975,
      "CA": 3976,
      "▁\nT": 3977,
      "▁же,": 3978,
      "▁еди": 3979,
      "76": 3980,
      "▁45": 3981,
      "шп": 3982,
      "▁све": 3983,
      "▁\nl": 3984,
      "льная": 3985,
      "нок": 3986,
      "▁«С": 3987,
      "▁by": 3988,
      "кар": 3989,
      "▁извест": 3990,
      "11.": 3991,
      "▁(см.": 3992,
      "▁\nI": 3993,
      "▁Гра": 3994,
      "▁les": 3995,
      "▁^^": 3996,
      "▁представля": 3997,
      "▁\n\nR": 3998,
      "▁1а": 3999,
      "тел": 4000,
      "▁получа": 4001,
      "▁In": 4002,
      "уе": 4003,
      "▁==": 4004,
      "\n\n\n\n\n\n\n\n\n\n\n\n\n\n\n\n\n\n\n\n\n\n\n\n\n\n\n\n\n\n\n\n\n\n\n\n\n\n\n\n\n\n\n\n\n\n\n\n\n\n\n\n\n\n\n\n\n\n\n\n\n\n\n\n": 4005,
      "-й": 4006,
      "t.": 4007,
      "▁относи": 4008,
      "▁прода": 4009,
      "цию": 4010,
      "вета": 4011,
      "▁настоя": 4012,
      "▁пя": 4013,
      "го-": 4014,
      "▁такой": 4015,
      "▁сере": 4016,
      "▁использо": 4017,
      "дца": 4018,
      "дро": 4019,
      "46": 4020,
      "▁а.": 4021,
      "▁церкви": 4022,
      "1с": 4023,
      "▁данный": 4024,
      "хода": 4025,
      "▁\nх": 4026,
      "aj": 4027,
      "▁зави": 4028,
      "шенного": 4029,
      "ятель": 4030,
      "▁соци": 4031,
      "▁\n\nі": 4032,
      "▁Под": 4033,
      "▁сп": 4034,
      "ыре": 4035,
      "▁\n\nпо": 4036,
      "▁паха": 4037,
      "▁Хри": 4038,
      "нге": 4039,
      "лича": 4040,
      "▁том,": 4041,
      "ня,": 4042,
      "Т.": 4043,
      "вф": 4044,
      "▁\n\nЭ": 4045,
      "!\n\n<|startoftext|>-": 4046,
      ".\n\n<|startoftext|>В": 4047,
      "ost": 4048,
      "▁pa": 4049,
      "ук": 4050,
      "шт": 4051,
      "▁изда": 4052,
      "грани": 4053,
      "ческое": 4054,
      "рп": 4055,
      "ый": 4056,
      "еме": 4057,
      "1>": 4058,
      "лень": 4059,
      "▁теле": 4060,
      "oh": 4061,
      "ОС": 4062,
      "іе,": 4063,
      "o,": 4064,
      "72": 4065,
      "коно": 4066,
      "t,": 4067,
      "зз": 4068,
      "ва-": 4069,
      "шин": 4070,
      "ass": 4071,
      "▁скоро": 4072,
      "▁должны": 4073,
      "Ьег": 4074,
      "^і": 4075,
      "ласс": 4076,
      "▁О.": 4077,
      "▁4,": 4078,
      "▁направ": 4079,
      "пример": 4080,
      "▁\n\nФ": 4081,
      "▁окру": 4082,
      "▁томъ": 4083,
      "▁Анд": 4084,
      "▁челов": 4085,
      "78": 4086,
      "ум": 4087,
      "▁ны": 4088,
      "▁жизнь": 4089,
      "48": 4090,
      "▁лѣ": 4091,
      "▁Ц.": 4092,
      "▁подо": 4093,
      "емь": 4094,
      "нный": 4095,
      "▁добр.": 4096,
      "pr": 4097,
      "αι": 4098,
      "мати": 4099,
      "ЛИ": 4100,
      "ніи": 4101,
      "▁\n\n\nБ": 4102,
      "печа": 4103,
      "▁\n6": 4104,
      "▁die": 4105,
      "ust": 4106,
      "ііо": 4107,
      "▁нам": 4108,
      "лг": 4109,
      "▁Пере": 4110,
      "▁основ": 4111,
      "▁встре": 4112,
      "▁нем": 4113,
      "!!": 4114,
      "▁(о": 4115,
      "▁PA": 4116,
      "▁\nf": 4117,
      "▁уби": 4118,
      "▁количе": 4119,
      "▁\n\n\nД": 4120,
      "▁возду": 4121,
      "тельно,": 4122,
      "▁Субару": 4123,
      "03": 4124,
      "сей": 4125,
      "na": 4126,
      "our": 4127,
      "▁шко": 4128,
      "——": 4129,
      "▁\nму": 4130,
      "']": 4131,
      "стью": 4132,
      "▁зам": 4133,
      "един": 4134,
      "граф": 4135,
      "яви": 4136,
      "▁Ри": 4137,
      "▁теперь": 4138,
      "Іа": 4139,
      "▁пле": 4140,
      "▁архи": 4141,
      "щий": 4142,
      "▁слово": 4143,
      "▁четьи,": 4144,
      "▁\nный": 4145,
      "кабря": 4146,
      "ститу": 4147,
      "шой": 4148,
      "▁ради": 4149,
      "ля,": 4150,
      "▁имѣ": 4151,
      "▁Александ": 4152,
      "енъ": 4153,
      "б-": 4154,
      "▁коп.,": 4155,
      "▁литера": 4156,
      "▁Ап": 4157,
      "нка": 4158,
      "▁at": 4159,
      "▁\nку": 4160,
      "▁оби": 4161,
      "няя": 4162,
      "сколь": 4163,
      "вы,": 4164,
      "знача": 4165,
      "чить": 4166,
      "ним": 4167,
      "Ма": 4168,
      "▁нап": 4169,
      "-го": 4170,
      "гй": 4171,
      "pl": 4172,
      "▁еже": 4173,
      "▁госпо": 4174,
      "Ьу": 4175,
      "тар": 4176,
      "ex": 4177,
      "▁ответ": 4178,
      "з-": 4179,
      "лъ.": 4180,
      "▁\n\nВъ": 4181,
      "▁\n\n\n.": 4182,
      "▁свет": 4183,
      "▁поле": 4184,
      "▁помф": 4185,
      "▁ъ": 4186,
      "ші": 4187,
      "дко": 4188,
      "зс": 4189,
      "▁доста": 4190,
      "▁кры": 4191,
      "^'": 4192,
      "▁dic": 4193,
      "диви": 4194,
      "▁принад": 4195,
      "Іо": 4196,
      "ы.": 4197,
      "ста,": 4198,
      "П.": 4199,
      "▁Лю": 4200,
      "ту,": 4201,
      "TE": 4202,
      "в'Ь": 4203,
      "▁приня": 4204,
      "▁part": 4205,
      "лена": 4206,
      "воро": 4207,
      "▁Для": 4208,
      "іит": 4209,
      "рить": 4210,
      "ву,": 4211,
      "▁p.": 4212,
      "83": 4213,
      "▁фр.": 4214,
      "к1": 4215,
      "▁\nсво": 4216,
      "▁зву": 4217,
      "▁\n\n\nУ": 4218,
      "▁укра": 4219,
      "л1": 4220,
      "▁\n\nв": 4221,
      "▁d'": 4222,
      "▁\n\nс": 4223,
      "ver": 4224,
      "льного": 4225,
      "▁интере": 4226,
      "▁многи": 4227,
      "▁Его": 4228,
      "льное": 4229,
      "▁\n\n9": 4230,
      "л\\": 4231,
      "реб": 4232,
      "чных": 4233,
      "▁Ф.": 4234,
      "форма": 4235,
      "▁пове": 4236,
      "▁Сте": 4237,
      "шел": 4238,
      "рь,": 4239,
      "▁\nили": 4240,
      "▁дЪ": 4241,
      "▁четьи": 4242,
      "варя": 4243,
      "▁имя": 4244,
      "▁AN": 4245,
      "▁32": 4246,
      "час": 4247,
      "▁наблю": 4248,
      "▁\n‚": 4249,
      "ности.": 4250,
      "▁\nши": 4251,
      "▁1;": 4252,
      "ле-": 4253,
      "▁результа": 4254,
      "ві": 4255,
      "▁\n-": 4256,
      "ence": 4257,
      "▁\nего": 4258,
      "▁иг": 4259,
      "тп": 4260,
      "▁собствен": 4261,
      "ръ,": 4262,
      "▁которых": 4263,
      "ими": 4264,
      "▁част": 4265,
      "▁(В": 4266,
      "KH": 4267,
      "▁сооб": 4268,
      "ind": 4269,
      "▁ar": 4270,
      "ции,": 4271,
      "▁55": 4272,
      "▁которое": 4273,
      "אָ": 4274,
      "▁31": 4275,
      "ить": 4276,
      "▁AM": 4277,
      "▁число": 4278,
      "ствует": 4279,
      "▁\nNo": 4280,
      "нхъ": 4281,
      "чей": 4282,
      "влен": 4283,
      "дина": 4284,
      "ляется": 4285,
      "▁тебе": 4286,
      "8)": 4287,
      "▁там": 4288,
      "▁истори": 4289,
      "нЪ": 4290,
      "▁\n\n\n-": 4291,
      "▁\nки": 4292,
      "▁3)": 4293,
      "▁со-": 4294,
      "ты.": 4295,
      "▁сум": 4296,
      "щие": 4297,
      "▁\n\n\nНа": 4298,
      "74": 4299,
      "9°": 4300,
      "пор": 4301,
      "T>": 4302,
      "ктор": 4303,
      "▁\n11": 4304,
      "них": 4305,
      "ont": 4306,
      "▁сен": 4307,
      "щение": 4308,
      "тая": 4309,
      "▁XX": 4310,
      "лено": 4311,
      "▁СССР": 4312,
      "юня": 4313,
      "▁\nпере": 4314,
      "▁Ло": 4315,
      "гя": 4316,
      "вомъ": 4317,
      "▁Рус": 4318,
      "▁\n\n2.": 4319,
      "▁около": 4320,
      "▁люби": 4321,
      "▁См.": 4322,
      "че-": 4323,
      "▁Ин": 4324,
      "рои": 4325,
      "▁най": 4326,
      "▁собра": 4327,
      "част": 4328,
      "▁\n\n'": 4329,
      "▁сра": 4330,
      "▁одна": 4331,
      "▁XV": 4332,
      "▁ו": 4333,
      "кЪ": 4334,
      "Я.": 4335,
      "fi": 4336,
      "▁кого": 4337,
      "▁старо": 4338,
      "▁Сенатскі": 4339,
      "ai": 4340,
      "▁189": 4341,
      "шла": 4342,
      "ке,": 4343,
      "▁о.": 4344,
      "71": 4345,
      "нер": 4346,
      "ма.": 4347,
      "^-": 4348,
      "ао": 4349,
      "▁\n\nT": 4350,
      "▁\n\n\nи": 4351,
      "ОП": 4352,
      "ч-": 4353,
      "▁других": 4354,
      "ond": 4355,
      "▁случае": 4356,
      "дви": 4357,
      "▁Ч.": 4358,
      "ast": 4359,
      "тельной": 4360,
      "▁(в": 4361,
      "л'Ь": 4362,
      "▁дли": 4363,
      "евраля": 4364,
      "ющее": 4365,
      "ные,": 4366,
      "▁какой": 4367,
      "aM": 4368,
      "ея": 4369,
      "поли": 4370,
      "▁город": 4371,
      "хва": 4372,
      "▁Щ": 4373,
      "когда": 4374,
      "sk": 4375,
      "▁этих": 4376,
      "▁\nж": 4377,
      "мень": 4378,
      "1Ь": 4379,
      "ого": 4380,
      "нача": 4381,
      "м),": 4382,
      "▁ся": 4383,
      "▁потомужъ,": 4384,
      "er.": 4385,
      "рий": 4386,
      "ug": 4387,
      "oj": 4388,
      "43": 4389,
      "▁5,": 4390,
      "аго": 4391,
      "стр": 4392,
      "▁ео": 4393,
      "▁тому": 4394,
      "▁Гор": 4395,
      "Н.": 4396,
      "чены": 4397,
      "тря": 4398,
      "▁/.": 4399,
      "IN": 4400,
      "симо": 4401,
      "▁\n\n1.": 4402,
      "OB": 4403,
      "▁необходимо": 4404,
      "▁ов": 4405,
      "фу": 4406,
      "▁деся": 4407,
      "ологи": 4408,
      "▁ra": 4409,
      "тной": 4410,
      "ту.": 4411,
      "ток": 4412,
      "нья": 4413,
      "ад": 4414,
      "▁стать": 4415,
      "eHH": 4416,
      "шемъ": 4417,
      "▁особенно": 4418,
      "чи,": 4419,
      "aH": 4420,
      "ym": 4421,
      "л:": 4422,
      "▁тот": 4423,
      "ér": 4424,
      "▁ника": 4425,
      "▁степ": 4426,
      "муще": 4427,
      "Ые": 4428,
      "▁Фи": 4429,
      "▁внутрен": 4430,
      "АР": 4431,
      "мі": 4432,
      "▁\nдля": 4433,
      "▁соответ": 4434,
      "лб": 4435,
      "▁аг": 4436,
      "▁\nпу": 4437,
      "времен": 4438,
      "▁написа": 4439,
      "v.": 4440,
      "▁npo": 4441,
      "▁\nся": 4442,
      "▁An": 4443,
      "▁нужно": 4444,
      "1у": 4445,
      "▁позво": 4446,
      "юля": 4447,
      "08": 4448,
      "ды.": 4449,
      "▁\nпред": 4450,
      "▁крестьян": 4451,
      "▁бук": 4452,
      "56": 4453,
      "▁\nh": 4454,
      "▁(Б": 4455,
      "Если": 4456,
      "сй": 4457,
      "шю": 4458,
      "▁\nі": 4459,
      "▁\n\n\nо": 4460,
      "▁вод": 4461,
      "ная,": 4462,
      "▁будетъ": 4463,
      "пля": 4464,
      "▁\nжа": 4465,
      "тие": 4466,
      "▁\n\n\n6": 4467,
      "▁wh": 4468,
      "▁вообще": 4469,
      "olog": 4470,
      "ваются": 4471,
      "ровать": 4472,
      "пет": 4473,
      "рд": 4474,
      "н1": 4475,
      "лла": 4476,
      "▁тоже": 4477,
      "AL": 4478,
      "▁отда": 4479,
      "▁Хо": 4480,
      "▁расс": 4481,
      "▁распро": 4482,
      "явля": 4483,
      "ая": 4484,
      "▁Ту": 4485,
      "▁место": 4486,
      "▁мета": 4487,
      "ный.": 4488,
      "образ": 4489,
      "тк": 4490,
      "▁уве": 4491,
      "CTB": 4492,
      "▁é": 4493,
      "▁стороны": 4494,
      "вли": 4495,
      "▁χ": 4496,
      "мери": 4497,
      "▁постоян": 4498,
      "▁Ги": 4499,
      "▁линг": 4500,
      "▁оо": 4501,
      "лой": 4502,
      "\n\n\n==": 4503,
      "▁\n\nу": 4504,
      "▁своих": 4505,
      "Ab": 4506,
      "▁00": 4507,
      "▁\n\n\n|": 4508,
      "мни": 4509,
      "тай": 4510,
      "▁дерев": 4511,
      "e-": 4512,
      "шко": 4513,
      "▁предпо": 4514,
      "▁201": 4515,
      "пада": 4516,
      "▁90": 4517,
      "▁кг": 4518,
      "з.).": 4519,
      "ction": 4520,
      "▁возвра": 4521,
      "▁поверх": 4522,
      "▁слов": 4523,
      "▁говорит": 4524,
      "▁за-": 4525,
      "▁ά": 4526,
      "ну.": 4527,
      "шать": 4528,
      "is,": 4529,
      "▁Ну": 4530,
      "бару:": 4531,
      "AM": 4532,
      "слен": 4533,
      "ст,": 4534,
      "вший": 4535,
      "▁\nба": 4536,
      "$.": 4537,
      "▁почему": 4538,
      "▁ат": 4539,
      "▁хле": 4540,
      "мЬ": 4541,
      "сер": 4542,
      "ди,": 4543,
      "лья": 4544,
      "'Ё": 4545,
      "ждения": 4546,
      "▁XI": 4547,
      "▁похо": 4548,
      "▁....": 4549,
      "▁описа": 4550,
      "сон": 4551,
      "▁послед": 4552,
      "▁помощ": 4553,
      "-.": 4554,
      "дит": 4555,
      "новь": 4556,
      "▁празд": 4557,
      "ставить": 4558,
      "▁1876.": 4559,
      "ИН": 4560,
      "л.,": 4561,
      "▁\nной": 4562,
      "▁\nше": 4563,
      "▁иску": 4564,
      "▁Лмен": 4565,
      "стно": 4566,
      "ливо": 4567,
      "ена": 4568,
      "гов": 4569,
      "бора": 4570,
      "Е,": 4571,
      "лф": 4572,
      "ков,": 4573,
      "▁II.": 4574,
      "$,": 4575,
      "OT": 4576,
      "▁έ": 4577,
      "рос": 4578,
      "нев": 4579,
      "ыхъ": 4580,
      "יי": 4581,
      "▁\nй": 4582,
      "▁князь": 4583,
      "ОН": 4584,
      "фф": 4585,
      "слов": 4586,
      "мит": 4587,
      "деб": 4588,
      "шие": 4589,
      "▁80": 4590,
      "iz": 4591,
      "||": 4592,
      "ае": 4593,
      "4)": 4594,
      "волю": 4595,
      "▁внима": 4596,
      "▁опера": 4597,
      "ницы": 4598,
      "▁милости": 4599,
      "▁\n\n\n\n\n\n\n\n\n\n\n": 4600,
      "▁that": 4601,
      "▁четв.": 4602,
      "▁α": 4603,
      "ственной": 4604,
      "▁сохра": 4605,
      "▁Сена": 4606,
      "ни-": 4607,
      "▁Свя": 4608,
      "ца.": 4609,
      "ect": 4610,
      "шн": 4611,
      "▁Никола": 4612,
      "ю-": 4613,
      "▁6,": 4614,
      "мена": 4615,
      "ского,": 4616,
      "1в": 4617,
      "зва": 4618,
      "зер": 4619,
      "▁некоторы": 4620,
      "▁изобра": 4621,
      "▁наде": 4622,
      "р^": 4623,
      "▁тол": 4624,
      "▁оте": 4625,
      "2)": 4626,
      "▁запре": 4627,
      "▁Ака": 4628,
      "▁St": 4629,
      "ст-": 4630,
      "▁Гре": 4631,
      "▁понима": 4632,
      "amil": 4633,
      "ели": 4634,
      "веде": 4635,
      "▁сек": 4636,
      "ien": 4637,
      "чъ": 4638,
      "ством": 4639,
      "eM": 4640,
      "▁0.": 4641,
      "ем.": 4642,
      "▁каса": 4643,
      "▁друг": 4644,
      "▁почти": 4645,
      "73": 4646,
      "вою": 4647,
      "▁рга": 4648,
      "aK": 4649,
      "▁Чер": 4650,
      "▁холо": 4651,
      "▁Ок": 4652,
      "1С": 4653,
      "▁1:": 4654,
      "▁иссле": 4655,
      "ТИ": 4656,
      "ружи": 4657,
      "▁ведь": 4658,
      "▁двух": 4659,
      "рок": 4660,
      "▁(а": 4661,
      "▁пери": 4662,
      "▁\nги": 4663,
      "▁объяс": 4664,
      "ей.": 4665,
      "▁\n\nКа": 4666,
      "▁составля": 4667,
      "ale": 4668,
      "▁что,": 4669,
      "▁ко-": 4670,
      "▁l'": 4671,
      "▁именно": 4672,
      "▁преступ": 4673,
      "т^": 4674,
      "ір": 4675,
      "▁грамо": 4676,
      "тру": 4677,
      "с:": 4678,
      "ший": 4679,
      "▁ды": 4680,
      "▁рѣ": 4681,
      "▁представ": 4682,
      "▁\n\n15": 4683,
      "▁сов": 4684,
      "▁from": 4685,
      "09": 4686,
      "▁\n\nРа": 4687,
      "▁четвер": 4688,
      "ET": 4689,
      "Га": 4690,
      "гіа": 4691,
      "▁начина": 4692,
      "▁города": 4693,
      "▁кол": 4694,
      "шую": 4695,
      "▁вза": 4696,
      "pec": 4697,
      "▁наш": 4698,
      "лда": 4699,
      "▁торго": 4700,
      "лог": 4701,
      "писы": 4702,
      "скими": 4703,
      "гу,": 4704,
      "3)": 4705,
      "тельное": 4706,
      "то,": 4707,
      "матри": 4708,
      "д^": 4709,
      "yc": 4710,
      "▁фак": 4711,
      "II.": 4712,
      "▁могут": 4713,
      "СА": 4714,
      "▁по¬": 4715,
      "ихъ": 4716,
      "▁стру": 4717,
      "домо": 4718,
      "вших": 4719,
      "],": 4720,
      "▁аб": 4721,
      "▁либо": 4722,
      "чные": 4723,
      "ша,": 4724,
      "ix": 4725,
      "зм": 4726,
      "▁\n_": 4727,
      "вании": 4728,
      "▁Іо": 4729,
      "▁смы": 4730,
      "j.": 4731,
      "▁sp": 4732,
      "AH": 4733,
      "гр": 4734,
      "пример,": 4735,
      "▁цар": 4736,
      "ву.": 4737,
      "OH": 4738,
      "IP": 4739,
      "еру": 4740,
      "ль.": 4741,
      "прави": 4742,
      "▁неу": 4743,
      "бр": 4744,
      "ier": 4745,
      "▁зло": 4746,
      "06": 4747,
      "▁cb": 4748,
      "▁\nЭ": 4749,
      "▁ничего": 4750,
      "мов": 4751,
      "sch": 4752,
      "▁quod": 4753,
      "AR": 4754,
      "ted": 4755,
      "▁Им": 4756,
      "ныхь": 4757,
      "ева": 4758,
      "пусти": 4759,
      "▁іа": 4760,
      "▁зу": 4761,
      "▁хозяй": 4762,
      "▁qui": 4763,
      "кор": 4764,
      "твор": 4765,
      "сить": 4766,
      "▁Раз": 4767,
      "ствие": 4768,
      "▁четыре": 4769,
      "opo": 4770,
      "▁пис": 4771,
      "раб": 4772,
      "ое": 4773,
      "ющая": 4774,
      "1г": 4775,
      "▁Кня": 4776,
      "▁хорошо": 4777,
      "▁элек": 4778,
      "ew": 4779,
      "▁\n\n\nа": 4780,
      "пов": 4781,
      "тек": 4782,
      "▁прежде": 4783,
      "1ю": 4784,
      "сом": 4785,
      "▁двор": 4786,
      "кимъ": 4787,
      "▁вам": 4788,
      "▁находя": 4789,
      "▁дости": 4790,
      "мы,": 4791,
      "ра-": 4792,
      "значен": 4793,
      "дру": 4794,
      "фес": 4795,
      "▁паханые": 4796,
      "▁уро": 4797,
      "ха,": 4798,
      "ANC": 4799,
      "▁38": 4800,
      "▁\n\nКо": 4801,
      "піе": 4802,
      "▁ото": 4803,
      "▁пр.": 4804,
      "иу": 4805,
      "iu": 4806,
      "▁куль": 4807,
      "4е": 4808,
      "▁иде": 4809,
      "тельства": 4810,
      "▁тео": 4811,
      "ка;": 4812,
      "рес": 4813,
      "▁коман": 4814,
      "лиза": 4815,
      "жн": 4816,
      "шш": 4817,
      "1п": 4818,
      "▁руб": 4819,
      "▁\n\nОт": 4820,
      "тами": 4821,
      "▁dé": 4822,
      "зен": 4823,
      "ten": 4824,
      "▁причи": 4825,
      "▁ян": 4826,
      "▁пана": 4827,
      "▁Сен": 4828,
      "рхи": 4829,
      "▁объявлен": 4830,
      "ТА": 4831,
      "▁10.": 4832,
      "▁чита": 4833,
      "CK": 4834,
      "с^": 4835,
      "▁vide": 4836,
      "Ъе": 4837,
      "ων": 4838,
      "ре,": 4839,
      "▁рег": 4840,
      "ение,": 4841,
      "▁занима": 4842,
      "▁\n\n\nу": 4843,
      "▁равно": 4844,
      "гк": 4845,
      "▁год": 4846,
      "тр.": 4847,
      "ров.": 4848,
      "▁\nL": 4849,
      "те.": 4850,
      "▁\nры": 4851,
      "▁33": 4852,
      "▁его,": 4853,
      "▁fa": 4854,
      "▁\n\n»": 4855,
      "▁\n\n\nЧ": 4856,
      "68": 4857,
      "Ш,": 4858,
      "ѣ,": 4859,
      "▁услови": 4860,
      "чная": 4861,
      "▁употреб": 4862,
      "дели": 4863,
      "oll": 4864,
      "▁том": 4865,
      "вались": 4866,
      "раго": 4867,
      "дук": 4868,
      "▁2-": 4869,
      "tre": 4870,
      "▁игра": 4871,
      "лять": 4872,
      "▁\n\nB": 4873,
      "іі.": 4874,
      "пн": 4875,
      "▁умер": 4876,
      "▁принима": 4877,
      "▁so": 4878,
      "▁поряд": 4879,
      "ши,": 4880,
      "рядо": 4881,
      "ться.": 4882,
      "▁люде": 4883,
      "нин": 4884,
      "▁Мы": 4885,
      "▁глаза": 4886,
      "\\\\": 4887,
      "1И": 4888,
      "вала": 4889,
      "▁рабочи": 4890,
      "▁\n[": 4891,
      "выми": 4892,
      "скаго,": 4893,
      "▁\n\n\n11": 4894,
      "▁живу": 4895,
      "ЕМ": 4896,
      "▁потом": 4897,
      "пт": 4898,
      "▁пожа": 4899,
      "▁связи": 4900,
      "▁\nЦ": 4901,
      "мая": 4902,
      "▁тотъ": 4903,
      "▁ε": 4904,
      "▁сам": 4905,
      "▁\n\n\nЕ": 4906,
      "хя": 4907,
      "▁не-": 4908,
      "▁иногда": 4909,
      "деми": 4910,
      "мено": 4911,
      "▁Ше": 4912,
      "▁состав": 4913,
      "▁\nкоторы": 4914,
      "▁комп": 4915,
      "04": 4916,
      "▁окон": 4917,
      "▁«П": 4918,
      "меня": 4919,
      "вобо": 4920,
      "льзу": 4921,
      "вать.": 4922,
      "▁учре": 4923,
      "стри": 4924,
      "ux": 4925,
      "eb": 4926,
      "62": 4927,
      "^я": 4928,
      "▁\n\nСубару:": 4929,
      "тии": 4930,
      "▁исклю": 4931,
      "мент": 4932,
      "▁противо": 4933,
      "▁сами": 4934,
      ";.": 4935,
      "52": 4936,
      "водя": 4937,
      "▁тѣ": 4938,
      "▁служи": 4939,
      "гат": 4940,
      "▁ибо": 4941,
      "y.": 4942,
      "▁оть": 4943,
      "ical": 4944,
      "ссо": 4945,
      "EP": 4946,
      "וי": 4947,
      "▁sub": 4948,
      "▁AF": 4949,
      "есе": 4950,
      "боро": 4951,
      "▁восп": 4952,
      "ющим": 4953,
      "іез": 4954,
      "не.": 4955,
      "ся.": 4956,
      "ческ": 4957,
      "▁ד": 4958,
      ",,": 4959,
      "ЭК": 4960,
      "лого": 4961,
      "▁\nКо": 4962,
      "лях": 4963,
      "ломъ": 4964,
      "▁посла": 4965,
      "▁ob": 4966,
      "▁земле": 4967,
      "образо": 4968,
      "MM": 4969,
      "▁зи": 4970,
      "ции.": 4971,
      "▁друга": 4972,
      "▁о,": 4973,
      "пит": 4974,
      "ER": 4975,
      "шЪ": 4976,
      "▁\nдру": 4977,
      "▁\n\nC": 4978,
      "▁мест": 4979,
      "▁\n\nг": 4980,
      "▁пой": 4981,
      "07": 4982,
      "ех": 4983,
      "▁вет": 4984,
      "▁пору": 4985,
      "▁духов": 4986,
      "ющего": 4987,
      "▁России": 4988,
      "нье": 4989,
      "кь": 4990,
      "ark": 4991,
      "um,": 4992,
      "▁бума": 4993,
      "▁Англ.": 4994,
      "▁\n\nКласс": 4995,
      "▁ука": 4996,
      "▁испол": 4997,
      "▁сфна": 4998,
      "тный": 4999,
      "ду.": 5000,
      "200": 5001,
      "▁Св.": 5002,
      "лон": 5003,
      "ОО": 5004,
      "▁здесь": 5005,
      "рами": 5006,
      "▁осу": 5007,
      "Ш.": 5008,
      "▁держа": 5009,
      "ЧЕ": 5010,
      "▁\nлю": 5011,
      ">.": 5012,
      "ют,": 5013,
      "ган": 5014,
      "▁Я.": 5015,
      "▁такое": 5016,
      "рем": 5017,
      "▁\nмы": 5018,
      "▁192": 5019,
      "ходить": 5020,
      "▁Цар": 5021,
      "тые": 5022,
      "▁защи": 5023,
      "▁полити": 5024,
      "▁37": 5025,
      "бл": 5026,
      "▁\nзо": 5027,
      "ке.": 5028,
      "нес": 5029,
      "eg": 5030,
      "xb": 5031,
      "▁Би": 5032,
      "▁Нов": 5033,
      "пл": 5034,
      "ann": 5035,
      "▁человек": 5036,
      "▁44": 5037,
      "а1": 5038,
      "нц": 5039,
      "▁производи": 5040,
      "▁Губер": 5041,
      "▁имен": 5042,
      "▁ті": 5043,
      "▁«О": 5044,
      "вей": 5045,
      "▁\nша": 5046,
      "▁нем.": 5047,
      "▁несколько": 5048,
      "нан": 5049,
      "▁Однако": 5050,
      "зю": 5051,
      "▁требо": 5052,
      "▁\n\nСо": 5053,
      "▁Кор": 5054,
      "▁\nвоз": 5055,
      "нь,": 5056,
      "▁er": 5057,
      "▁(«": 5058,
      "есі": 5059,
      "▁191": 5060,
      "το": 5061,
      "нибудь": 5062,
      "▁ночь": 5063,
      "▁Когда": 5064,
      "лось,": 5065,
      "▁нее": 5066,
      "▁буде": 5067,
      "▁\nсти": 5068,
      "3;": 5069,
      "▁сі": 5070,
      "▁однако": 5071,
      "ОГ": 5072,
      "▁ква": 5073,
      "▁даль": 5074,
      "бл.": 5075,
      "дес": 5076,
      "чень": 5077,
      "ромъ": 5078,
      "выя": 5079,
      "▁per": 5080,
      "АЗ": 5081,
      "▁сЬ": 5082,
      "▁cm.": 5083,
      "сІ": 5084,
      "▁\ng": 5085,
      "▁мой": 5086,
      "▁тро": 5087,
      "гт": 5088,
      "▁отнош": 5089,
      "▁сли": 5090,
      "▁Ча": 5091,
      "▁\nля": 5092,
      "мышлен": 5093,
      "▁us": 5094,
      "▁//": 5095,
      "▁тю": 5096,
      "▁край": 5097,
      "Р.": 5098,
      "ло.": 5099,
      "ис.": 5100,
      "▁4е": 5101,
      "туа": 5102,
      "▁симво": 5103,
      "yp": 5104,
      "пе,": 5105,
      "Ге": 5106,
      "]е": 5107,
      "ють": 5108,
      "▁AC": 5109,
      "▁точки": 5110,
      "▁ид": 5111,
      "ah": 5112,
      "▁\nЗа": 5113,
      "▁анг": 5114,
      "іі,": 5115,
      "▁денег": 5116,
      "02": 5117,
      "▁Съ": 5118,
      "▁(К": 5119,
      "▁весьма": 5120,
      "чного": 5121,
      "лава": 5122,
      "▁μ": 5123,
      "▁работы": 5124,
      "жды": 5125,
      "роят": 5126,
      "ложе": 5127,
      "▁\nN": 5128,
      "▁насе": 5129,
      "▁46": 5130,
      "▁всѣ": 5131,
      "ior": 5132,
      "вода": 5133,
      "▁уе": 5134,
      "▁Пав": 5135,
      "▁\n\n\nЗ": 5136,
      "ram": 5137,
      "торое": 5138,
      "ік": 5139,
      "куп": 5140,
      "▁земля": 5141,
      "▁нару": 5142,
      "▁\nсм.": 5143,
      "спа": 5144,
      "▁маши": 5145,
      "▁изу": 5146,
      "тельные": 5147,
      "▁\nск": 5148,
      "сть.": 5149,
      "▁установ": 5150,
      "шед": 5151,
      "▁участ": 5152,
      "▁каза": 5153,
      "оте": 5154,
      "ены": 5155,
      "51": 5156,
      "м.,": 5157,
      "дума": 5158,
      "▁кисло": 5159,
      "луча": 5160,
      "unt": 5161,
      "▁Вилен": 5162,
      "▁іи": 5163,
      "▁מ": 5164,
      "іи,": 5165,
      "▁ль": 5166,
      "ру,": 5167,
      "SID": 5168,
      "▁оде": 5169,
      "сказа": 5170,
      "нос": 5171,
      "ность,": 5172,
      "▁\n\n3.": 5173,
      "▁выпол": 5174,
      "ръ.": 5175,
      "▁оказа": 5176,
      "лад": 5177,
      "▁ао": 5178,
      "ги.": 5179,
      ".\n\n<|startoftext|>С": 5180,
      "чему": 5181,
      "▁АН": 5182,
      "ственный": 5183,
      "гой": 5184,
      "▁возра": 5185,
      "чку": 5186,
      "▁fl": 5187,
      "жной": 5188,
      "йств": 5189,
      "ён": 5190,
      "▁срав": 5191,
      "гег": 5192,
      "ров,": 5193,
      "сЫ": 5194,
      "orm": 5195,
      "▁ver": 5196,
      "▁Влади": 5197,
      "ре-": 5198,
      "▁воро": 5199,
      "чное": 5200,
      "ческаго": 5201,
      "▁требу": 5202,
      "чн": 5203,
      "▁формы": 5204,
      "ype": 5205,
      "сЪ": 5206,
      "▁йо": 5207,
      "▁ХУ": 5208,
      "▁мень": 5209,
      "▁неза": 5210,
      "АМ": 5211,
      "АЯ": 5212,
      "▁Фран": 5213,
      "лий": 5214,
      "вольно": 5215,
      "до-": 5216,
      "дел": 5217,
      "ТО": 5218,
      "▁\nст": 5219,
      "▁do": 5220,
      "▁плоско": 5221,
      "▁Фор": 5222,
      "cl": 5223,
      "се,": 5224,
      "говор": 5225,
      "EC": 5226,
      "рет": 5227,
      "▁уче": 5228,
      "\\ѵ": 5229,
      "*)": 5230,
      "-ли": 5231,
      "▁её": 5232,
      "▁всю": 5233,
      "▁Ув": 5234,
      "▁\n'": 5235,
      "59": 5236,
      "даря": 5237,
      "▁переда": 5238,
      "урна": 5239,
      "4:": 5240,
      "іл": 5241,
      "ствовать": 5242,
      "ков.": 5243,
      "▁11.": 5244,
      "ия": 5245,
      "▁совершенно": 5246,
      "кнов": 5247,
      "0)": 5248,
      "ee": 5249,
      "льзя": 5250,
      "▁\no": 5251,
      "▁tr": 5252,
      "пь": 5253,
      "пш": 5254,
      "ina": 5255,
      "▁ой": 5256,
      "▁жена": 5257,
      "▁хри": 5258,
      "//": 5259,
      "іЬ": 5260,
      "▁\n\nH": 5261,
      "▁oc": 5262,
      "тѣ": 5263,
      "▁Ор": 5264,
      "лью": 5265,
      "В,": 5266,
      "▁пси": 5267,
      "сомъ": 5268,
      "струк": 5269,
      "АА": 5270,
      "▁Вер": 5271,
      "▁\nных": 5272,
      "Ги": 5273,
      "▁фило": 5274,
      "▁года.": 5275,
      "▁широ": 5276,
      "▁ук": 5277,
      "▁говоря": 5278,
      "▁стар": 5279,
      "ang": 5280,
      "▁экз.).": 5281,
      "нию": 5282,
      "ловъ": 5283,
      "лю,": 5284,
      "ace": 5285,
      "тов,": 5286,
      "ата": 5287,
      "вичъ,": 5288,
      "тЪ": 5289,
      "ів": 5290,
      "есо": 5291,
      "▁фран": 5292,
      "uch": 5293,
      "тю": 5294,
      "▁вновь": 5295,
      "жни": 5296,
      "▁\n\n\n7": 5297,
      "1я,": 5298,
      "вичь": 5299,
      "▁системы": 5300,
      "▁\n‘": 5301,
      "▁\nзна": 5302,
      "▁Th": 5303,
      "ih": 5304,
      "▁а-": 5305,
      "▁12.": 5306,
      "съ,": 5307,
      "щается": 5308,
      "▁источ": 5309,
      "ev": 5310,
      "▁немъ": 5311,
      "мир": 5312,
      "сх": 5313,
      "▁слы": 5314,
      "▁водо": 5315,
      "ular": 5316,
      "▁\nвсе": 5317,
      "▁Ха": 5318,
      "▁темпера": 5319,
      "ЛЕ": 5320,
      "лини": 5321,
      "▁отра": 5322,
      "стин": 5323,
      "мм": 5324,
      "▁сер.": 5325,
      "oss": 5326,
      "ight": 5327,
      "▁посе": 5328,
      "▁из-": 5329,
      "іи.": 5330,
      "точно": 5331,
      "▁\nжен": 5332,
      "▁1875.": 5333,
      "▁Ген": 5334,
      "▁Спб.": 5335,
      "не-": 5336,
      "▁\nЖ": 5337,
      "іап": 5338,
      "▁перво": 5339,
      "▁\n\n\nФ": 5340,
      "aB": 5341,
      "ф,": 5342,
      "▁®": 5343,
      "▁\n7": 5344,
      "▁\nс.": 5345,
      "▁Москов": 5346,
      "we": 5347,
      "▁гото": 5348,
      "кономи": 5349,
      "ign": 5350,
      "ч.,": 5351,
      "▁спраши": 5352,
      "▁свер": 5353,
      "бир": 5354,
      "ске": 5355,
      "^H": 5356,
      "▁прекра": 5357,
      "рЬ": 5358,
      "▁\nr": 5359,
      "сил": 5360,
      "пей": 5361,
      "'B": 5362,
      "▁пробле": 5363,
      "писко": 5364,
      "▁соеди": 5365,
      "ч,": 5366,
      "SID.": 5367,
      "рит": 5368,
      "▁нѣ": 5369,
      "▁князя": 5370,
      "69": 5371,
      "шка,": 5372,
      "ской,": 5373,
      "пис": 5374,
      "уо": 5375,
      "▁славян": 5376,
      "▁Сл": 5377,
      ".\n\n<|startoftext|>П": 5378,
      "▁аз": 5379,
      "ла-": 5380,
      "ныхъ,": 5381,
      "T.": 5382,
      "ma": 5383,
      "шк": 5384,
      "5)": 5385,
      "ok": 5386,
      "ето": 5387,
      "▁нако": 5388,
      "▁70": 5389,
      "▁важ": 5390,
      "▁выда": 5391,
      "▁\nЬ": 5392,
      "▁NA": 5393,
      "54": 5394,
      "▁которого": 5395,
      "▁8,": 5396,
      "И,": 5397,
      "▁собой": 5398,
      "▁предо": 5399,
      "▁стоя": 5400,
      "надца": 5401,
      "▁ай": 5402,
      "▁обна": 5403,
      "ins": 5404,
      "ба,": 5405,
      "▁IV": 5406,
      "▁\n\n§": 5407,
      "ваніе": 5408,
      "те-": 5409,
      "▁борь": 5410,
      "дъ,": 5411,
      "▁he": 5412,
      "гай": 5413,
      "▁Фа": 5414,
      "▁доку": 5415,
      "лиц": 5416,
      "▁39": 5417,
      "▁am": 5418,
      "▁вЬ": 5419,
      "▁av": 5420,
      "era": 5421,
      "▁имеет": 5422,
      "!;": 5423,
      "ёт": 5424,
      "▁поэ": 5425,
      "^к": 5426,
      "лиз": 5427,
      "пг": 5428,
      "все": 5429,
      "▁уб": 5430,
      "пар": 5431,
      "▁мар": 5432,
      "▁меся": 5433,
      "дной": 5434,
      "▁числа": 5435,
      "▁Жи": 5436,
      "'ь": 5437,
      "▁10,": 5438,
      "▁сме": 5439,
      "клады": 5440,
      "▁лингв.": 5441,
      "▁Исто": 5442,
      "▁ש": 5443,
      "▁пом": 5444,
      "▁тор": 5445,
      "▁отдель": 5446,
      "вы.": 5447,
      "лая": 5448,
      "57": 5449,
      "чать": 5450,
      "тельных": 5451,
      "ное,": 5452,
      "рее": 5453,
      "111": 5454,
      "58": 5455,
      "▁\nден": 5456,
      "63": 5457,
      "вка": 5458,
      "▁двухъ": 5459,
      "▁человека": 5460,
      "ля.": 5461,
      "▁форму": 5462,
      "емый": 5463,
      "Be": 5464,
      "ES": 5465,
      "▁\nлен": 5466,
      "ia,": 5467,
      "чины": 5468,
      "▁положи": 5469,
      "рец": 5470,
      "...\n\n<|startoftext|>-": 5471,
      "▁41": 5472,
      "мец": 5473,
      "▁жени": 5474,
      "кой,": 5475,
      "льника": 5476,
      "▁(ст.": 5477,
      "ica": 5478,
      "тных": 5479,
      "▁(М": 5480,
      "мож": 5481,
      "ti": 5482,
      "▁наказа": 5483,
      "▁права": 5484,
      "▁поэтому": 5485,
      "▁\n\nЦ": 5486,
      "дем": 5487,
      "▁восто": 5488,
      "▁гражда": 5489,
      "в-Ь": 5490,
      "▁81": 5491,
      "зк": 5492,
      "іІ": 5493,
      "кими": 5494,
      "щего": 5495,
      "лй": 5496,
      "erv": 5497,
      "▁первый": 5498,
      "лся,": 5499,
      "вг": 5500,
      "▁non": 5501,
      "Та": 5502,
      "▁рода": 5503,
      "ешь,": 5504,
      "▁\n\n\n\n\n\n\n\n\n": 5505,
      "▁бан": 5506,
      "▁\nСо": 5507,
      "▁\nха": 5508,
      "ведения": 5509,
      "▁9,": 5510,
      "уу": 5511,
      "▁запа": 5512,
      "▁лЪ": 5513,
      "▁\n\n\nI": 5514,
      "▁види": 5515,
      "ли-": 5516,
      "▁\n\nP": 5517,
      "лении": 5518,
      "ѵе": 5519,
      "▁\n\nA": 5520,
      "▁сопро": 5521,
      "То": 5522,
      "▁Гер": 5523,
      "Е.": 5524,
      "рый": 5525,
      "АВ": 5526,
      "/2": 5527,
      "<1": 5528,
      "▁Она": 5529,
      "рег": 5530,
      "па.": 5531,
      "▁реши": 5532,
      "лово": 5533,
      "▁надъ": 5534,
      "53": 5535,
      "аш": 5536,
      "▁што": 5537,
      "▁каждый": 5538,
      "age": 5539,
      "-нибудь": 5540,
      "▁42": 5541,
      "ге.": 5542,
      "que": 5543,
      "на-": 5544,
      "шку": 5545,
      "дера": 5546,
      "▁ии": 5547,
      "▁должна": 5548,
      "нгель": 5549,
      "▁неве": 5550,
      "под": 5551,
      "▁\nпер": 5552,
      "▁руки": 5553,
      "▁среди": 5554,
      "▁второй": 5555,
      "▁48": 5556,
      "▁домо": 5557,
      "▁а)": 5558,
      "▁500": 5559,
      "▁\nПри": 5560,
      "cn": 5561,
      "▁соста": 5562,
      "▁веще": 5563,
      "нда": 5564,
      "▁эту": 5565,
      "ura": 5566,
      "pH": 5567,
      "мира": 5568,
      "доров": 5569,
      "▁долго": 5570,
      "2у": 5571,
      "▁ново": 5572,
      "▁\nния": 5573,
      "▁вклю": 5574,
      "ни.": 5575,
      "um.": 5576,
      "▁пет": 5577,
      "тина": 5578,
      "▁сколько": 5579,
      "чера": 5580,
      "i>": 5581,
      "▁поса": 5582,
      "o6": 5583,
      "Му": 5584,
      "▁поко": 5585,
      "▁אי": 5586,
      "▁схемы": 5587,
      "▁шу": 5588,
      "▁\n\nS": 5589,
      "▁зі": 5590,
      "пд": 5591,
      "▁закон": 5592,
      "гіі": 5593,
      "▁\nвер": 5594,
      "ковъ.": 5595,
      "ствия": 5596,
      "▁этомъ": 5597,
      "▁το": 5598,
      "]а": 5599,
      "ЕНИ": 5600,
      "▁°": 5601,
      "т.,": 5602,
      "дав": 5603,
      "▁Они": 5604,
      "▁которую": 5605,
      "тся,": 5606,
      "ясь": 5607,
      "ство.": 5608,
      "плен": 5609,
      "пеп": 5610,
      "1'": 5611,
      "ско-": 5612,
      "сѣ": 5613,
      "▁\n\n\nЛ": 5614,
      "ле,": 5615,
      "▁7,": 5616,
      "▁пото": 5617,
      "ий": 5618,
      "сіе": 5619,
      "шихъ": 5620,
      "▁Государ": 5621,
      "yst": 5622,
      "сга": 5623,
      "зов": 5624,
      "tr": 5625,
      "няется": 5626,
      "▁судь": 5627,
      "▁неиз": 5628,
      "^a": 5629,
      "сіа": 5630,
      "▁муз.": 5631,
      "ON": 5632,
      "tes": 5633,
      "▁adj.": 5634,
      "ше.": 5635,
      "▁семь": 5636,
      "бить": 5637,
      "жки": 5638,
      "нской": 5639,
      "сили": 5640,
      "▁особен": 5641,
      "▁«В": 5642,
      "▁\nты": 5643,
      "тика": 5644,
      "ѵо": 5645,
      "▁всей": 5646,
      "▁постро": 5647,
      "ult": 5648,
      "ція": 5649,
      "▁г.).": 5650,
      "▁жъ": 5651,
      "Бо": 5652,
      "▁спосо": 5653,
      "▁яв": 5654,
      "ляет": 5655,
      "вящен": 5656,
      "atur": 5657,
      "ών": 5658,
      "▁НА": 5659,
      "▁ВЪ": 5660,
      "вам": 5661,
      "ждение": 5662,
      "Ни": 5663,
      "п1": 5664,
      "▁npe": 5665,
      "▁\nного": 5666,
      "▁Ьо": 5667,
      "▁одинъ": 5668,
      "▁(на": 5669,
      "▁мето": 5670,
      "3—": 5671,
      "hh": 5672,
      "бре": 5673,
      "нй": 5674,
      "▁14.": 5675,
      "▁ез": 5676,
      "ene": 5677,
      "▁15.": 5678,
      "гну": 5679,
      "▁פ": 5680,
      "ive": 5681,
      "лш": 5682,
      "яу": 5683,
      "вай": 5684,
      "вич,": 5685,
      "▁полови": 5686,
      "▁б.": 5687,
      "▁приба": 5688,
      "ри,": 5689,
      "▁устрой": 5690,
      "сА": 5691,
      "▁тран": 5692,
      "▁VI": 5693,
      "▁me": 5694,
      "сша": 5695,
      "▁лицо": 5696,
      "▁сь": 5697,
      "▁пово": 5698,
      "чая": 5699,
      "▁\n\nM": 5700,
      "деся": 5701,
      "▁искус": 5702,
      "пуск": 5703,
      "▁деятель": 5704,
      "нечно,": 5705,
      "жей": 5706,
      "▁уров": 5707,
      "▁Пред": 5708,
      "-е": 5709,
      "ol.": 5710,
      "ору": 5711,
      "▁будут": 5712,
      "оа": 5713,
      "хи,": 5714,
      "зко": 5715,
      "зво": 5716,
      "▁основа": 5717,
      "-ная": 5718,
      "▁נ": 5719,
      "рица": 5720,
      "▁мор": 5721,
      "жели": 5722,
      "шв": 5723,
      "us;": 5724,
      "клад": 5725,
      "▁\nКа": 5726,
      "к;": 5727,
      "▁оп.": 5728,
      "▁Зна": 5729,
      "▁гар": 5730,
      "▁сош": 5731,
      "00.": 5732,
      "▁\nные": 5733,
      "▁вн": 5734,
      "iam": 5735,
      "дут": 5736,
      "ик": 5737,
      "▁четв.,": 5738,
      "▁гг.": 5739,
      "▁тяже": 5740,
      "▁коле": 5741,
      "▁отЪ": 5742,
      "кладъ": 5743,
      "ck": 5744,
      "▁ПО": 5745,
      "▁\n■": 5746,
      "1я.": 5747,
      "EN": 5748,
      "l.": 5749,
      "тое": 5750,
      "▁зер": 5751,
      "▁\n\nПро": 5752,
      "▁\nK": 5753,
      "рыв": 5754,
      "ственных": 5755,
      "еси": 5756,
      "▁(у": 5757,
      "▁сю": 5758,
      "▁заня": 5759,
      "▁от-": 5760,
      "▁крас": 5761,
      "▁имф": 5762,
      "▁\nзем": 5763,
      "▁\nw": 5764,
      "▁\n\n2)": 5765,
      "лать": 5766,
      "▁разъ": 5767,
      "s:": 5768,
      "▁can": 5769,
      "скаго.": 5770,
      "тш": 5771,
      "▁(и": 5772,
      "7)": 5773,
      "αί": 5774,
      "▁δ": 5775,
      "▁Ё": 5776,
      "«.": 5777,
      "▁ז": 5778,
      "ial": 5779,
      "ерь": 5780,
      "▁гео": 5781,
      "пать": 5782,
      "3-": 5783,
      "▁\nту": 5784,
      "▁\n\nНе": 5785,
      "льчи": 5786,
      "▁Тип.": 5787,
      "1|": 5788,
      "нп": 5789,
      "▁Дер.": 5790,
      "▁ору": 5791,
      "пру": 5792,
      "▁поб": 5793,
      "м.\n\n<|startoftext|>": 5794,
      "▁V.": 5795,
      "раво": 5796,
      "▁\n<": 5797,
      "9%": 5798,
      "др": 5799,
      "▁соч.": 5800,
      "цк": 5801,
      "▁Сы": 5802,
      "шим": 5803,
      "ния,": 5804,
      "хЬ": 5805,
      "▁\n•": 5806,
      "год": 5807,
      "тЬ": 5808,
      "бол": 5809,
      "▁ще": 5810,
      "іемъ": 5811,
      "▁Коро": 5812,
      "▁Be": 5813,
      "ений,": 5814,
      "бов": 5815,
      "▁узна": 5816,
      "▁собира": 5817,
      "▁тыся": 5818,
      "нки": 5819,
      "▁ל": 5820,
      "▁79)": 5821,
      "▁Іе": 5822,
      "▁\nныхъ": 5823,
      "▁\n\nЖ": 5824,
      "▁современ": 5825,
      "▁(18": 5826,
      "▁\nдол": 5827,
      "▁сыномъ": 5828,
      "по-": 5829,
      "▁обяза": 5830,
      "ys": 5831,
      "ЕС": 5832,
      "▁Вар": 5833,
      "inae": 5834,
      "▁собою": 5835,
      "▁скл.": 5836,
      "▁лучше": 5837,
      "шта": 5838,
      "ями": 5839,
      "▁организа": 5840,
      "ствомъ": 5841,
      "6;": 5842,
      "▁воево": 5843,
      "мети": 5844,
      "етъ,": 5845,
      "▁никогда": 5846,
      "▁orig.": 5847,
      "ці": 5848,
      "Б,": 5849,
      "▁man": 5850,
      "▁сына": 5851,
      "isch": 5852,
      "/,": 5853,
      "yr": 5854,
      "рат": 5855,
      "щихъ": 5856,
      "▁един": 5857,
      "4;": 5858,
      "lo": 5859,
      "кахъ": 5860,
      "Ы.": 5861,
      "▁\nны": 5862,
      "▁ого": 5863,
      "де,": 5864,
      "▁дв.;": 5865,
      "бло": 5866,
      "▁гд": 5867,
      "▁дф": 5868,
      "▁AT": 5869,
      "луч": 5870,
      "▁Вот": 5871,
      "тых": 5872,
      "спи": 5873,
      "ср": 5874,
      "▁всем": 5875,
      "▁Марта": 5876,
      "ія.": 5877,
      "▁Зе": 5878,
      "0-": 5879,
      "!^": 5880,
      "▁піе": 5881,
      "▁\n\nк": 5882,
      "рис.": 5883,
      "1еп": 5884,
      "\\у": 5885,
      "нко": 5886,
      "▁стол": 5887,
      "▁сЪна": 5888,
      "▁\nня": 5889,
      "зать": 5890,
      "▁сейчас": 5891,
      "Ше": 5892,
      "▁кам": 5893,
      "гё": 5894,
      "▁обе": 5895,
      "РУ": 5896,
      "ри-": 5897,
      "▁\nской": 5898,
      "▁20.": 5899,
      "▁черезъ": 5900,
      "йт": 5901,
      "лые": 5902,
      "пв": 5903,
      "▁\n\n\nЯ": 5904,
      "бн": 5905,
      "вался": 5906,
      "и^": 5907,
      "mi": 5908,
      "▁č": 5909,
      "ербург": 5910,
      "цами": 5911,
      "▁Поэтому": 5912,
      "ж,": 5913,
      "цъ,": 5914,
      "▁Цер": 5915,
      "ото": 5916,
      "▁n.": 5917,
      "ference": 5918,
      "TM": 5919,
      "▁мол": 5920,
      "▁стоимо": 5921,
      "▁Ar": 5922,
      "▁насъ": 5923,
      "▁практи": 5924,
      "▁которыхъ": 5925,
      "▁СП": 5926,
      "числен": 5927,
      "иш": 5928,
      "нной": 5929,
      "види": 5930,
      "▁--": 5931,
      "1е,": 5932,
      "d.": 5933,
      "тать": 5934,
      "▁4)": 5935,
      "▁непа": 5936,
      "1емъ": 5937,
      "▁индиви": 5938,
      "гв": 5939,
      "גע": 5940,
      "▁\n\nб": 5941,
      "тельная": 5942,
      "вов": 5943,
      "▁\n\n\n8": 5944,
      "рье": 5945,
      "вав": 5946,
      "еспе": 5947,
      "ве,": 5948,
      "▁диа": 5949,
      "ЛО": 5950,
      "пли": 5951,
      "я-": 5952,
      "х-": 5953,
      "b,": 5954,
      "седа": 5955,
      "гз": 5956,
      "▁глаго": 5957,
      "ив": 5958,
      "куда": 5959,
      "▁форма": 5960,
      "тельного": 5961,
      "▁\nВо": 5962,
      "▁газ": 5963,
      "сред": 5964,
      "ре.": 5965,
      "ственного": 5966,
      "αν": 5967,
      "2;": 5968,
      "гро": 5969,
      "5—": 5970,
      "іоп": 5971,
      "более": 5972,
      "▁\n18": 5973,
      "▁\n\nВо": 5974,
      "yl": 5975,
      "▁области": 5976,
      "бран": 5977,
      "й;": 5978,
      "бин": 5979,
      "▁ним": 5980,
      "▁лежа": 5981,
      "с!": 5982,
      "▁успе": 5983,
      "▁дра": 5984,
      "жит": 5985,
      "▁196": 5986,
      "таго": 5987,
      "лег": 5988,
      "▁47": 5989,
      "воло": 5990,
      "▁тай": 5991,
      "чается": 5992,
      "▁Чу": 5993,
      "Ла": 5994,
      "▁превра": 5995,
      "▁тут": 5996,
      "▁Воен": 5997,
      "'-": 5998,
      "▁группы": 5999,
      "▁простран": 6000,
      "▁Василье": 6001,
      "ЕВ": 6002,
      "▁нео": 6003,
      "▁ребен": 6004,
      "▁\nМо": 6005,
      "m,": 6006,
      "▁каждо": 6007,
      "▁\n\n\nТо": 6008,
      "ně": 6009,
      "▁може": 6010,
      "▁места": 6011,
      "▁пользу": 6012,
      "2е": 6013,
      "▁боле": 6014,
      "ник,": 6015,
      "ры.": 6016,
      "ibus": 6017,
      "▁шта": 6018,
      "▁общ": 6019,
      "▁вместе": 6020,
      "ВАК.": 6021,
      "▁(F": 6022,
      "зей": 6023,
      "▁первой": 6024,
      "ame": 6025,
      "▁\n\n0,": 6026,
      "▁I)": 6027,
      "▁m.": 6028,
      "xa": 6029,
      "▁дес.,": 6030,
      "ons": 6031,
      "▁мужи": 6032,
      "▁\n\n1)": 6033,
      "5;": 6034,
      "ЛЬ": 6035,
      "▁sh": 6036,
      "ностей": 6037,
      "▁not": 6038,
      "▁всЬ": 6039,
      "▁губ.": 6040,
      "▁можетъ": 6041,
      "6)": 6042,
      "▁18.": 6043,
      "...-": 6044,
      "▁AMANC": 6045,
      "▁опы": 6046,
      "▁одну": 6047,
      "▁това": 6048,
      "du": 6049,
      "▁дв": 6050,
      "рус.": 6051,
      "▁(А": 6052,
      "ple": 6053,
      "▁взгля": 6054,
      "▁ограни": 6055,
      "ремя": 6056,
      "▁чре": 6057,
      "іаі": 6058,
      "IE": 6059,
      "чета": 6060,
      "лии": 6061,
      "▁I,": 6062,
      "▁мед": 6063,
      "*-": 6064,
      "р'Ь": 6065,
      "ка-": 6066,
      "▁(О": 6067,
      "▁вен": 6068,
      "▁мая": 6069,
      "Из": 6070,
      "нш": 6071,
      "пен": 6072,
      "рода": 6073,
      "нах": 6074,
      "▁(л.": 6075,
      "▁села": 6076,
      "▁o6": 6077,
      "ющихъ": 6078,
      "▁dans": 6079,
      "1е.": 6080,
      "▁\nпол": 6081,
      "гей": 6082,
      "▁ними": 6083,
      "вшие": 6084,
      "мя,": 6085,
      "▁Ца": 6086,
      "▁\n\nЛ.": 6087,
      "▁гри": 6088,
      "▁попа": 6089,
      "▁нес": 6090,
      "▁43": 6091,
      "▁(Ре": 6092,
      "▁гер": 6093,
      "▁проек": 6094,
      "лу,": 6095,
      "',": 6096,
      "▁арх": 6097,
      "▁іо": 6098,
      "▁ein": 6099,
      "▁образ": 6100,
      "'1": 6101,
      "рово": 6102,
      "Лі": 6103,
      "кну": 6104,
      "ius": 6105,
      "ид": 6106,
      "ѣ.": 6107,
      "▁\nю": 6108,
      "▁49": 6109,
      "▁genus": 6110,
      "▁ед": 6111,
      "▁положен": 6112,
      "▁полпол": 6113,
      "▁смерти": 6114,
      "сд": 6115,
      "oma": 6116,
      "ors": 6117,
      "▁\n=": 6118,
      "▁13.": 6119,
      "ie,": 6120,
      "▁могли": 6121,
      "▁Ша": 6122,
      "▁Бого": 6123,
      "be": 6124,
      "▁111": 6125,
      "▁188": 6126,
      "▁дом": 6127,
      "▁\n\nНо": 6128,
      "▁form": 6129,
      "2-": 6130,
      "▁остро": 6131,
      "▁\n\n\nпо": 6132,
      "▁51": 6133,
      "▁нельзя": 6134,
      "▁АС": 6135,
      "▁этому": 6136,
      "гло": 6137,
      "гес": 6138,
      "У.": 6139,
      "▁второ": 6140,
      "▁саха": 6141,
      "▁\n\nТа": 6142,
      "amily": 6143,
      "а^": 6144,
      "▁Августа": 6145,
      "▁Ке": 6146,
      "o.": 6147,
      "▁д'Ь": 6148,
      "▁священ": 6149,
      "тель-": 6150,
      "▁\n\n\nв": 6151,
      "мини": 6152,
      "шев": 6153,
      "▁аль": 6154,
      "!й": 6155,
      "рав.": 6156,
      "за,": 6157,
      "▁Декабря": 6158,
      "ря,": 6159,
      "ным,": 6160,
      "▁прн": 6161,
      "рко": 6162,
      "льник": 6163,
      "цеп": 6164,
      "▁\n\n\n9": 6165,
      "▁чело": 6166,
      "▁\nO": 6167,
      "ям": 6168,
      "шг": 6169,
      "ere,": 6170,
      "▁mo": 6171,
      "▁око": 6172,
      "HB": 6173,
      "лами": 6174,
      "тит": 6175,
      "еты": 6176,
      "▁сама": 6177,
      "▁Укра": 6178,
      "▁качестве": 6179,
      "лд": 6180,
      "▁кЪ": 6181,
      "▁bo": 6182,
      "▁фото": 6183,
      "пу,": 6184,
      "men": 6185,
      "рй": 6186,
      "сво": 6187,
      "еха": 6188,
      "▁ори": 6189,
      "▁АП": 6190,
      "▁ce": 6191,
      "▁AA": 6192,
      "▁\n9": 6193,
      "ложить": 6194,
      "мый": 6195,
      "ИС": 6196,
      "par": 6197,
      "▁ii": 6198,
      "▁оборо": 6199,
      "1ег": 6200,
      "ick": 6201,
      "\".\n\n<|startoftext|>": 6202,
      "нием": 6203,
      "мета": 6204,
      "▁раст": 6205,
      "▁sm.": 6206,
      "▁\nкак": 6207,
      "%.": 6208,
      "▁\na": 6209,
      "▁У.": 6210,
      "кса": 6211,
      "уд": 6212,
      "▁\nние": 6213,
      "наче": 6214,
      "5-": 6215,
      "ёр": 6216,
      "▁евре": 6217,
      "▁раз-": 6218,
      "▁Иван": 6219,
      "дуаль": 6220,
      "гии": 6221,
      "%,": 6222,
      "емые": 6223,
      "ствии": 6224,
      "гр.": 6225,
      "▁теб": 6226,
      "АП": 6227,
      "▁\n\n>": 6228,
      "пан": 6229,
      "res": 6230,
      "чк.": 6231,
      "▁ב": 6232,
      "▁н.": 6233,
      "▁имени": 6234,
      "НЫЙ": 6235,
      "▁Am": 6236,
      "бур": 6237,
      "новидѣ": 6238,
      "Іи": 6239,
      "2—": 6240,
      "еса": 6241,
      "ТЬСЯ,": 6242,
      "▁рису": 6243,
      "8;": 6244,
      "м'Ь": 6245,
      "▁уз": 6246,
      "дь,": 6247,
      "▁noc": 6248,
      "IL": 6249,
      "▁\n\nна": 6250,
      "▁мЪ": 6251,
      "▁long": 6252,
      "шы": 6253,
      "▁измен": 6254,
      "тл": 6255,
      "▁социаль": 6256,
      "▁круп": 6257,
      "рь.": 6258,
      "чев": 6259,
      "▁Мини": 6260,
      "емой": 6261,
      "сЬ,": 6262,
      "след": 6263,
      "8—": 6264,
      "▁сою": 6265,
      "une": 6266,
      "вд": 6267,
      "▁ое": 6268,
      "іе.": 6269,
      "▁другие": 6270,
      "ral": 6271,
      "роз": 6272,
      "▁вы-": 6273,
      "зиден": 6274,
      "ё,": 6275,
      "▁\nну": 6276,
      "вез": 6277,
      "int": 6278,
      "▁оконча": 6279,
      "1б": 6280,
      "▁сро": 6281,
      "eference": 6282,
      "Лу": 6283,
      "▁вар": 6284,
      "▁вдо": 6285,
      "шне": 6286,
      "▁пять": 6287,
      "▁пои": 6288,
      "▁Сенатскій.": 6289,
      "▁мои": 6290,
      "йской": 6291,
      "нато": 6292,
      "визи": 6293,
      "▁\nБо": 6294,
      "jih": 6295,
      "цов": 6296,
      "RO": 6297,
      "'Ъ": 6298,
      "▁\n\nя": 6299,
      "▁\n\n„": 6300,
      "▁\nско": 6301,
      "▁\n\nТоже.": 6302,
      "▁струк": 6303,
      "eference:": 6304,
      "КИ": 6305,
      "низ": 6306,
      "шить": 6307,
      "▁пы": 6308,
      "▁коор": 6309,
      "▁воды": 6310,
      "▁принадлежа": 6311,
      "ατ": 6312,
      "нто": 6313,
      "бы,": 6314,
      "см": 6315,
      "т»": 6316,
      "ний;": 6317,
      "(а": 6318,
      "дна": 6319,
      "пря": 6320,
      "▁зав": 6321,
      "ня;": 6322,
      "▁pe": 6323,
      "ственное": 6324,
      "кам": 6325,
      "▁ISID.": 6326,
      "▁\n\n12": 6327,
      "1Г": 6328,
      "▁до-": 6329,
      "▁сбор": 6330,
      "▁позд": 6331,
      "гли": 6332,
      "пк": 6333,
      "▁col": 6334,
      "▁руб.": 6335,
      "°.": 6336,
      "извод": 6337,
      "▁мир": 6338,
      "▁\nМа": 6339,
      "▁\n\n20": 6340,
      "-^": 6341,
      "ент": 6342,
      "▁«А": 6343,
      "pod": 6344,
      "▁степени": 6345,
      "▁\n`": 6346,
      "B,": 6347,
      "▁\nкъ": 6348,
      "▁рггу": 6349,
      "гами": 6350,
      "ition": 6351,
      "▁худо": 6352,
      "ила": 6353,
      "▁\nби": 6354,
      "▁16.": 6355,
      "▁продук": 6356,
      "▁находится": 6357,
      "ri": 6358,
      "▁передъ": 6359,
      "кри": 6360,
      "▁1п": 6361,
      "во.": 6362,
      "▁(3": 6363,
      "л-Ь": 6364,
      "-либо": 6365,
      "▁такого": 6366,
      "▁den": 6367,
      "ity": 6368,
      "еть,": 6369,
      "шет": 6370,
      "▁забо": 6371,
      "^^^": 6372,
      "Aa": 6373,
      "▁приходи": 6374,
      "хо-": 6375,
      "▁Ну,": 6376,
      "▁вое": 6377,
      "пег": 6378,
      "▁легко": 6379,
      "▁допол": 6380,
      "▁малень": 6381,
      "еръ": 6382,
      "L.": 6383,
      "▁гор.": 6384,
      "ry": 6385,
      "реп": 6386,
      "1з": 6387,
      "▁ули": 6388,
      "Ьг": 6389,
      "нут": 6390,
      "яхъ": 6391,
      "▁верх": 6392,
      "▁состо": 6393,
      "uss": 6394,
      "▁une": 6395,
      "IC": 6396,
      "іеі": 6397,
      "▁пусты": 6398,
      "▁1^": 6399,
      "▁этихъ": 6400,
      "▁оче": 6401,
      "▁\nще": 6402,
      "▁gl": 6403,
      "▁\n\nNo": 6404,
      "▁ико": 6405,
      "Бе": 6406,
      "▁\n10": 6407,
      "дици": 6408,
      "▁удель": 6409,
      "▁\nмен": 6410,
      "чала": 6411,
      "▁Ивано": 6412,
      "▁затем": 6413,
      "▁года,": 6414,
      "pos": 6415,
      "▁отлича": 6416,
      "щим": 6417,
      "és": 6418,
      "▁III": 6419,
      "хи.": 6420,
      "▁запи": 6421,
      "4).": 6422,
      "ХХ": 6423,
      "▁отвер": 6424,
      "ператор": 6425,
      "rans": 6426,
      "х^": 6427,
      "шс": 6428,
      "is.": 6429,
      "ИТЬ": 6430,
      "▁24.": 6431,
      "детель": 6432,
      "▁ο": 6433,
      "▁Чи": 6434,
      "▁\nТо": 6435,
      "нение": 6436,
      "▁принци": 6437,
      "»)": 6438,
      "▁17.": 6439,
      "Во": 6440,
      "▁опас": 6441,
      "▁член": 6442,
      "▁\nизъ": 6443,
      "▁пыта": 6444,
      "A.": 6445,
      "▁\n\nд": 6446,
      "тори": 6447,
      "▁«К": 6448,
      "▁лоша": 6449,
      "валь": 6450,
      "▁Ио": 6451,
      "▁\nПО": 6452,
      "▁своему": 6453,
      "▁чле": 6454,
      "Мо": 6455,
      "▁Ди": 6456,
      "ческихъ": 6457,
      "ег.": 6458,
      "пред": 6459,
      "▁\nца": 6460,
      "▁созна": 6461,
      "гать": 6462,
      "▁bas": 6463,
      "▁соедин": 6464,
      "дии": 6465,
      "▁соба": 6466,
      "Ьеп": 6467,
      "▁есте": 6468,
      "▁Ch": 6469,
      "▁сре": 6470,
      "нения": 6471,
      "▁утвержден": 6472,
      "м^": 6473,
      "▁доказа": 6474,
      "at.": 6475,
      "жный": 6476,
      "сЬе": 6477,
      "▁землю": 6478,
      "▁своихъ": 6479,
      "▁деньги": 6480,
      "JI": 6481,
      "▁\n\nСта": 6482,
      "ффек": 6483,
      "▁ожи": 6484,
      "▁генера": 6485,
      "съ.": 6486,
      "довательно,": 6487,
      "▁полЪ,": 6488,
      "▁исследо": 6489,
      "!и": 6490,
      "▁очи": 6491,
      "то.": 6492,
      "▁моя": 6493,
      "лых": 6494,
      "▁пользо": 6495,
      "▁представи": 6496,
      "▁пуст": 6497,
      "¬\n": 6498,
      "4—": 6499,
      "вр": 6500,
      "▁вя": 6501,
      "▁характер": 6502,
      "one": 6503,
      "▁›": 6504,
      "▁19.": 6505,
      "▁sa": 6506,
      "ква": 6507,
      "▁пти": 6508,
      "катери": 6509,
      "туаль": 6510,
      "']^": 6511,
      "▁кров": 6512,
      "▁Воз": 6513,
      "c.": 6514,
      "▁послѣ": 6515,
      "▁\nНо": 6516,
      "uv": 6517,
      "▁\n{": 6518,
      "▁потреб": 6519,
      "ной.": 6520,
      "ps": 6521,
      "тб": 6522,
      "▁Февраля": 6523,
      "▁куп": 6524,
      "jia": 6525,
      "Ба": 6526,
      "▁твер": 6527,
      "▁І.": 6528,
      "▁\n*": 6529,
      "▁\nге": 6530,
      "ств.": 6531,
      "му.": 6532,
      "іиз": 6533,
      "мей": 6534,
      "еры": 6535,
      "9—": 6536,
      "▁сд": 6537,
      "▁опо": 6538,
      "гие": 6539,
      "7;": 6540,
      "м»": 6541,
      "▁площа": 6542,
      "▁которыя": 6543,
      "іх": 6544,
      "▁Ско": 6545,
      "сіо": 6546,
      "▁сит": 6547,
      "▁другихъ": 6548,
      "▁\n\nX": 6549,
      "▁Смо": 6550,
      "ряда": 6551,
      "tb": 6552,
      "▁σ": 6553,
      "▁\nthe": 6554,
      "▁побе": 6555,
      "▁je": 6556,
      "ха.": 6557,
      "My": 6558,
      "▁\nгу": 6559,
      "▁фе": 6560,
      "▁неболь": 6561,
      "▁von": 6562,
      "▁продолжа": 6563,
      "дие": 6564,
      "▁прои": 6565,
      "рета": 6566,
      "▁случай": 6567,
      "▁\nтак": 6568,
      "▁пора": 6569,
      "▁ке": 6570,
      "▁лица": 6571,
      "поль": 6572,
      "▁музы": 6573,
      "▁во-": 6574,
      "сшо": 6575,
      "gen": 6576,
      "ного,": 6577,
      "▁pra": 6578,
      "▁\n\n,": 6579,
      "жество": 6580,
      "▁Почему": 6581,
      "▁добро": 6582,
      "▁(Д": 6583,
      "▁тепло": 6584,
      "▁обыкнов": 6585,
      "▁сегодня": 6586,
      "▁опубли": 6587,
      "▁\n\nV": 6588,
      "ристо": 6589,
      "кли": 6590,
      "▁\n0": 6591,
      "▁\nin": 6592,
      "▁серд": 6593,
      "ЕК": 6594,
      "ііз": 6595,
      "ский,": 6596,
      "icht": 6597,
      "Й.": 6598,
      "▁кому": 6599,
      "▁тр": 6600,
      "▁большо": 6601,
      "іет": 6602,
      "▁alc": 6603,
      "EL": 6604,
      "имено": 6605,
      "▁норма": 6606,
      "вол": 6607,
      "▁мет": 6608,
      "▁силы": 6609,
      "ческим": 6610,
      "7—": 6611,
      "▁пост": 6612,
      "рил": 6613,
      "▁отца": 6614,
      "лучи": 6615,
      "▁\nD": 6616,
      "валъ": 6617,
      "▁3a": 6618,
      "ванием": 6619,
      "П,": 6620,
      "▁\n\n|": 6621,
      "ater": 6622,
      "▁иска": 6623,
      "лед": 6624,
      "чь,": 6625,
      "лови": 6626,
      "▁материа": 6627,
      "я;": 6628,
      "▁образом": 6629,
      "пара": 6630,
      "isc": 6631,
      "зывать": 6632,
      "▁хи": 6633,
      "слѣ": 6634,
      "Со": 6635,
      "пить": 6636,
      "▁нами": 6637,
      "▁обу": 6638,
      "▁Лит": 6639,
      "der": 6640,
      "льныхъ": 6641,
      "▁раг": 6642,
      "▁\nзи": 6643,
      "▁21.": 6644,
      "ranch": 6645,
      "▁квар": 6646,
      "▁Канце": 6647,
      "▁Бог": 6648,
      "▁cons": 6649,
      "9;": 6650,
      "нно": 6651,
      "лити": 6652,
      "▁\n\n\nс": 6653,
      "▁рчк.": 6654,
      "wo": 6655,
      "ванге": 6656,
      "Па": 6657,
      "▁го-": 6658,
      "О.": 6659,
      "мые": 6660,
      "юй": 6661,
      "▁nom": 6662,
      "▁Тур": 6663,
      "HC": 6664,
      "▁сш": 6665,
      "▁сни": 6666,
      "нам": 6667,
      "*^": 6668,
      "шки,": 6669,
      "▁подвер": 6670,
      "гази": 6671,
      "сгі": 6672,
      "рож": 6673,
      "▁профес": 6674,
      "і'": 6675,
      "▁образу": 6676,
      "рл": 6677,
      "▁закры": 6678,
      "▁мое": 6679,
      "▁наше": 6680,
      "▁стан": 6681,
      "сши": 6682,
      "▁в^": 6683,
      "▁\\у": 6684,
      "згу": 6685,
      "чество": 6686,
      "▁дав": 6687,
      "▁поку": 6688,
      "▁і.": 6689,
      "▁характери": 6690,
      "совъ": 6691,
      "IT": 6692,
      "нв": 6693,
      "милия": 6694,
      "н1е": 6695,
      "▁\n\n\n'": 6696,
      "таль": 6697,
      "▁\n\nO": 6698,
      "able": 6699,
      "▁повы": 6700,
      "пой": 6701,
      "▁информа": 6702,
      "вати,": 6703,
      "▁литов": 6704,
      "é,": 6705,
      "▁5)": 6706,
      "▁Григо": 6707,
      "▁ими": 6708,
      "▁Без": 6709,
      "▁дать": 6710,
      "▁начала": 6711,
      "рах": 6712,
      "ГА": 6713,
      "ния.": 6714,
      "▁совет": 6715,
      "▁использу": 6716,
      "▁уо": 6717,
      "▁послу": 6718,
      "▁\n\"": 6719,
      "Ли": 6720,
      "бЪ": 6721,
      "▁ес": 6722,
      "▁\nтель": 6723,
      "▁посред": 6724,
      "▁\n\n4.": 6725,
      "▁193": 6726,
      "arg": 6727,
      "bo": 6728,
      "▁нашего": 6729,
      "▁\n\\": 6730,
      "▁програм": 6731,
      "▁йе": 6732,
      "▁книги": 6733,
      "лга": 6734,
      "▁оши": 6735,
      "▁sf.": 6736,
      "▁«Р": 6737,
      "▁ca": 6738,
      "▁Pro": 6739,
      "▁своим": 6740,
      "станти": 6741,
      "▁сель": 6742,
      "▁Ай": 6743,
      "ora": 6744,
      "▁Кро": 6745,
      "▁вв": 6746,
      "емых": 6747,
      "act": 6748,
      "i;": 6749,
      "▁отве": 6750,
      "▁52": 6751,
      "леніи": 6752,
      "▁мыс": 6753,
      "ОБ": 6754,
      "рина": 6755,
      "тыхъ": 6756,
      "леи": 6757,
      "▁экономи": 6758,
      "що": 6759,
      "▁слѣ": 6760,
      "но:": 6761,
      "ба.": 6762,
      "дств": 6763,
      "▁револю": 6764,
      "жне": 6765,
      "ерен": 6766,
      "Ва": 6767,
      "▁ac": 6768,
      "▁я.": 6769,
      "нит": 6770,
      "ская,": 6771,
      "▁Евро": 6772,
      "люче": 6773,
      "▁Поль": 6774,
      "та-": 6775,
      "▁Слу": 6776,
      "▁3-": 6777,
      "лА": 6778,
      "▁предъ": 6779,
      "дали": 6780,
      "enn": 6781,
      "▁sur": 6782,
      "▁повер": 6783,
      "▁показыва": 6784,
      "хран": 6785,
      "▁53": 6786,
      "▁публи": 6787,
      "мана": 6788,
      "треть": 6789,
      "▁27.": 6790,
      "нск": 6791,
      "рам": 6792,
      "тег": 6793,
      "▁\nгра": 6794,
      ":.": 6795,
      "ницу": 6796,
      "!а": 6797,
      "дак": 6798,
      "▁расска": 6799,
      "▁обеспе": 6800,
      "▁тем,": 6801,
      "дцать": 6802,
      "cb": 6803,
      "жении": 6804,
      "навли": 6805,
      "▁ноября": 6806,
      "сЬ.": 6807,
      "6-": 6808,
      "тах": 6809,
      "▁\nкре": 6810,
      "цуз": 6811,
      "11,": 6812,
      "цу,": 6813,
      "газ": 6814,
      "Me": 6815,
      "шно": 6816,
      "▁обстоя": 6817,
      "▁op": 6818,
      "▁\n\n18": 6819,
      "лъ-": 6820,
      "атри": 6821,
      "дный": 6822,
      "▁\nкра": 6823,
      "▁(рис.": 6824,
      "ile": 6825,
      "ЕЛЬ": 6826,
      "кн": 6827,
      "ен.": 6828,
      "▁твор": 6829,
      "ИИ": 6830,
      "л*": 6831,
      "▁сразу": 6832,
      "ющихся": 6833,
      "▁ву": 6834,
      "▁учени": 6835,
      "▁отсут": 6836,
      "▁противъ": 6837,
      "▁\n\nReference:": 6838,
      "рх": 6839,
      "▁рі": 6840,
      "щую": 6841,
      "ём": 6842,
      "▁\n\n\n*": 6843,
      "ur.": 6844,
      "▁людей,": 6845,
      "цией": 6846,
      "▁sn.": 6847,
      "лета": 6848,
      "ш^": 6849,
      "іііі": 6850,
      "▁4-": 6851,
      "▁ут": 6852,
      "пё": 6853,
      "вора": 6854,
      "гер": 6855,
      "▁бого": 6856,
      "▁сновидѣ": 6857,
      "▁существу": 6858,
      "сф": 6859,
      "▁соу": 6860,
      "ert": 6861,
      "▁эк.": 6862,
      "ement": 6863,
      "ally": 6864,
      "▁станови": 6865,
      "▁офи": 6866,
      "дите": 6867,
      "▁пят": 6868,
      "▁аі": 6869,
      "▁л5": 6870,
      "Н,": 6871,
      "ваетъ": 6872,
      "▁ил": 6873,
      "су,": 6874,
      "ково": 6875,
      "▁освобо": 6876,
      "▁объек": 6877,
      "вп": 6878,
      "▁быстро": 6879,
      "▁sc": 6880,
      "зор": 6881,
      "▁рубле": 6882,
      "скольку": 6883,
      "рас": 6884,
      "▁(Т": 6885,
      "ев,": 6886,
      "вели": 6887,
      "ствовал": 6888,
      "▁\nин": 6889,
      "▁поста": 6890,
      "зр": 6891,
      "▁26.": 6892,
      "▁тое": 6893,
      "воч": 6894,
      "▁\nное": 6895,
      "▁тог": 6896,
      "▁181": 6897,
      "городи": 6898,
      "моу": 6899,
      "вшись": 6900,
      "▁филь": 6901,
      "▁горя": 6902,
      "тет": 6903,
      "кован": 6904,
      "▁запо": 6905,
      "▁самъ": 6906,
      "ОК": 6907,
      "шем": 6908,
      "стить": 6909,
      "▁Михай": 6910,
      "tem": 6911,
      "▁\n\nМа": 6912,
      "▁большой": 6913,
      "lich": 6914,
      "ые": 6915,
      "циа": 6916,
      "▁желез": 6917,
      "▁тради": 6918,
      "▁cor": 6919,
      "▁12,": 6920,
      "▁inter": 6921,
      "зг": 6922,
      "▁АЛ": 6923,
      "▁кур": 6924,
      "арь": 6925,
      "НЫЙ,": 6926,
      "▁указыва": 6927,
      "▁истории": 6928,
      "▁стран": 6929,
      "ваний": 6930,
      "▁опять": 6931,
      "▁интер": 6932,
      "▁своими": 6933,
      "▁прочи": 6934,
      "▁другу": 6935,
      "▁живот": 6936,
      "▁пого": 6937,
      "▁\nстр.": 6938,
      "да-": 6939,
      "ИМ": 6940,
      "ua": 6941,
      "яа": 6942,
      "мое": 6943,
      "▁виду": 6944,
      "ЕСТ": 6945,
      "лс": 6946,
      "▁Сентября": 6947,
      "▁Y": 6948,
      "▁физи": 6949,
      "Ие": 6950,
      "▁кь": 6951,
      ";,": 6952,
      "сті": 6953,
      "▁199": 6954,
      "▁бри": 6955,
      "▁\nотъ": 6956,
      "ЕД": 6957,
      "ол.": 6958,
      "так": 6959,
      "ческом": 6960,
      "▁75": 6961,
      "арфи": 6962,
      "мар": 6963,
      "гиз": 6964,
      "▁28.": 6965,
      "▁покры": 6966,
      "няго": 6967,
      "OC": 6968,
      "нии,": 6969,
      "▁очере": 6970,
      "ál": 6971,
      "ффи": 6972,
      "▁суда": 6973,
      "▁жало": 6974,
      "▁Октября": 6975,
      "вшей": 6976,
      "▁\n\nсо": 6977,
      "ііоп": 6978,
      "▁стали": 6979,
      "к^": 6980,
      "едо": 6981,
      "тная": 6982,
      "шке": 6983,
      "ющими": 6984,
      "▁дѣла": 6985,
      "ible": 6986,
      "▁Академи": 6987,
      "▁ака": 6988,
      "▁ниже": 6989,
      "тью": 6990,
      "▁удо": 6991,
      "вец": 6992,
      "ген": 6993,
      "ппа": 6994,
      "▁поте": 6995,
      "нюю": 6996,
      "▁система": 6997,
      "сии": 6998,
      "▁компа": 6999,
      "▁будто": 7000,
      "1(": 7001,
      "яо": 7002,
      "▁\nщи": 7003,
      "so": 7004,
      "ρο": 7005,
      "▁~": 7006,
      "толи": 7007,
      "тов.": 7008,
      "▁59": 7009,
      "довлет": 7010,
      "нные": 7011,
      "▁АА": 7012,
      "анна": 7013,
      "▁\\У": 7014,
      "ние,": 7015,
      "▁основан": 7016,
      "▁\nбез": 7017,
      "арфиэ": 7018,
      "▁опа": 7019,
      "там": 7020,
      "▁недоста": 7021,
      "▁СССР,": 7022,
      "ками,": 7023,
      "▁на¬": 7024,
      "▁солн": 7025,
      "▁іт": 7026,
      "lic": 7027,
      "блен": 7028,
      "▁оЬ": 7029,
      "▁при¬": 7030,
      "▁нимъ": 7031,
      "▁Ком": 7032,
      "▁времен": 7033,
      "▁муч.": 7034,
      "▁путе": 7035,
      "▁\n\n\n^": 7036,
      "▁A.": 7037,
      "га-": 7038,
      "bix": 7039,
      "▁каз": 7040,
      "▁\n\nВа": 7041,
      "Ma": 7042,
      "▁досто": 7043,
      "мед": 7044,
      "▁пози": 7045,
      "іог": 7046,
      "▁que": 7047,
      "▁обычно": 7048,
      "одо": 7049,
      "▁тамъ": 7050,
      "▁котором": 7051,
      "▁куда": 7052,
      "1Ю": 7053,
      "b.": 7054,
      "АК": 7055,
      "іа,": 7056,
      "▁определен": 7057,
      "ЕЕ": 7058,
      "евъ": 7059,
      "▁\nсы": 7060,
      ")а": 7061,
      "▁\nфи": 7062,
      "раи": 7063,
      "▁коне": 7064,
      "▁194": 7065,
      "чныхъ": 7066,
      "ary": 7067,
      "▁Глав": 7068,
      "▁рис.": 7069,
      "ven": 7070,
      "▁י": 7071,
      "▁pas": 7072,
      "Ji": 7073,
      "ча,": 7074,
      "▁яй": 7075,
      "oB": 7076,
      "шЬ": 7077,
      "Фа": 7078,
      "Ъу": 7079,
      "хну": 7080,
      "жени": 7081,
      "ванъ": 7082,
      "▁воск": 7083,
      "▁||": 7084,
      "AC": 7085,
      "нихъ": 7086,
      "пез": 7087,
      "▁электро": 7088,
      "▁намъ": 7089,
      "чает": 7090,
      "iii": 7091,
      "▁посы": 7092,
      "бі": 7093,
      "н1я": 7094,
      "льную": 7095,
      "▁\n\n\nNo": 7096,
      "▁пашенного": 7097,
      "▁Да,": 7098,
      "▁спро": 7099,
      "ствъ": 7100,
      "▁дья": 7101,
      "▁\n\n\n=": 7102,
      "▁Сан": 7103,
      "▁солда": 7104,
      "▁дене": 7105,
      "▁зда": 7106,
      "торая": 7107,
      "bie": 7108,
      "▁^и": 7109,
      "шя,": 7110,
      "▁полага": 7111,
      "▁чрез": 7112,
      "ší": 7113,
      "я^": 7114,
      "ения.": 7115,
      "▁непри": 7116,
      "▁пол,": 7117,
      "▁его.": 7118,
      "▁комплек": 7119,
      "▁Sch": 7120,
      "лением": 7121,
      "▁ел": 7122,
      "oa": 7123,
      "▁all": 7124,
      "ere;": 7125,
      "▁\nre": 7126,
      "▁оз": 7127,
      "▁силу": 7128,
      "▁связан": 7129,
      "▁Общества": 7130,
      "ді": 7131,
      "ιν": 7132,
      "вел": 7133,
      "нов,": 7134,
      "▁глубо": 7135,
      "тона": 7136,
      "▁\n\n\nF": 7137,
      "мор": 7138,
      "▁met": 7139,
      "▁ть": 7140,
      "нс": 7141,
      "ума": 7142,
      "щё": 7143,
      "мии": 7144,
      "▁точно": 7145,
      "▁\nслу": 7146,
      "▁spec": 7147,
      "йи": 7148,
      "▁присут": 7149,
      "ти-": 7150,
      "гип": 7151,
      "1к": 7152,
      "▁\nX": 7153,
      "ута": 7154,
      "кови": 7155,
      "▁деп": 7156,
      "еге": 7157,
      "▁отде": 7158,
      "▁реак": 7159,
      "Са": 7160,
      "роди": 7161,
      "▁позна": 7162,
      "▁специаль": 7163,
      "cx": 7164,
      "▁ut": 7165,
      "▁дни": 7166,
      "▁85": 7167,
      "псе": 7168,
      "▁погре": 7169,
      "сона": 7170,
      "6—": 7171,
      "с¬": 7172,
      "рования": 7173,
      "▁\n\n\nН": 7174,
      "▁Доб": 7175,
      "▁сг": 7176,
      "пут": 7177,
      "▁люб": 7178,
      "нте": 7179,
      "о^": 7180,
      "▁демо": 7181,
      "▁(ВАК.": 7182,
      "ковы": 7183,
      "7-": 7184,
      "▁ев": 7185,
      "пат": 7186,
      "▁о-": 7187,
      "валось": 7188,
      "жай": 7189,
      "▁покой": 7190,
      "▁журна": 7191,
      "льным": 7192,
      "льнаго": 7193,
      "егз": 7194,
      "▁\nНе": 7195,
      "▁сб": 7196,
      "▁идет": 7197,
      "ческую": 7198,
      "1Л": 7199,
      "▁25.": 7200,
      "йу": 7201,
      "ина": 7202,
      "щи,": 7203,
      "▁\n>": 7204,
      "ific": 7205,
      "і/": 7206,
      "лений": 7207,
      "▁женщина": 7208,
      "▁под-": 7209,
      "▁\nэто": 7210,
      "зсі": 7211,
      "тал": 7212,
      "▁\nбра": 7213,
      "ное.": 7214,
      "emark": 7215,
      "▁неб": 7216,
      "ars": 7217,
      "▁180": 7218,
      "▁\nце": 7219,
      "ственные": 7220,
      "ко.": 7221,
      "▁женщины": 7222,
      "ссе": 7223,
      "свя": 7224,
      "ю;": 7225,
      "▁\nV": 7226,
      "▁апо": 7227,
      "▁этно": 7228,
      "▁cl": 7229,
      "▁es": 7230,
      "іЛ": 7231,
      "▁\nря": 7232,
      "ль¬": 7233,
      "▁напо": 7234,
      "▁Аг": 7235,
      "▁ІІ": 7236,
      "▁что-то": 7237,
      "▁Бога": 7238,
      "сы,": 7239,
      "▁влия": 7240,
      "леп": 7241,
      "▁довольно": 7242,
      "ру.": 7243,
      "гаі": 7244,
      "ton": 7245,
      "тил": 7246,
      "jio": 7247,
      "▁бѣ": 7248,
      "ance": 7249,
      "617": 7250,
      "▁оси": 7251,
      "тиз": 7252,
      "▁разре": 7253,
      "ИВА": 7254,
      "теа": 7255,
      "▁22.": 7256,
      "▁sup": 7257,
      "мь,": 7258,
      "▁Кри": 7259,
      "мин": 7260,
      "▁Бер": 7261,
      "▁(Fig.": 7262,
      "▁Кре": 7263,
      "eng": 7264,
      "1—": 7265,
      "Да": 7266,
      "▁==\n": 7267,
      "▁трех": 7268,
      "дне": 7269,
      "▁дис": 7270,
      "▁ау": 7271,
      "1н": 7272,
      "▁\nар": 7273,
      "▁\n\n\n‚": 7274,
      "чи.": 7275,
      "▁q": 7276,
      "in,": 7277,
      "-201": 7278,
      "»;": 7279,
      "▁снова": 7280,
      "▁95": 7281,
      "От": 7282,
      "це,": 7283,
      "▁\nE": 7284,
      "▁ам": 7285,
      "дка": 7286,
      "рм": 7287,
      "▁вида": 7288,
      "▁\n\n\nГО": 7289,
      "▁чо": 7290,
      "тоу": 7291,
      "uld": 7292,
      "тель,": 7293,
      "▁ho": 7294,
      "снов": 7295,
      "лец": 7296,
      "▁росси": 7297,
      "-та": 7298,
      "ИЗ": 7299,
      "тг": 7300,
      "▁\nR": 7301,
      "MB": 7302,
      "вЬ": 7303,
      "▁прибли": 7304,
      "ется.": 7305,
      "▁Зем": 7306,
      "▁\nГо": 7307,
      "▁\n,": 7308,
      "▁следует": 7309,
      "торой": 7310,
      "▁прибы": 7311,
      "ленія": 7312,
      "use": 7313,
      "▁раза": 7314,
      "^г": 7315,
      "вй": 7316,
      "▁сов.": 7317,
      "ность.": 7318,
      "▁пі": 7319,
      "▁сбо": 7320,
      "нологи": 7321,
      "M.": 7322,
      "ИК": 7323,
      "▁панъ": 7324,
      "▁Андре": 7325,
      "тё": 7326,
      "▁уви": 7327,
      "щь": 7328,
      "юсь,": 7329,
      "скихъ,": 7330,
      "emarks:": 7331,
      "цио": 7332,
      "▁индивидуаль": 7333,
      "▁течение": 7334,
      "▁стара": 7335,
      "▁Петро": 7336,
      "вос": 7337,
      "▁Нет,": 7338,
      "▁77": 7339,
      "▁так,": 7340,
      "▁камен": 7341,
      "▁юр.": 7342,
      "Б.": 7343,
      "шь.": 7344,
      "▁самого": 7345,
      "▁впол": 7346,
      "▁посо": 7347,
      "▁(И": 7348,
      "onn": 7349,
      "судар": 7350,
      "▁ля": 7351,
      "цы.": 7352,
      "les": 7353,
      "▁ран": 7354,
      "t>": 7355,
      "ету": 7356,
      "▁радо": 7357,
      "▁300": 7358,
      "▁русской": 7359,
      "ющую": 7360,
      "▁После": 7361,
      "▁Тогда": 7362,
      "дд": 7363,
      "▁(5": 7364,
      "fc": 7365,
      "яъ": 7366,
      "▁несо": 7367,
      "▁дело": 7368,
      "▁\n\nВы": 7369,
      "▁применения": 7370,
      "валась": 7371,
      "вит": 7372,
      "▁брат": 7373,
      "▁нашей": 7374,
      "3:": 7375,
      "имуще": 7376,
      "▁\n\n\n_": 7377,
      "щихся": 7378,
      "▁האָ": 7379,
      "чества": 7380,
      "▁фра": 7381,
      "▁hab": 7382,
      "▁паралле": 7383,
      "▁Лменный,": 7384,
      "щя": 7385,
      "леко": 7386,
      "▁техни": 7387,
      "юсь": 7388,
      "ША": 7389,
      "▁посл": 7390,
      "нина": 7391,
      "▁кр": 7392,
      "▁лож": 7393,
      "ит.": 7394,
      "піі": 7395,
      "▁Высочай": 7396,
      "МА": 7397,
      "нди": 7398,
      "▁иди": 7399,
      "е1": 7400,
      "▁этим": 7401,
      "▁относительно": 7402,
      "▁помфщи": 7403,
      "▁\nqu": 7404,
      "▁наза": 7405,
      "▁удар": 7406,
      "фика": 7407,
      "▁поросло": 7408,
      "▁в:": 7409,
      "сок": 7410,
      "▁198": 7411,
      "▁таких": 7412,
      "рек": 7413,
      "ега": 7414,
      "нф": 7415,
      "нося": 7416,
      "▁сосе": 7417,
      "▁эпо": 7418,
      "▁\nТа": 7419,
      "ня.": 7420,
      "▁стал": 7421,
      "▁\nПро": 7422,
      "ДА": 7423,
      "ногда": 7424,
      "▁Ак": 7425,
      "▁прил.": 7426,
      "▁СЬ": 7427,
      "▁(въ": 7428,
      "▁маги": 7429,
      "сия": 7430,
      "▁tra": 7431,
      "▁(Л": 7432,
      "шся": 7433,
      "ком,": 7434,
      "до,": 7435,
      "пе.": 7436,
      "▁вари": 7437,
      "▁мужа": 7438,
      "ther": 7439,
      "▁раство": 7440,
      "▁Энгель": 7441,
      "▁нему": 7442,
      "▁связа": 7443,
      "ée": 7444,
      "▁OT": 7445,
      "▁таким": 7446,
      "▁количество": 7447,
      "Д.": 7448,
      "яр": 7449,
      "▁197": 7450,
      "чы": 7451,
      "▁2:": 7452,
      "Ра": 7453,
      "▁меха": 7454,
      "ox": 7455,
      "στ": 7456,
      "▁МЭК": 7457,
      "▁«И": 7458,
      "тую": 7459,
      "▁СТ": 7460,
      "▁цвет": 7461,
      "▁двумя": 7462,
      "Ша": 7463,
      "▁убе": 7464,
      "ella": 7465,
      "▁внеш": 7466,
      "зки": 7467,
      "н'Ь": 7468,
      "▁\n$": 7469,
      "▁нов": 7470,
      "▁работу": 7471,
      "▁чисто": 7472,
      "ши.": 7473,
      "ск,": 7474,
      "іа.": 7475,
      "чв": 7476,
      "ета,": 7477,
      "ПА": 7478,
      "▁\n\n\nг": 7479,
      "ia.": 7480,
      "сной": 7481,
      "жности": 7482,
      "же-": 7483,
      "▁או": 7484,
      "▁ата": 7485,
      "ИЛ": 7486,
      "ця": 7487,
      "▁Дру": 7488,
      "▁жерт": 7489,
      "▁Ѳ": 7490,
      "▁СО": 7491,
      "▁реали": 7492,
      "|.": 7493,
      "оі": 7494,
      "▁кли": 7495,
      "▁Ву": 7496,
      "▁54": 7497,
      "▁11,": 7498,
      "▁А,": 7499,
      "^т": 7500,
      "▁\nтре": 7501,
      "▁скры": 7502,
      "▁этотъ": 7503,
      "▁шесть": 7504,
      "▁кара": 7505,
      "лыхъ": 7506,
      "▁\n\n\n10": 7507,
      "ystem": 7508,
      "▁(17": 7509,
      "мон": 7510,
      "▁арти": 7511,
      "▁достаточно": 7512,
      "▁книга": 7513,
      "▁еа": 7514,
      "▁мо-": 7515,
      "oph": 7516,
      "▁сторону": 7517,
      "▁лф": 7518,
      "▁масон": 7519,
      "▁2;": 7520,
      "ёние": 7521,
      "▁подтвер": 7522,
      "g.": 7523,
      "i^": 7524,
      "▁уез": 7525,
      "▁оба": 7526,
      "рые": 7527,
      "ula": 7528,
      "▁слова:": 7529,
      "▁взы": 7530,
      "▁вспо": 7531,
      "▁экспе": 7532,
      "▁про¬": 7533,
      "▁\n187": 7534,
      "▁сделать": 7535,
      "▁app": 7536,
      "'б": 7537,
      "▁su": 7538,
      "anc": 7539,
      "▁res": 7540,
      "▁Эти": 7541,
      "▁являются": 7542,
      "ществ": 7543,
      "▁преду": 7544,
      "▁\nболь": 7545,
      "кЬ": 7546,
      "лм": 7547,
      "▁заво": 7548,
      "▁доба": 7549,
      "▁65": 7550,
      "▁лит.": 7551,
      "▁худ.": 7552,
      "▁ит": 7553,
      "▁помощью": 7554,
      "▁\nшо": 7555,
      "леше": 7556,
      "▁рус.": 7557,
      "▁спрашивает": 7558,
      "LA": 7559,
      "ХЪ": 7560,
      "▁воспо": 7561,
      "▁56": 7562,
      "лы.": 7563,
      "▁служа": 7564,
      "▁митро": 7565,
      "▁такие": 7566,
      "ШЕ": 7567,
      "▁\n\nза": 7568,
      "on,": 7569,
      "тон": 7570,
      "▁Изд.": 7571,
      "▁награ": 7572,
      "▁58": 7573,
      "▁ргі": 7574,
      "▁самое": 7575,
      "▁23.": 7576,
      "фъ": 7577,
      "кин": 7578,
      "je": 7579,
      "стн": 7580,
      "▁Бори": 7581,
      "▁время,": 7582,
      "▁означа": 7583,
      "▁\n19": 7584,
      ">,": 7585,
      "ме,": 7586,
      "▁501": 7587,
      "1П": 7588,
      "“.": 7589,
      "ія,": 7590,
      "▁голову": 7591,
      "▁объявленный": 7592,
      "ve": 7593,
      "т:": 7594,
      "▁взаимо": 7595,
      "кв": 7596,
      "▁совс": 7597,
      "▁ка-": 7598,
      "▁разу": 7599,
      "несен": 7600,
      "ОТ.)": 7601,
      "▁was": 7602,
      "▁gr": 7603,
      "на;": 7604,
      "гото": 7605,
      "гая": 7606,
      "ческими": 7607,
      "ave": 7608,
      "лива": 7609,
      "▁перево": 7610,
      "▁строи": 7611,
      "зка": 7612,
      "▁фон": 7613,
      "Ae": 7614,
      "тап": 7615,
      "▁самой": 7616,
      "▁относя": 7617,
      "▁корпу": 7618,
      "▁(Г": 7619,
      "▁60617": 7620,
      "ענ": 7621,
      "▁\nбе": 7622,
      "ешься": 7623,
      "▁\nт.": 7624,
      "igit": 7625,
      "▁губ.,": 7626,
      "круг": 7627,
      "ными,": 7628,
      "▁мысли": 7629,
      "тиру": 7630,
      "▁Пол": 7631,
      "▁двер": 7632,
      "▁пошли": 7633,
      "щемъ": 7634,
      "▁паль": 7635,
      "ск1й": 7636,
      "▁духо": 7637,
      "—2": 7638,
      "в1е": 7639,
      "▁устро": 7640,
      "▁говорить": 7641,
      "▁распростран": 7642,
      "▁Доро": 7643,
      "?»": 7644,
      "▁аіі": 7645,
      "виа": 7646,
      "▁рели": 7647,
      "▁II,": 7648,
      "▁\n\n\nS": 7649,
      "ny": 7650,
      "▁\nВа": 7651,
      "-,": 7652,
      "ыя": 7653,
      "▁кром": 7654,
      "▁\nМи": 7655,
      "I.": 7656,
      "▁марта": 7657,
      "▁\n\nДля": 7658,
      "лло": 7659,
      "▁іу": 7660,
      "-3": 7661,
      "ifl": 7662,
      "▁\nство": 7663,
      "дили": 7664,
      "пи-": 7665,
      "'я": 7666,
      "▁Пр": 7667,
      "▁мальчи": 7668,
      "▁величи": 7669,
      "спор": 7670,
      "▁hh": 7671,
      "▁\nства": 7672,
      "▁з.": 7673,
      "▁библи": 7674,
      "▁свойства": 7675,
      "▁неко": 7676,
      "rop": 7677,
      "ника,": 7678,
      "▁Там": 7679,
      "▁кино": 7680,
      "▁which": 7681,
      "-5": 7682,
      "enc": 7683,
      "▁пре-": 7684,
      "—4": 7685,
      "▁власти": 7686,
      "▁вез": 7687,
      "▁сочи": 7688,
      "▁центра": 7689,
      "жные": 7690,
      "▁Зо": 7691,
      "▁существо": 7692,
      "ni": 7693,
      "топ": 7694,
      "▁подда": 7695,
      "▁дикого": 7696,
      "▁забы": 7697,
      "▁приводи": 7698,
      "▁\n\n16": 7699,
      "ome": 7700,
      "тные": 7701,
      "▁внутри": 7702,
      "▁возможность": 7703,
      "▁29.": 7704,
      "▁př": 7705,
      "▁Екатери": 7706,
      "▁век": 7707,
      "д-Ь": 7708,
      "▁краси": 7709,
      "▁Виль": 7710,
      "▁наблюда": 7711,
      "▁Кур": 7712,
      "▁\n\n\n0": 7713,
      "дован": 7714,
      "де-": 7715,
      "ЛЯ": 7716,
      "▁оказыва": 7717,
      "▁чети": 7718,
      "▁заму": 7719,
      "▁Росс": 7720,
      "ze": 7721,
      "▁ם": 7722,
      "вало": 7723,
      "пози": 7724,
      "▁суть": 7725,
      "▁\n\n\nP": 7726,
      "▁непре": 7727,
      "▁приро": 7728,
      "ста.": 7729,
      "новре": 7730,
      "▁анти": 7731,
      "in.": 7732,
      "емое": 7733,
      "ТУ": 7734,
      "вшего": 7735,
      "וו": 7736,
      "сный": 7737,
      "лем": 7738,
      "ail": 7739,
      "▁бъ": 7740,
      "'&": 7741,
      "-4": 7742,
      "▁мини": 7743,
      "сни": 7744,
      "ath": 7745,
      "▁образом,": 7746,
      "ερ": 7747,
      "He": 7748,
      "та;": 7749,
      "▁Іі": 7750,
      "▁разме": 7751,
      "\n\n\n\n\n\n\n\n\n\n\n\n\n\n\n\n\n\n\n\n\n\n\n\n\n\n\n\n\n\n\n\n\n\n\n\n\n\n\n\n\n\n\n\n\n\n\n\n\n\n\n\n\n\n\n\n\n\n\n\n\n\n\n\n\n\n\n\n\n\n\n\n\n\n\n\n\n\n\n\n\n\n\n\n\n\n\n\n\n\n\n\n\n\n\n\n\n\n\n\n\n\n\n\n\n\n\n\n\n\n\n\n\n\n\n\n\n\n\n\n\n\n\n\n\n\n\n\n": 7752,
      "ело": 7753,
      "ете,": 7754,
      "▁отправ": 7755,
      "▁\nчтобы": 7756,
      "▁например,": 7757,
      "▁жереб": 7758,
      "▁образомъ": 7759,
      "▁ока": 7760,
      "▁свадь": 7761,
      "▁και": 7762,
      "добно": 7763,
      "▁ero": 7764,
      "▁теат": 7765,
      "мечания": 7766,
      "деть": 7767,
      "чети": 7768,
      "▁\n\n[": 7769,
      "▁ката": 7770,
      "▁\n\n\nГОСТ": 7771,
      "▁о^": 7772,
      "тельность": 7773,
      "▁ряд": 7774,
      "▁помощи": 7775,
      "бом": 7776,
      "▁\n\nп": 7777,
      "нера": 7778,
      "▁йа": 7779,
      "ри.": 7780,
      "▁ou": 7781,
      "▁одни": 7782,
      "▁\nщ": 7783,
      "inal": 7784,
      "▁низ": 7785,
      "▁честь": 7786,
      "бь": 7787,
      "лку": 7788,
      "▁уег": 7789,
      "▁(ре": 7790,
      "▁е1": 7791,
      "▁Генера": 7792,
      "емЪ": 7793,
      "▁соверша": 7794,
      "ko": 7795,
      "▁\nска": 7796,
      "▁найти": 7797,
      "зяй": 7798,
      "ходят": 7799,
      "иь": 7800,
      "▁\nскаго": 7801,
      "▁рой": 7802,
      "▁Ивана": 7803,
      "-К": 7804,
      "Л,": 7805,
      "▁Спа": 7806,
      "дови": 7807,
      "▁АВ": 7808,
      "▁функций": 7809,
      "ных,": 7810,
      "тво": 7811,
      "тою": 7812,
      "ша.": 7813,
      "кл": 7814,
      "чна": 7815,
      "▁€": 7816,
      "▁пры": 7817,
      "iel": 7818,
      "▁(19": 7819,
      "▁в-Ь": 7820,
      "кя": 7821,
      "▁Шу": 7822,
      "▁\nци": 7823,
      "исЬ": 7824,
      "▁Ноября": 7825,
      "чную": 7826,
      "▁\n\n\nХ": 7827,
      "tom": 7828,
      "▁Яро": 7829,
      "paB": 7830,
      "НЕ": 7831,
      "▁прим": 7832,
      "▁моей": 7833,
      "▁треть": 7834,
      "▁уси": 7835,
      "▁fil": 7836,
      "AO": 7837,
      "ých": 7838,
      "говари": 7839,
      "▁уравнен": 7840,
      "сали": 7841,
      "▁выража": 7842,
      "br": 7843,
      "▁матер": 7844,
      "idae,": 7845,
      "2:": 7846,
      "ice": 7847,
      "ing,": 7848,
      "-—": 7849,
      "(^": 7850,
      "▁конца": 7851,
      "▁зависимо": 7852,
      "▁иначе": 7853,
      "▁оі": 7854,
      "▁зр": 7855,
      "atio": 7856,
      "гн": 7857,
      "лению": 7858,
      "▁чрезъ": 7859,
      "(і": 7860,
      "▁уоп": 7861,
      "цей": 7862,
      "▁Восто": 7863,
      "co": 7864,
      "стъ,": 7865,
      "αρ": 7866,
      "ще,": 7867,
      "▁\nтолько": 7868,
      "дарь": 7869,
      "▁(стр.": 7870,
      "▁Ph": 7871,
      "▁\nкон": 7872,
      "х)": 7873,
      "мы.": 7874,
      "дят": 7875,
      "е^": 7876,
      "ЛАВА": 7877,
      "▁\n\n\nТоже.": 7878,
      "вт": 7879,
      "риа": 7880,
      "личие": 7881,
      "?)": 7882,
      "▁эффек": 7883,
      "▁Христо": 7884,
      "чеб": 7885,
      "▁преда": 7886,
      "▁суд": 7887,
      "ique": 7888,
      "▁ѵі": 7889,
      "▁zu": 7890,
      "εν": 7891,
      "▁дро": 7892,
      "ise": 7893,
      "▁\n\nRemarks:": 7894,
      "▁дохо": 7895,
      "кля": 7896,
      "▁постанов": 7897,
      "етра": 7898,
      "ііи": 7899,
      "пе-": 7900,
      "суаль": 7901,
      "Я,": 7902,
      "▁вм": 7903,
      "чик": 7904,
      "▁сно": 7905,
      "▁pre": 7906,
      "йя": 7907,
      "▁утра": 7908,
      "▁\n\n\n\n—": 7909,
      "ць,": 7910,
      "▁законо": 7911,
      "ЧЕСК": 7912,
      "дия": 7913,
      "лись,": 7914,
      "и1": 7915,
      "▁появи": 7916,
      "te,": 7917,
      "▁мужчи": 7918,
      "▁коль": 7919,
      "▁получен": 7920,
      "▁\n\nМо": 7921,
      "▁расши": 7922,
      "▁\n\n\nт": 7923,
      "▁попы": 7924,
      "▁изд.": 7925,
      "▁никто": 7926,
      "—1": 7927,
      "▁Геор": 7928,
      "▁v.a.": 7929,
      "рование": 7930,
      "▁(І": 7931,
      "град": 7932,
      "▁пен": 7933,
      "▁иро": 7934,
      "▁магази": 7935,
      "▁пути": 7936,
      "▁дня.": 7937,
      "жного": 7938,
      "▁ня": 7939,
      "риз": 7940,
      "▁Сла": 7941,
      "▁\n\n\nПо": 7942,
      "уп": 7943,
      "▁бь": 7944,
      "»).": 7945,
      "У,": 7946,
      "никовъ": 7947,
      "▁лав": 7948,
      "▁спор": 7949,
      "▁эксп": 7950,
      "лив": 7951,
      "▁палини": 7952,
      "▁cont": 7953,
      "▁РА": 7954,
      "▁\n\n19": 7955,
      "ново": 7956,
      "▁котораго": 7957,
      "▁2а": 7958,
      "▁новый": 7959,
      "▁августа": 7960,
      "▁психо": 7961,
      "ОЙ": 7962,
      "▁толко": 7963,
      "жи,": 7964,
      "▁па-": 7965,
      "▁ins": 7966,
      "ника.": 7967,
      "▁еъ": 7968,
      "▁голов": 7969,
      "▁земель": 7970,
      "▁X.": 7971,
      "сб": 7972,
      "▁ох": 7973,
      "▁общи": 7974,
      "ack": 7975,
      "u.": 7976,
      "йг": 7977,
      "▁рапа": 7978,
      "▁роль": 7979,
      "ides": 7980,
      "▁прямоуго": 7981,
      "нных": 7982,
      "шени": 7983,
      "юп": 7984,
      "▁собы": 7985,
      "hed": 7986,
      "▁сильно": 7987,
      "стей,": 7988,
      "печата": 7989,
      "именование": 7990,
      "<;": 7991,
      "пхъ": 7992,
      "тку": 7993,
      "у^": 7994,
      "шл": 7995,
      "▁невоз": 7996,
      "щать": 7997,
      "ложение": 7998,
      "▁в'Ь": 7999,
      "▁кораб": 8000,
      "▁Изъ": 8001,
      "▁универ": 8002,
      "дки": 8003,
      "тека": 8004,
      "▁прика": 8005,
      "▁(Рец.": 8006,
      "▁Ры": 8007,
      "▁распоря": 8008,
      "▁id": 8009,
      "▁Вол": 8010,
      "телей,": 8011,
      "?\n\n<|startoftext|>-": 8012,
      "li": 8013,
      "▁мнѣ": 8014,
      "нь.": 8015,
      "()": 8016,
      "сну": 8017,
      "▁\n\nт": 8018,
      "▁назна": 8019,
      "▁вед": 8020,
      "ления,": 8021,
      "ja": 8022,
      "▁ист.": 8023,
      "▁мъ": 8024,
      "туре": 8025,
      "никами": 8026,
      "]:": 8027,
      "▁пример": 8028,
      "▁семей": 8029,
      "іпі": 8030,
      "(;": 8031,
      "вери": 8032,
      "▁Петра": 8033,
      "▁\nод": 8034,
      "▁99": 8035,
      "жность": 8036,
      "1»": 8037,
      "▁\n\n\n«": 8038,
      "▁об-": 8039,
      "▁97": 8040,
      "▁промышлен": 8041,
      "ющаго": 8042,
      "▁добы": 8043,
      "▁изоб": 8044,
      "метри": 8045,
      "тельности": 8046,
      "▁хими": 8047,
      "▁\n\n3)": 8048,
      "гот": 8049,
      "▁пе-": 8050,
      "▁людя": 8051,
      "▁\n\n\nПри": 8052,
      "inn": 8053,
      "▁ску": 8054,
      "▁яс": 8055,
      "▁Бож": 8056,
      "▁опубликован": 8057,
      "си,": 8058,
      "▁мину": 8059,
      "ét": 8060,
      "▁Зд": 8061,
      "ви,": 8062,
      "pi": 8063,
      "зкіе": 8064,
      "▁миро": 8065,
      "СП": 8066,
      "гет": 8067,
      "ф.,": 8068,
      "нахъ": 8069,
      "18,": 8070,
      "▁детей": 8071,
      "▁Фо": 8072,
      "ied": 8073,
      "▁другими": 8074,
      "Че": 8075,
      "вз": 8076,
      "нику": 8077,
      "мъ;": 8078,
      "скій,": 8079,
      "нл": 8080,
      "▁\nG": 8081,
      "стной": 8082,
      "еодо": 8083,
      "мых": 8084,
      "▁пред-": 8085,
      "▁пунк": 8086,
      "biM": 8087,
      "▁упа": 8088,
      "▁«М": 8089,
      "мили": 8090,
      "▁реаль": 8091,
      "▁\n\n14": 8092,
      "jiH": 8093,
      "дами": 8094,
      "▁чшо": 8095,
      "—3": 8096,
      "ма-": 8097,
      "▁Ши": 8098,
      "емыхъ": 8099,
      "ственная": 8100,
      "де.": 8101,
      "inc": 8102,
      "жных": 8103,
      "жига": 8104,
      "▁oe,": 8105,
      "О,": 8106,
      "гге": 8107,
      "шеп": 8108,
      "гу.": 8109,
      "▁vel": 8110,
      "жка": 8111,
      "зы,": 8112,
      "▁\n\n\nна": 8113,
      "▁изЪ": 8114,
      "▁реги": 8115,
      "▁квадра": 8116,
      "▁\n\n/": 8117,
      "mo": 8118,
      "г.,": 8119,
      "▁Соб": 8120,
      "▁упомина": 8121,
      "▁наиболее": 8122,
      "еперь": 8123,
      "▁Han": 8124,
      "ври": 8125,
      "▁прида": 8126,
      "раздо": 8127,
      "▁genus:": 8128,
      "’,": 8129,
      "ваютъ": 8130,
      "мом": 8131,
      "хом": 8132,
      "сал": 8133,
      "ве-": 8134,
      "дз": 8135,
      "чъ,": 8136,
      "▁Прав": 8137,
      "▁6)": 8138,
      "▁Bo": 8139,
      "K)": 8140,
      "ера": 8141,
      "▁рай": 8142,
      "▁тому,": 8143,
      "▁некоторых": 8144,
      "▁вр": 8145,
      "▁удовлет": 8146,
      "нят": 8147,
      "SS": 8148,
      "ЗД": 8149,
      "▁выс": 8150,
      "▁за¬": 8151,
      "▁Кры": 8152,
      "мую": 8153,
      "▁nepe": 8154,
      "дю": 8155,
      "пят": 8156,
      "мяну": 8157,
      "—19": 8158,
      "лина": 8159,
      "сор": 8160,
      "служи": 8161,
      "▁аЬ": 8162,
      "▁Gra": 8163,
      "▁En": 8164,
      "▁alqd": 8165,
      "мерикан": 8166,
      "▁приказа": 8167,
      "▁\nСу": 8168,
      "▁бла": 8169,
      "чено": 8170,
      "▁trans": 8171,
      "1&": 8172,
      "u-": 8173,
      "дк": 8174,
      "ен,": 8175,
      "сий": 8176,
      "р.).": 8177,
      "▁разрабо": 8178,
      "▁оГ": 8179,
      "сторо": 8180,
      "цевъ": 8181,
      "▁\nРа": 8182,
      "▁им.": 8183,
      "▁разде": 8184,
      "▁\n\n\n\n\n\n\n\n\n\n\n\n\n\n\n\n\n\n\n": 8185,
      "▁dist": 8186,
      "▁Rec": 8187,
      "▁\nбыло": 8188,
      "§е": 8189,
      "епі": 8190,
      "іат": 8191,
      "▁языка": 8192,
      "▁що": 8193,
      "▁H.": 8194,
      "▁отношения": 8195,
      "—18": 8196,
      "▁184": 8197,
      "le,": 8198,
      "▁дивизи": 8199,
      "▁церковь": 8200,
      "▁село": 8201,
      "жь,": 8202,
      "лер": 8203,
      "рхив": 8204,
      "▁Быть": 8205,
      "лик": 8206,
      "▁кои": 8207,
      "▁записа": 8208,
      "егу": 8209,
      "▁\nная": 8210,
      "ork": 8211,
      "▁день,": 8212,
      "▁октября": 8213,
      "Bi": 8214,
      "ми-": 8215,
      "▁столь": 8216,
      "▁чинов": 8217,
      "▁неде": 8218,
      "▁значен": 8219,
      "чит": 8220,
      "row": 8221,
      "▁жо": 8222,
      "▁\nрабо": 8223,
      "III.": 8224,
      "▁непашенного": 8225,
      "▁прися": 8226,
      "▁Іп": 8227,
      "iae": 8228,
      "▁конце": 8229,
      "пыхъ": 8230,
      "йс": 8231,
      "▁потре": 8232,
      "дег": 8233,
      "жены": 8234,
      "▁мира": 8235,
      "▁14,": 8236,
      "если": 8237,
      "стье": 8238,
      "▁декабря": 8239,
      "сЬеп": 8240,
      "▁жалова": 8241,
      "▁сила": 8242,
      "чув": 8243,
      "?.": 8244,
      "■■": 8245,
      "/і": 8246,
      "фон": 8247,
      "▁посмо": 8248,
      "▁\n\nр": 8249,
      "▁д-Ь": 8250,
      "▁(No": 8251,
      "▁\nВъ": 8252,
      "▁\n\n10.": 8253,
      "дыду": 8254,
      "▁plus": 8255,
      "Ле": 8256,
      "▁\nвой": 8257,
      "▁Воло": 8258,
      "]^": 8259,
      "вб": 8260,
      "лют": 8261,
      "лога": 8262,
      "цовъ": 8263,
      "▁Чтобы": 8264,
      "▁услов": 8265,
      "▁поводу": 8266,
      "гъ,": 8267,
      "▁\nF": 8268,
      "Ko": 8269,
      "Пе": 8270,
      "ерез": 8271,
      "ньше": 8272,
      "▁заключа": 8273,
      "'а": 8274,
      "yio": 8275,
      "▁сіи": 8276,
      "▁Колле": 8277,
      "▁царя": 8278,
      "▁ХХ": 8279,
      "лександ": 8280,
      "ждении": 8281,
      "л»": 8282,
      "▁оц": 8283,
      "▁\n\nДо": 8284,
      "▁ежели": 8285,
      "fr": 8286,
      ":1": 8287,
      "▁PL": 8288,
      "▁имЪ": 8289,
      "▁\nобъ": 8290,
      "▁האָט": 8291,
      "▁\nнов": 8292,
      "▁ко¬": 8293,
      "▁значение": 8294,
      "1Й,": 8295,
      "ти;": 8296,
      "шель": 8297,
      "▁элементы": 8298,
      "ings": 8299,
      "▁отношен": 8300,
      "НН": 8301,
      "▁упра": 8302,
      "^*": 8303,
      "хх": 8304,
      "▁воду": 8305,
      "манд": 8306,
      "чек": 8307,
      "ара": 8308,
      "▁выде": 8309,
      "▁Так,": 8310,
      "товъ,": 8311,
      "▁томъ,": 8312,
      "▁да,": 8313,
      "▁брать": 8314,
      "чным": 8315,
      "▁cou": 8316,
      "ère": 8317,
      "▁особы": 8318,
      "лок": 8319,
      "▁нака": 8320,
      "ari": 8321,
      "сег": 8322,
      "▁od": 8323,
      "out": 8324,
      "ЫЙ": 8325,
      "чп": 8326,
      "ризо": 8327,
      "▁разно": 8328,
      "▁масла": 8329,
      "▁рука": 8330,
      "▁каждой": 8331,
      "Де": 8332,
      "шком": 8333,
      "▁\n&": 8334,
      "пий": 8335,
      "▁dif": 8336,
      "▁Коль": 8337,
      "a;": 8338,
      "▁ижъ": 8339,
      "▁уничто": 8340,
      "“,": 8341,
      "▁ост": 8342,
      "▁Ое": 8343,
      "▁яви": 8344,
      "Ло": 8345,
      "лую": 8346,
      "іё": 8347,
      "мъ:": 8348,
      "▁болѣ": 8349,
      "щает": 8350,
      "▁дворя": 8351,
      "orum": 8352,
      "енной": 8353,
      "▁экзем": 8354,
      "▁средства": 8355,
      "лов,": 8356,
      "▁\n\n11.": 8357,
      "▁иск.": 8358,
      "▁fr": 8359,
      "▁сынъ": 8360,
      "▁моги": 8361,
      "▁\n\nпри": 8362,
      "▁вода": 8363,
      "вершен": 8364,
      "▁(4": 8365,
      "▁\n»": 8366,
      "комъ,": 8367,
      "Ро": 8368,
      "душ": 8369,
      "▁Ля": 8370,
      "▁столько": 8371,
      "▁Тоже,": 8372,
      "▁reg": 8373,
      "▁\n15": 8374,
      "▁стоит": 8375,
      "▁облада": 8376,
      "мв": 8377,
      "▁дета": 8378,
      "-к": 8379,
      "лея": 8380,
      "▁труд": 8381,
      "▁\nков": 8382,
      "коне": 8383,
      "▁Ль": 8384,
      "▁Me": 8385,
      "▁\n\nЕсли": 8386,
      "ated": 8387,
      "▁моего": 8388,
      "скіе": 8389,
      "енье": 8390,
      "▁филосо": 8391,
      "▁1сЬ": 8392,
      "ле.": 8393,
      "шься": 8394,
      "PA": 8395,
      "▁57": 8396,
      "00,": 8397,
      "▁\n\n17": 8398,
      "HT": 8399,
      "3).": 8400,
      "гл.": 8401,
      "тили": 8402,
      "гіо": 8403,
      "▁безо": 8404,
      "1р": 8405,
      "X.": 8406,
      "па-": 8407,
      "vers": 8408,
      "▁\nсвя": 8409,
      "▁мною": 8410,
      "▁И,": 8411,
      "ing.": 8412,
      "▁γ": 8413,
      "▁).": 8414,
      "▁ато": 8415,
      "▁суб": 8416,
      "ions": 8417,
      "▁Le": 8418,
      "2).": 8419,
      "8-": 8420,
      "▁ent": 8421,
      "соп": 8422,
      "▁жел": 8423,
      "▁энер": 8424,
      "гіз": 8425,
      "ведение": 8426,
      "▁произо": 8427,
      "ьи": 8428,
      "יט": 8429,
      "ве.": 8430,
      "ength": 8431,
      "вшая": 8432,
      "нная": 8433,
      "▁Тру": 8434,
      "▁ЗА": 8435,
      "т.\n\n<|startoftext|>": 8436,
      "▁свидетель": 8437,
      "▁взять": 8438,
      "кб": 8439,
      "кр": 8440,
      "оборо": 8441,
      "▁сіі": 8442,
      "▁остав": 8443,
      "▁аре": 8444,
      "▁ve": 8445,
      "▁105": 8446,
      "ляются": 8447,
      "▁тон": 8448,
      "▁gra": 8449,
      "сова": 8450,
      "цер": 8451,
      "▁доб.": 8452,
      "▁нуж": 8453,
      "▁опредѣ": 8454,
      "^1": 8455,
      "^с": 8456,
      "нымъ,": 8457,
      "▁Бар": 8458,
      "▁Ев": 8459,
      "▁fac": 8460,
      "ціи": 8461,
      "▁\nстра": 8462,
      "гаи": 8463,
      "▁CB": 8464,
      "▁\nВы": 8465,
      "u,": 8466,
      "лое": 8467,
      "вова": 8468,
      "▁русских": 8469,
      "нча": 8470,
      "чении": 8471,
      "іГ": 8472,
      "▁ер": 8473,
      "▁\n\n5.": 8474,
      "▁Ал": 8475,
      "▁рос": 8476,
      "дри": 8477,
      "▁ot": 8478,
      "ЛЛ": 8479,
      "лости": 8480,
      "▁у.,": 8481,
      "▁\nЮ": 8482,
      "▁пру": 8483,
      "▁охо": 8484,
      "▁\n\n\n•": 8485,
      "▁проч.": 8486,
      "▁one": 8487,
      "τι": 8488,
      "ису": 8489,
      "нныхъ": 8490,
      "▁\nрод": 8491,
      "▁\n\nЧто": 8492,
      "▁дне": 8493,
      "▁\n\n\nЗа": 8494,
      "▁кв.": 8495,
      "▁г.)": 8496,
      "▁ist": 8497,
      "07.": 8498,
      "▁пь": 8499,
      "емся": 8500,
      "▁м'Ь": 8501,
      "▁\nпра": 8502,
      "чі": 8503,
      "новъ,": 8504,
      "▁пови": 8505,
      "▁моти": 8506,
      "▁подроб": 8507,
      "▁\n17": 8508,
      "▁княз": 8509,
      "▁tem": 8510,
      "ИЯ": 8511,
      "▁обви": 8512,
      "▁Ада": 8513,
      "▁om": 8514,
      "▁саж.": 8515,
      "9-": 8516,
      "ТЕ": 8517,
      "▁предмет": 8518,
      "▁Ю.": 8519,
      "-ное": 8520,
      "▁такая": 8521,
      "▁хро": 8522,
      "ites": 8523,
      "”,": 8524,
      "еня": 8525,
      "токъ": 8526,
      "▁большин": 8527,
      "▁дворов.": 8528,
      "Ме": 8529,
      "чне": 8530,
      "▁вста": 8531,
      "▁acc": 8532,
      "▁великого": 8533,
      "B.": 8534,
      "vel": 8535,
      "▁\nор": 8536,
      "▁еписко": 8537,
      "▁координа": 8538,
      "▁сход": 8539,
      "▁7-": 8540,
      "НУ": 8541,
      "дп": 8542,
      "яі": 8543,
      "▁Al": 8544,
      "▁де-": 8545,
      "cT": 8546,
      "▁,,": 8547,
      "▁болез": 8548,
      "▁докумен": 8549,
      "До": 8550,
      "т;": 8551,
      "▁товари": 8552,
      "▁Трои": 8553,
      "▁шлях": 8554,
      "ше-": 8555,
      "▁ѵо": 8556,
      "емого": 8557,
      "▁орде": 8558,
      "фз": 8559,
      "▁поне": 8560,
      "осле": 8561,
      "▁\n\nГо": 8562,
      "▁полит.": 8563,
      "▁января": 8564,
      "▁\n\nБо": 8565,
      "▁социол.": 8566,
      "Пет": 8567,
      "раль": 8568,
      "▁свобод": 8569,
      "Ф.": 8570,
      "ита": 8571,
      "нное": 8572,
      "ped": 8573,
      "бй": 8574,
      "ержа": 8575,
      "▁д^": 8576,
      "▁-i": 8577,
      "▁Нау": 8578,
      "Ьс": 8579,
      "льо": 8580,
      "▁ситуа": 8581,
      "▁иметь": 8582,
      "▁распростра": 8583,
      "рует": 8584,
      "▁182": 8585,
      "ств1е": 8586,
      "▁непосред": 8587,
      "ждо": 8588,
      "кров": 8589,
      "▁имуще": 8590,
      "▁15,": 8591,
      "▁группа": 8592,
      "▁il": 8593,
      "н!": 8594,
      "п.,": 8595,
      "ленно": 8596,
      "11е": 8597,
      "▁\nсла": 8598,
      "▁\nдѣ": 8599,
      "▁зай": 8600,
      "▁нъ": 8601,
      "това": 8602,
      "зации": 8603,
      "▁паро": 8604,
      "услов": 8605,
      "▁8)": 8606,
      "▁\nнаго": 8607,
      "▁одинако": 8608,
      "▁о/": 8609,
      "гас": 8610,
      "▁из-за": 8611,
      "▁нЪ": 8612,
      "▁\nпла": 8613,
      "atus": 8614,
      "▁менее": 8615,
      "▁вро": 8616,
      "▁this": 8617,
      "рку": 8618,
      "ський": 8619,
      "▁66": 8620,
      "ешся": 8621,
      "-fe": 8622,
      "мно": 8623,
      "▁гдѣ": 8624,
      "пущен": 8625,
      "вк": 8626,
      "г1": 8627,
      "гш": 8628,
      "ств,": 8629,
      "ει": 8630,
      "СЕ": 8631,
      "▁\n:": 8632,
      "ité": 8633,
      "▁собран": 8634,
      "▁какое": 8635,
      "▁Лени": 8636,
      "стый": 8637,
      "▁вместо": 8638,
      "Ъа": 8639,
      "▁отд.": 8640,
      "▁все,": 8641,
      "PE": 8642,
      "деп": 8643,
      "части": 8644,
      "▁плохо": 8645,
      "которые": 8646,
      "▁разру": 8647,
      "сюда": 8648,
      "▁принадле": 8649,
      "pt": 8650,
      "мся": 8651,
      "гает": 8652,
      "гут": 8653,
      "▁\n16": 8654,
      "▁испыта": 8655,
      "▁нена": 8656,
      "чемъ": 8657,
      "зить": 8658,
      "▁фигу": 8659,
      "разу": 8660,
      "іиг": 8661,
      "'Ь,": 8662,
      "йстви": 8663,
      "юд": 8664,
      "▁bb": 8665,
      "чѣ": 8666,
      "▁опи": 8667,
      "▁коми": 8668,
      "▁преж": 8669,
      "лыша": 8670,
      "▁\nde": 8671,
      "▁раск": 8672,
      "▁but": 8673,
      "ur,": 8674,
      "▁Ники": 8675,
      "▁обязан": 8676,
      "нили": 8677,
      "бка": 8678,
      "йй": 8679,
      "▁кото-": 8680,
      "▁Совета": 8681,
      "ální": 8682,
      "▁\nгла": 8683,
      "▁Бере": 8684,
      "xe": 8685,
      "лорус": 8686,
      "вания,": 8687,
      "▁Горь": 8688,
      "▁мон": 8689,
      "▁\n\n13": 8690,
      "пле": 8691,
      "▁\n\n\n■": 8692,
      "сви": 8693,
      "▁пли": 8694,
      "▁82": 8695,
      "])": 8696,
      "нского": 8697,
      "(.": 8698,
      "▁Мин": 8699,
      "▁Тре": 8700,
      "▁ниж": 8701,
      "let": 8702,
      "ДИ": 8703,
      "▁Канцеля": 8704,
      "▁Сем": 8705,
      "сеп": 8706,
      "▁длин": 8707,
      "▁умень": 8708,
      "▁Рим": 8709,
      "▁dem": 8710,
      "▁\nкакъ": 8711,
      "слав.": 8712,
      "▁язык": 8713,
      "▁кошо": 8714,
      "▁надда": 8715,
      "▁Һ": 8716,
      "▁оф": 8717,
      "ме-": 8718,
      "вой,": 8719,
      "ваніи": 8720,
      "rit": 8721,
      "▁стак.": 8722,
      "▁BO": 8723,
      "uͤ": 8724,
      "▁\n\n\\": 8725,
      "▁опе": 8726,
      "нии.": 8727,
      "дая": 8728,
      "▁крестьянъ": 8729,
      "▁ок.": 8730,
      "▁дней": 8731,
      "▁вол.,": 8732,
      "митета": 8733,
      "гина": 8734,
      "▁период": 8735,
      "ъ-": 8736,
      "▁мф": 8737,
      "▁имеют": 8738,
      "▁делать": 8739,
      "Ре": 8740,
      "иъ,": 8741,
      "ми:": 8742,
      "тельную": 8743,
      "▁\nА.": 8744,
      "ain": 8745,
      "геу": 8746,
      "тчи": 8747,
      "être": 8748,
      "Про": 8749,
      "ος": 8750,
      "чко": 8751,
      "▁або": 8752,
      "▁Гос": 8753,
      "▁пп": 8754,
      "публи": 8755,
      "▁предпри": 8756,
      "лючевые": 8757,
      "Фи": 8758,
      "іб": 8759,
      "▁\n\nСа": 8760,
      "EST.": 8761,
      "8).": 8762,
      "Ы,": 8763,
      "ным.": 8764,
      "▁py": 8765,
      "▁бое": 8766,
      "скій.": 8767,
      "т1": 8768,
      "▁\n\n\nр": 8769,
      "етъ.": 8770,
      "▁\n\n14.": 8771,
      "jib": 8772,
      "ѵег": 8773,
      "етро": 8774,
      "▁ter": 8775,
      "▁которому": 8776,
      "ute": 8777,
      "ЕЗ": 8778,
      "гд": 8779,
      "▁\nдей": 8780,
      "▁одномъ": 8781,
      "сыпа": 8782,
      "▁формы:": 8783,
      "ряду": 8784,
      "▁пъ": 8785,
      "▁пере-": 8786,
      "хй": 8787,
      "▁В.,": 8788,
      "▁слав": 8789,
      "▁лл.": 8790,
      "▁gro": 8791,
      "▁сказать": 8792,
      "!)": 8793,
      "вхъ": 8794,
      "гае": 8795,
      "▁хло": 8796,
      "довъ,": 8797,
      "▁своем": 8798,
      "*'": 8799,
      "▁Сс": 8800,
      "дев": 8801,
      "▁москов": 8802,
      "скъ": 8803,
      "▁преимуще": 8804,
      "ας": 8805,
      "▁стороны,": 8806,
      "телю": 8807,
      "▁ess": 8808,
      "▁запад": 8809,
      "▁кана": 8810,
      "▁казни": 8811,
      "▁немного": 8812,
      "▁постоянно": 8813,
      "бки": 8814,
      "камъ": 8815,
      "в.-": 8816,
      "иЬ": 8817,
      "▁ер.": 8818,
      "енный": 8819,
      "парта": 8820,
      "пусЬ": 8821,
      "▁\n\n\nза": 8822,
      "▁Q": 8823,
      "стори": 8824,
      "▁православ": 8825,
      "▁устра": 8826,
      "▁прид": 8827,
      "жа,": 8828,
      "телями": 8829,
      "▁соответству": 8830,
      "ka": 8831,
      "ѵу": 8832,
      "▁\nобра": 8833,
      "▁\n\n<": 8834,
      "▁\n\nc": 8835,
      "рева": 8836,
      "▁зака": 8837,
      "ict": 8838,
      ":2": 8839,
      "▁спас": 8840,
      "▁лі": 8841,
      "л.\n\n<|startoftext|>": 8842,
      "▁ист": 8843,
      "се.": 8844,
      "▁жу": 8845,
      "▁\nы": 8846,
      "▁Пла": 8847,
      "чи-": 8848,
      "▁Нача": 8849,
      "▁\n\nОТ": 8850,
      "СО": 8851,
      "▁прось": 8852,
      "▁яа": 8853,
      "геа": 8854,
      "▁Жа": 8855,
      "uro": 8856,
      "гб": 8857,
      "ёе": 8858,
      "вый,": 8859,
      "л;": 8860,
      "▁\n\n25": 8861,
      "▁люд": 8862,
      "▁Боль": 8863,
      "явление": 8864,
      "▁\nского": 8865,
      "▁оса": 8866,
      "▁ind": 8867,
      "▁Богороди": 8868,
      "▁мере": 8869,
      "▁«по": 8870,
      "▁сентября": 8871,
      "▁секре": 8872,
      "entral": 8873,
      "▁\nj": 8874,
      "народ": 8875,
      "▁цѣ": 8876,
      "▁супру": 8877,
      "ди-": 8878,
      "▁зво": 8879,
      "▁равен": 8880,
      "▁л\\": 8881,
      "▁напря": 8882,
      "▁быль": 8883,
      "▁табли": 8884,
      "ato": 8885,
      "ην": 8886,
      "кы": 8887,
      "рз": 8888,
      "ісі": 8889,
      "▁со¬": 8890,
      "▁доме": 8891,
      "▁^.": 8892,
      "▁\nОт": 8893,
      "ешь;": 8894,
      "▁молоды": 8895,
      "ATE": 8896,
      "▁\n\n\nT": 8897,
      "▁\n\nПа": 8898,
      "СР": 8899,
      "▁\n\nL": 8900,
      "▁тЬ": 8901,
      "▁Нико": 8902,
      "(е": 8903,
      "лам": 8904,
      "ведливо": 8905,
      "▁называется": 8906,
      "гы": 8907,
      "▁дя": 8908,
      "дий": 8909,
      ".\n\n<|startoftext|>На": 8910,
      "вшаго": 8911,
      "▁контро": 8912,
      "дил": 8913,
      "▁Ад": 8914,
      "ленный,": 8915,
      "▁теп": 8916,
      "▁прв": 8917,
      "УБ": 8918,
      "▁ר": 8919,
      "тех": 8920,
      "▁(е": 8921,
      "▁pla": 8922,
      "ere.": 8923,
      "▁общества": 8924,
      "▁\n\nD": 8925,
      "▁попере": 8926,
      "шими": 8927,
      "▁ag": 8928,
      "ди.": 8929,
      "мо,": 8930,
      "житъ": 8931,
      "▁девя": 8932,
      "▁функций:": 8933,
      "гри": 8934,
      "даго": 8935,
      "▁АР": 8936,
      "▁Ad": 8937,
      "ссы": 8938,
      "▁\n\nЬ": 8939,
      "▁счет": 8940,
      "ер-": 8941,
      "бою": 8942,
      "▁nep": 8943,
      "▁Э.": 8944,
      "чка,": 8945,
      "▁конечно,": 8946,
      "▁\n\n13.": 8947,
      "ріі": 8948,
      "ес1": 8949,
      "нх": 8950,
      "▁(Не": 8951,
      "▁Ска": 8952,
      "няет": 8953,
      "▁купи": 8954,
      "▁Фу": 8955,
      "▁частей": 8956,
      "▁расположен": 8957,
      "▁Дми": 8958,
      "▁книгъ": 8959,
      "шему": 8960,
      "мян": 8961,
      "▁150": 8962,
      "▁всЪ": 8963,
      "ления.": 8964,
      "▁близ": 8965,
      "▁перио": 8966,
      "▁גע": 8967,
      "▁\n\n\n1)": 8968,
      "▁(рус.": 8969,
      "лу.": 8970,
      "▁вел": 8971,
      "ed.": 8972,
      "▁жены": 8973,
      "юз": 8974,
      "▁оставля": 8975,
      "нул": 8976,
      "мера": 8977,
      "▁возник": 8978,
      "вана": 8979,
      ".\n\n<|startoftext|>Если": 8980,
      "▁Un": 8981,
      "ючи": 8982,
      "яи": 8983,
      "▁ссы": 8984,
      "▁подви": 8985,
      "гка": 8986,
      "▁сое.": 8987,
      "▁увеличи": 8988,
      "eit": 8989,
      "▁ужа": 8990,
      "▁масло": 8991,
      "▁бур": 8992,
      "▁hjih": 8993,
      "HHH": 8994,
      "▁Федо": 8995,
      "6o": 8996,
      "▁т^": 8997,
      "▁\n\nДа": 8998,
      "tain": 8999,
      "ВИ": 9000,
      "▁СЪ": 9001,
      "▁cell": 9002,
      "▁sim": 9003,
      "▁Литов": 9004,
      "▁\n\n\n\n\n\n\n\n\n\n\n\n\n\n\n": 9005,
      "дй": 9006,
      "▁action": 9007,
      "▁mit": 9008,
      "трети": 9009,
      "AB": 9010,
      "▁Пин": 9011,
      "менный,": 9012,
      "▁вопрос": 9013,
      "▁молит": 9014,
      "▁яи": 9015,
      "▁будучи": 9016,
      "вили": 9017,
      "ree": 9018,
      "▁\nНи": 9019,
      "▁писма": 9020,
      "land": 9021,
      "шень": 9022,
      "стями": 9023,
      "▁Новгород": 9024,
      "ίν": 9025,
      "стѣ": 9026,
      "▁проводи": 9027,
      "▁c.": 9028,
      "▁нзъ": 9029,
      "Ay": 9030,
      "▁блю": 9031,
      "стор": 9032,
      "▁«и": 9033,
      "▁типа": 9034,
      "▁$.": 9035,
      "тус:": 9036,
      "ента": 9037,
      ".\n\n<|startoftext|>О": 9038,
      "▁\n\nе": 9039,
      "леку": 9040,
      "▁ОТ": 9041,
      "ковь": 9042,
      "емая": 9043,
      "▁\n\n12.": 9044,
      "▁самый": 9045,
      "▁потеря": 9046,
      "▁г,": 9047,
      "▁system": 9048,
      "▁прп": 9049,
      "рка": 9050,
      "цѣ": 9051,
      "ровъ,": 9052,
      "шает": 9053,
      "▁людь": 9054,
      "▁предполага": 9055,
      "кп": 9056,
      "ленъ": 9057,
      "тко": 9058,
      "стая": 9059,
      "▁хе": 9060,
      "Ьиз": 9061,
      "▁В,": 9062,
      "▁жить": 9063,
      "▁M.": 9064,
      "псі": 9065,
      "гом": 9066,
      "▁inc": 9067,
      "▁ложа": 9068,
      "UT": 9069,
      "Би": 9070,
      "женіе": 9071,
      "▁мел": 9072,
      "▁труда": 9073,
      "кг": 9074,
      "роу": 9075,
      "зии": 9076,
      "▁пяти": 9077,
      "вшихся": 9078,
      "▁\nлу": 9079,
      "▁\n\nРанее": 9080,
      "nn": 9081,
      "пие": 9082,
      "▁хва": 9083,
      "▁сигна": 9084,
      "Когда": 9085,
      "ramm.": 9086,
      "▁слыша": 9087,
      "▁применения:": 9088,
      "н^": 9089,
      "▁\n\nч": 9090,
      "▁ая": 9091,
      "▁Гру": 9092,
      "▁и;": 9093,
      "тего": 9094,
      "▁зара": 9095,
      "▁Or": 9096,
      "спек": 9097,
      "▁здоров": 9098,
      "▁препо": 9099,
      "ie.": 9100,
      "▁\nМ.": 9101,
      "іаіі": 9102,
      "дарт": 9103,
      "именование:": 9104,
      "хт": 9105,
      "▁парт": 9106,
      "▁\nспо": 9107,
      "▁служить": 9108,
      "вича,": 9109,
      "▁различных": 9110,
      "к!": 9111,
      "▁\ne": 9112,
      "▁ich": 9113,
      "▁\n\nРо": 9114,
      "/1": 9115,
      "▁вси": 9116,
      "поп": 9117,
      "ης": 9118,
      "Су": 9119,
      "дов,": 9120,
      "ляют": 9121,
      "▁Архи": 9122,
      "С1": 9123,
      "▁обрабо": 9124,
      "!\n\n<|startoftext|>В": 9125,
      "lin": 9126,
      "При": 9127,
      "▁81а": 9128,
      "▁ж.,": 9129,
      "піз": 9130,
      "▁сказал": 9131,
      "▁участи": 9132,
      "er-": 9133,
      "ньй": 9134,
      "емъ,": 9135,
      "сокъ": 9136,
      "▁хоч": 9137,
      "▁вл": 9138,
      "▁годъ": 9139,
      "▁месте": 9140,
      "шимъ": 9141,
      "▁верну": 9142,
      "▁\nСа": 9143,
      "▁первого": 9144,
      "▁\nРо": 9145,
      "друг": 9146,
      "ковой": 9147,
      "▁НЕ": 9148,
      "бина": 9149,
      "щем": 9150,
      "ю:": 9151,
      "ние.": 9152,
      "II,": 9153,
      "гаг": 9154,
      "▁году,": 9155,
      "όν": 9156,
      "▁Нет": 9157,
      "▁\\Ѵ": 9158,
      "▁81е": 9159,
      "▁силь": 9160,
      "▁loc": 9161,
      "жу,": 9162,
      "кій": 9163,
      "▁поми": 9164,
      "▁Ср.": 9165,
      "▁60617-": 9166,
      "лешя": 9167,
      "▁Ka": 9168,
      "▁сосу": 9169,
      "▁происхо": 9170,
      "за.": 9171,
      "▁хочу": 9172,
      "▁характеристи": 9173,
      "мб": 9174,
      "▁уа": 9175,
      "▁mm": 9176,
      "▁чемъ": 9177,
      "▁rec": 9178,
      "jr": 9179,
      "▁кажда": 9180,
      "▁^е": 9181,
      "▁\nстро": 9182,
      "▁П,": 9183,
      "▁февраля": 9184,
      "▁действия": 9185,
      "▁£": 9186,
      "▁\n\n\nЦ": 9187,
      "▁потомъ": 9188,
      "▁FEST.": 9189,
      "▁\n\nСтатус:": 9190,
      "бу,": 9191,
      "▁всё": 9192,
      "▁npH": 9193,
      "▁Писа": 9194,
      "▁APT": 9195,
      "▁производства": 9196,
      "бѣ": 9197,
      "чя": 9198,
      "ват": 9199,
      "arb": 9200,
      "езе": 9201,
      "АУ": 9202,
      "▁\n\n\nC": 9203,
      "▁исправ": 9204,
      "гоп": 9205,
      "▁кот": 9206,
      "▁Ее": 9207,
      "▁\nности": 9208,
      "▁\npo": 9209,
      "токо": 9210,
      "со-": 9211,
      "▁поверхности": 9212,
      "▁\n\n6.": 9213,
      "▁комна": 9214,
      "▁than": 9215,
      "арфиэль": 9216,
      "ц-": 9217,
      "▁казен": 9218,
      "▁Каза": 9219,
      "▁Иванъ": 9220,
      "IDAE": 9221,
      "uf": 9222,
      "••": 9223,
      "▁\n20": 9224,
      "▁своимъ": 9225,
      "▁воспита": 9226,
      "нести": 9227,
      "ІС": 9228,
      "жая": 9229,
      "ky": 9230,
      "дЬ": 9231,
      "▁насто": 9232,
      "▁отрица": 9233,
      "▁гораздо": 9234,
      "чею": 9235,
      "▁логи": 9236,
      "▁расхо": 9237,
      "первые": 9238,
      "роятно,": 9239,
      "▁вб": 9240,
      "ste": 9241,
      "стиан": 9242,
      "▁выступа": 9243,
      "тым": 9244,
      "▁же.": 9245,
      "ванія": 9246,
      "KOB": 9247,
      "▁ОБ": 9248,
      "▁Иса": 9249,
      "▁мате": 9250,
      "нскаго": 9251,
      "▁некоторые": 9252,
      "OR": 9253,
      "▁потому,": 9254,
      "ov,": 9255,
      "НИК": 9256,
      "▁ві": 9257,
      "▁Сто": 9258,
      "▁oh": 9259,
      "▁\n\n\n15": 9260,
      "▁дал": 9261,
      "▁Ш.": 9262,
      "▁характе": 9263,
      "6:": 9264,
      "IS": 9265,
      "Шо": 9266,
      "нна": 9267,
      "іііг": 9268,
      "▁регу": 9269,
      "▁\nсле": 9270,
      "▁полно": 9271,
      "▁немец": 9272,
      "▁183": 9273,
      "▁иі": 9274,
      "тельным": 9275,
      "ischen": 9276,
      "▁клю": 9277,
      "▁небо": 9278,
      "▁20,": 9279,
      "110": 9280,
      "▁прі": 9281,
      "ift": 9282,
      "........": 9283,
      "▁זי": 9284,
      "▁sn.v.": 9285,
      "нига": 9286,
      "▁предыду": 9287,
      "▁hto": 9288,
      "зантий": 9289,
      "hal": 9290,
      "вл": 9291,
      "е;": 9292,
      "лся.": 9293,
      "нены": 9294,
      "▁кроме": 9295,
      "том,": 9296,
      "в*": 9297,
      "▁иже": 9298,
      "ски,": 9299,
      "itt": 9300,
      "преде": 9301,
      "▁осуществ": 9302,
      "мй": 9303,
      "▁\nal": 9304,
      "▁попро": 9305,
      "▁Стра": 9306,
      "▁руку": 9307,
      "▁рублей": 9308,
      "▁приоб": 9309,
      "▁64": 9310,
      "▁н'Ь": 9311,
      "▁NoNo": 9312,
      "▁рим": 9313,
      "▁встреча": 9314,
      "нти": 9315,
      "рА": 9316,
      "рика": 9317,
      "рай": 9318,
      "кои": 9319,
      "▁момен": 9320,
      "▁применя": 9321,
      "▁дает": 9322,
      "▁61": 9323,
      "lis": 9324,
      "אר": 9325,
      "▁еп.": 9326,
      "▁Кто": 9327,
      "ese": 9328,
      "▁more": 9329,
      "▁предлага": 9330,
      "▁путь": 9331,
      "▁гако": 9332,
      "(>": 9333,
      "М-201": 9334,
      "▁вере": 9335,
      "луй": 9336,
      "▁изо": 9337,
      "▁актив": 9338,
      "▁pour": 9339,
      "▁соз": 9340,
      "▁06": 9341,
      "▁Се-": 9342,
      "▁(ср.": 9343,
      "▁\n\nType": 9344,
      "ря.": 9345,
      "▁voc": 9346,
      ")^": 9347,
      "Т,": 9348,
      "глав": 9349,
      "▁\n\n\nD": 9350,
      "били": 9351,
      "▁милли": 9352,
      "без": 9353,
      "зкі": 9354,
      "▁мер": 9355,
      "пиз": 9356,
      "никъ,": 9357,
      "Ча": 9358,
      "▁\n\nне": 9359,
      "▁\n\nл.": 9360,
      "▁Семе": 9361,
      "▁обря": 9362,
      "▁ошъ": 9363,
      "▁удоб": 9364,
      "евр.": 9365,
      "▁фабри": 9366,
      "▁\n\n\"": 9367,
      "▁вызыва": 9368,
      "▁стала": 9369,
      "▁Коми": 9370,
      "отя": 9371,
      "▁войска": 9372,
      "▁(т.": 9373,
      "▁пересе": 9374,
      "▁согласно": 9375,
      "n,": 9376,
      "▁(д": 9377,
      "▁30.": 9378,
      "▁сердце": 9379,
      "▁человек,": 9380,
      "телем": 9381,
      "::": 9382,
      "▁вчера": 9383,
      "▁Сло": 9384,
      "читы": 9385,
      "▁\nность": 9386,
      "дов.": 9387,
      "▁лич": 9388,
      "1!": 9389,
      "▁дети": 9390,
      "сЬа": 9391,
      "▁обрати": 9392,
      "▁руковод": 9393,
      "І,": 9394,
      "ув": 9395,
      "▁вку": 9396,
      "тея": 9397,
      "пот": 9398,
      "дующ": 9399,
      "ature": 9400,
      "▁конф": 9401,
      "тного": 9402,
      "▁\n\nпро": 9403,
      "велъ": 9404,
      "▁изба": 9405,
      "скШ": 9406,
      "▁деле": 9407,
      "▁\n\nНи": 9408,
      "▁многих": 9409,
      "▁заба": 9410,
      "▁институ": 9411,
      "висимо": 9412,
      "▁осве": 9413,
      "PT": 9414,
      "СЛ": 9415,
      "▁пусть": 9416,
      "ДО": 9417,
      "пка": 9418,
      "▁Благо": 9419,
      "ent.": 9420,
      "піа": 9421,
      "▁проси": 9422,
      "▁^а": 9423,
      "Бу": 9424,
      "вил": 9425,
      "▁Арх": 9426,
      "йі": 9427,
      "▁ή": 9428,
      "немъ": 9429,
      "▁у-": 9430,
      "▁цело": 9431,
      "9:": 9432,
      "»-": 9433,
      "СН": 9434,
      "лта": 9435,
      "▁судеб": 9436,
      "▁сравни": 9437,
      "▁Украи": 9438,
      "▁пья": 9439,
      "▁ем": 9440,
      "▁\nПа": 9441,
      "▁году.": 9442,
      "▁\n\n\nЭ": 9443,
      "аъ": 9444,
      "▁вино": 9445,
      "▁ен": 9446,
      "тыми": 9447,
      "бс": 9448,
      "момъ": 9449,
      "чий": 9450,
      "▁годы": 9451,
      "▁«Т": 9452,
      "▁\n\nма": 9453,
      "▁смотри": 9454,
      "<^": 9455,
      "Ъо": 9456,
      "ara": 9457,
      "▁(ка": 9458,
      "▁обро": 9459,
      "elle": 9460,
      "влека": 9461,
      "!\"": 9462,
      "ana": 9463,
      "▁ext": 9464,
      "нью": 9465,
      "▁have": 9466,
      "▁\n\nВведен": 9467,
      "нице": 9468,
      "▁N.": 9469,
      "рое": 9470,
      "▁разных": 9471,
      "▁кн.:": 9472,
      "ховъ": 9473,
      "ная.": 9474,
      "▁фло": 9475,
      "ленный": 9476,
      "▁\\ѵ": 9477,
      "▁другое": 9478,
      "Ho": 9479,
      "ИХ": 9480,
      "Ыі": 9481,
      "жж": 9482,
      "чительно": 9483,
      "▁Д'Ь": 9484,
      "omm": 9485,
      "▁рассматри": 9486,
      "-а": 9487,
      "▁одному": 9488,
      "▁(190": 9489,
      "новременно": 9490,
      "Г,": 9491,
      "гни": 9492,
      "дш": 9493,
      "▁ви-": 9494,
      "▁говорит:-": 9495,
      "гх": 9496,
      "▁уж": 9497,
      "▁аІ": 9498,
      "▁\nчет": 9499,
      "▁любовь": 9500,
      "▁вновь:": 9501,
      "οι": 9502,
      "▁уу": 9503,
      "▁(не": 9504,
      "▁Пар": 9505,
      "Ве": 9506,
      "▁Пра": 9507,
      "▁вокруг": 9508,
      "▁cr": 9509,
      "сты,": 9510,
      "▁Аи": 9511,
      "зеп": 9512,
      "▁могла": 9513,
      "né": 9514,
      "▁Онъ": 9515,
      "ept": 9516,
      "Ыа": 9517,
      "▁сн": 9518,
      "▁\nДа": 9519,
      "erc": 9520,
      "▁подня": 9521,
      "▁inf": 9522,
      "ОЗ": 9523,
      "▁\nѵ": 9524,
      "▁тка": 9525,
      "чива": 9526,
      "▁«Д": 9527,
      "1і": 9528,
      "▁\n\nко": 9529,
      "yx": 9530,
      "лх": 9531,
      "▁пол.": 9532,
      "скою": 9533,
      "нок,": 9534,
      "▁тф": 9535,
      "▁Народ": 9536,
      "▁(ред.": 9537,
      "mb": 9538,
      "тное": 9539,
      "шр": 9540,
      "▁λ": 9541,
      "▁\n\nПере": 9542,
      "тся.": 9543,
      "ОЛЬ": 9544,
      "▁интерес": 9545,
      "▁\nтакже": 9546,
      "лей,": 9547,
      "ск1": 9548,
      "▁Богда": 9549,
      "▁особо": 9550,
      "▁нового": 9551,
      "▁\n\n15.": 9552,
      "▁TO": 9553,
      "ходили": 9554,
      "7:": 9555,
      "нутрен": 9556,
      "▁стало": 9557,
      "▁Пусть": 9558,
      "9).": 9559,
      "жением": 9560,
      "іиі": 9561,
      "удо": 9562,
      "▁начало": 9563,
      "▁Высочайше": 9564,
      "▁кора": 9565,
      "▁касается": 9566,
      "зма": 9567,
      "вовъ": 9568,
      "▁\\\\": 9569,
      "▁власть": 9570,
      "СКАЯ": 9571,
      "▁dict": 9572,
      "6).": 9573,
      "▁94": 9574,
      "▁человѣ": 9575,
      "ником": 9576,
      "y-": 9577,
      "|1": 9578,
      "▁связь": 9579,
      "▁species": 9580,
      "ждый": 9581,
      "▁ты,": 9582,
      "▁напр.": 9583,
      "^п": 9584,
      "|)": 9585,
      "дё": 9586,
      "сля": 9587,
      ".\n\n<|startoftext|>У": 9588,
      "▁уравне": 9589,
      "видно,": 9590,
      "руп": 9591,
      "▁души": 9592,
      "oi": 9593,
      "▁будеть": 9594,
      "ваться.": 9595,
      "т!": 9596,
      "▁ощу": 9597,
      "▁прос": 9598,
      "лах": 9599,
      "▁прош": 9600,
      "▁Іи": 9601,
      "ванию": 9602,
      "▁долж.": 9603,
      "▁сег": 9604,
      "▁хоть": 9605,
      "▁случи": 9606,
      "ρι": 9607,
      "▁лБ": 9608,
      "▁Die": 9609,
      "cess": 9610,
      "▁\n\n\n[": 9611,
      "erb": 9612,
      "▁какого": 9613,
      "it,": 9614,
      "'і": 9615,
      "Что": 9616,
      "с;": 9617,
      "рети": 9618,
      "▁сокра": 9619,
      "▁\nto": 9620,
      "▁в.,": 9621,
      "▁мене": 9622,
      "теля,": 9623,
      "▁б)": 9624,
      "▁пребы": 9625,
      "мг": 9626,
      "чти": 9627,
      "юу": 9628,
      "▁м^": 9629,
      "▁Ря": 9630,
      "▁йег": 9631,
      "ствуют": 9632,
      "▁Dr.": 9633,
      "▁сохрани": 9634,
      "—5": 9635,
      "▁\n\nПод": 9636,
      "fic": 9637,
      "кш": 9638,
      "▁\nk": 9639,
      "▁Ех": 9640,
      "Tp": 9641,
      "yd": 9642,
      "тника": 9643,
      "▁Иа": 9644,
      "▁72": 9645,
      "йн": 9646,
      "▁end": 9647,
      "бель": 9648,
      "▁Ma": 9649,
      "▁13,": 9650,
      "^b": 9651,
      "д*": 9652,
      "знен": 9653,
      "вожда": 9654,
      "eric": 9655,
      "έν": 9656,
      "ноу": 9657,
      "▁двой": 9658,
      "▁выбо": 9659,
      "▁пиг": 9660,
      "▁трудно": 9661,
      "▁огром": 9662,
      "▁\nды": 9663,
      "▁исти": 9664,
      "▁иду": 9665,
      "▁нечи": 9666,
      "ень,": 9667,
      "▁\nкогда": 9668,
      "говъ": 9669,
      "▁гл": 9670,
      "▁АУ": 9671,
      "веп": 9672,
      "зы.": 9673,
      "▁войны": 9674,
      "Иа": 9675,
      "ли:": 9676,
      "▁sol": 9677,
      "▁По-": 9678,
      "▁которым": 9679,
      "новъ.": 9680,
      "▁охра": 9681,
      "▁дабы": 9682,
      "▁Только": 9683,
      "▁Михаи": 9684,
      "▁ребенка": 9685,
      "τα": 9686,
      "вА": 9687,
      "▁ע": 9688,
      "гомъ": 9689,
      "▁обраща": 9690,
      "MO": 9691,
      "фра": 9692,
      "▁однако,": 9693,
      "▁‹": 9694,
      "▁ра-": 9695,
      "стях": 9696,
      "▁содержи": 9697,
      "▁пала": 9698,
      "▁pac": 9699,
      "▁пуст.": 9700,
      "▁npn": 9701,
      "док": 9702,
      "▁пригла": 9703,
      "шаго.": 9704,
      "▁31.": 9705,
      "люби": 9706,
      "▁велико": 9707,
      "ложения": 9708,
      "▁специ": 9709,
      "▁товар": 9710,
      "чь.": 9711,
      "▁Константи": 9712,
      "ствен-": 9713,
      "▁совсем": 9714,
      ">K": 9715,
      "ЕЙ": 9716,
      "вес": 9717,
      "▁ае": 9718,
      "▁приш": 9719,
      "▁Степа": 9720,
      "▁ем.": 9721,
      "▁da": 9722,
      "способ": 9723,
      "^й": 9724,
      "цко": 9725,
      "▁щи": 9726,
      "стный": 9727,
      "етр": 9728,
      "▁J.": 9729,
      "▁ред.": 9730,
      "▁Ьи": 9731,
      "м*": 9732,
      "▁\n/": 9733,
      "▁оре": 9734,
      "ла:": 9735,
      "▁up": 9736,
      "▁оро": 9737,
      "▁боло": 9738,
      "▁Ab": 9739,
      "▁Іке": 9740,
      "▁библиоте": 9741,
      "лахъ": 9742,
      "▁уме": 9743,
      "СКА": 9744,
      "▁на,": 9745,
      "леб": 9746,
      "urs": 9747,
      "ний,": 9748,
      "▁которыми": 9749,
      "цкого": 9750,
      "▁\nчен": 9751,
      "насты": 9752,
      "1е8": 9753,
      "▁полез": 9754,
      "▁1/": 9755,
      "леніе": 9756,
      "▁\nвЪ": 9757,
      "▁Рас": 9758,
      "▁сказать,": 9759,
      "nd": 9760,
      "лоу": 9761,
      "▁приготов": 9762,
      "▁редак": 9763,
      "▁винов": 9764,
      "держ": 9765,
      "▁озе": 9766,
      "▁LA": 9767,
      ",.": 9768,
      "тыя": 9769,
      "▁|.": 9770,
      "▁получить": 9771,
      "!..": 9772,
      "-х": 9773,
      "TC": 9774,
      "цки": 9775,
      "ѣз": 9776,
      "▁июня": 9777,
      "▁издан": 9778,
      "▁режи": 9779,
      "▁инстру": 9780,
      "▁крестьяне": 9781,
      "1§": 9782,
      "»:": 9783,
      "сье": 9784,
      "ственным": 9785,
      "собенно": 9786,
      "▁\nее": 9787,
      "жев": 9788,
      "▁яр": 9789,
      "▁\nвре": 9790,
      "▁Ана": 9791,
      "новить": 9792,
      "дт": 9793,
      "▁Бра": 9794,
      "▁\nof": 9795,
      "▁самом": 9796,
      "▁девушка": 9797,
      "че,": 9798,
      "▁\n\nЛи": 9799,
      "▁вопроса": 9800,
      "▁управля": 9801,
      "Ьга": 9802,
      "паго": 9803,
      "▁\nща": 9804,
      "▁cap": 9805,
      "▁\n190": 9806,
      "▁воз-": 9807,
      "брать": 9808,
      "▁сотру": 9809,
      "h,": 9810,
      "кова,": 9811,
      "▁дЬ": 9812,
      "▁приведен": 9813,
      "▁проч": 9814,
      "ini": 9815,
      "ными.": 9816,
      "!:": 9817,
      "▁Гл.": 9818,
      "is;": 9819,
      "▁противопо": 9820,
      "ТН": 9821,
      "дал": 9822,
      "▁two": 9823,
      "▁68": 9824,
      "▁дев": 9825,
      "спро": 9826,
      "▁терри": 9827,
      "сторон": 9828,
      "▁быть,": 9829,
      "▁\n2)": 9830,
      "h.": 9831,
      "з1": 9832,
      "м;": 9833,
      "’.": 9834,
      "ную,": 9835,
      "ственнаго": 9836,
      "ета.": 9837,
      "▁\nВи": 9838,
      "нов.": 9839,
      "▁Пари": 9840,
      "tt": 9841,
      "▁\nным": 9842,
      "торъ": 9843,
      "▁лЬ": 9844,
      "крови": 9845,
      "йд": 9846,
      "льна": 9847,
      "▁прошло": 9848,
      "▁β": 9849,
      "▁\n\nэ": 9850,
      "▁пл": 9851,
      "▁пзъ": 9852,
      "тот": 9853,
      "▁сначала": 9854,
      "▁долженъ": 9855,
      "▁Рго": 9856,
      "▁Re": 9857,
      "▁экземпля": 9858,
      "sc": 9859,
      "ЧА": 9860,
      "▁поез": 9861,
      "▁мг": 9862,
      "▁post": 9863,
      "▁Лменны": 9864,
      "▁откуда": 9865,
      "▁выво": 9866,
      "1Я.": 9867,
      "▁возможности": 9868,
      "▁присо": 9869,
      "▁Pr": 9870,
      "▁110": 9871,
      "\\^": 9872,
      "\\У": 9873,
      "pro": 9874,
      "▁стату": 9875,
      "▁обыча": 9876,
      "▁отказа": 9877,
      "▁скло": 9878,
      "▁\nвод": 9879,
      "▁\n\n\n18": 9880,
      "МИ": 9881,
      "піи": 9882,
      "риф": 9883,
      "чил": 9884,
      "▁подготов": 9885,
      "▁\n\nМЭК": 9886,
      "▁систем": 9887,
      "por": 9888,
      "ній": 9889,
      "▁рап": 9890,
      "▁che": 9891,
      "▁трехъ": 9892,
      "чно-": 9893,
      ";^": 9894,
      "четь": 9895,
      "▁истин": 9896,
      "▁гвар": 9897,
      "▁\n\n16.": 9898,
      "▁Іюня": 9899,
      "▁\nпроиз": 9900,
      "2а": 9901,
      "цкой": 9902,
      "пи.": 9903,
      "▁si": 9904,
      "▁Ат": 9905,
      "▁промы": 9906,
      "▁Ь.": 9907,
      "м1": 9908,
      "іпе": 9909,
      "▁ува": 9910,
      "щина": 9911,
      "▁новой": 9912,
      "▁апре": 9913,
      "▁мать": 9914,
      "Bo": 9915,
      "§.": 9916,
      "лика": 9917,
      "▁попу": 9918,
      "▁62": 9919,
      "▁NC": 9920,
      "▁into": 9921,
      "по,": 9922,
      "▁Къ": 9923,
      "▁которомъ": 9924,
      "▁француз": 9925,
      "кспе": 9926,
      "ографи": 9927,
      "колько": 9928,
      "▁положить": 9929,
      "▁рё": 9930,
      "▁ве-": 9931,
      "▁gramm.": 9932,
      "▁учрежден": 9933,
      "▁меньше": 9934,
      "-же": 9935,
      "твори": 9936,
      "▁ыы": 9937,
      "▁схемы,": 9938,
      "іга": 9939,
      "▁18,": 9940,
      "▁беспо": 9941,
      "▁Par": 9942,
      "▁Такъ": 9943,
      "▁Тол": 9944,
      "лась,": 9945,
      "перед": 9946,
      "▁1905": 9947,
      "▁всѣхъ": 9948,
      "H,": 9949,
      "άν": 9950,
      "▁иу": 9951,
      "▁такъ,": 9952,
      "▁Эта": 9953,
      "▁Ko": 9954,
      "uj": 9955,
      "м:": 9956,
      "▁спу": 9957,
      "ен-": 9958,
      "гали": 9959,
      "шек": 9960,
      "11а": 9961,
      "▁другого": 9962,
      "▁славя": 9963,
      "▁6061": 9964,
      "▁\n\nра": 9965,
      "▁дре": 9966,
      "▁div": 9967,
      "ісіі": 9968,
      "▁королев": 9969,
      "ual": 9970,
      "▁Ст": 9971,
      "ск1я": 9972,
      "▁боро": 9973,
      "emb": 9974,
      "▁метал": 9975,
      "ЕП": 9976,
      "▁г.),": 9977,
      "▁\n\nМу": 9978,
      "▁выражен": 9979,
      "▁\n\nз": 9980,
      "▁out": 9981,
      "▁\nтру": 9982,
      "▁числе": 9983,
      "▁захва": 9984,
      "▁работе": 9985,
      "йса": 9986,
      "юе": 9987,
      "читель": 9988,
      "▁вече": 9989,
      "вания.": 9990,
      "ose": 9991,
      "ungen": 9992,
      "▁новгород": 9993,
      "ых": 9994,
      "▁\nЫ": 9995,
      "стные": 9996,
      "▁ир": 9997,
      "дах": 9998,
      "▁\nмежду": 9999,
      "7).": 10000,
      "?!": 10001,
      "говори": 10002,
      "▁дъ": 10003,
[...]
