{
  "version": "1.0",
  "truncation": null,
  "padding": null,
  "added_tokens": [
    {
      "id": 0,
      "content": "<pad>",
      "single_word": false,
      "lstrip": false,
      "rstrip": false,
      "normalized": false,
      "special": true
    },
    {
      "id": 1,
      "content": "<unk>",
      "single_word": false,
      "lstrip": false,
      "rstrip": false,
      "normalized": false,
      "special": true
    },
    {
      "id": 2,
      "content": "<bos>",
      "single_word": false,
      "lstrip": false,
      "rstrip": false,
      "normalized": false,
      "special": true
    },
    {
      "id": 3,
      "content": "<eos>",
      "single_word": false,
      "lstrip": false,
      "rstrip": false,
      "normalized": false,
      "special": true
    },
    {
      "id": 4,
      "content": "<user>",
      "single_word": false,
      "lstrip": false,
      "rstrip": false,
      "normalized": false,
      "special": true
    },
    {
      "id": 5,
      "content": "<assistant>",
      "single_word": false,
      "lstrip": false,
      "rstrip": false,
      "normalized": false,
      "special": true
    },
    {
      "id": 6,
      "content": "0",
      "single_word": false,
      "lstrip": false,
      "rstrip": false,
      "normalized": false,
      "special": true
    },
    {
      "id": 7,
      "content": "1",
      "single_word": false,
      "lstrip": false,
      "rstrip": false,
      "normalized": false,
      "special": true
    },
    {
      "id": 8,
      "content": "2",
      "single_word": false,
      "lstrip": false,
      "rstrip": false,
      "normalized": false,
      "special": true
    },
    {
      "id": 9,
      "content": "3",
      "single_word": false,
      "lstrip": false,
      "rstrip": false,
      "normalized": false,
      "special": true
    },
    {
      "id": 10,
      "content": "4",
      "single_word": false,
      "lstrip": false,
      "rstrip": false,
      "normalized": false,
      "special": true
    },
    {
      "id": 11,
      "content": "5",
      "single_word": false,
      "lstrip": false,
      "rstrip": false,
      "normalized": false,
      "special": true
    },
    {
      "id": 12,
      "content": "6",
      "single_word": false,
      "lstrip": false,
      "rstrip": false,
      "normalized": false,
      "special": true
    },
    {
      "id": 13,
      "content": "7",
      "single_word": false,
      "lstrip": false,
      "rstrip": false,
      "normalized": false,
      "special": true
    },
    {
      "id": 14,
      "content": "8",
      "single_word": false,
      "lstrip": false,
      "rstrip": false,
      "normalized": false,
      "special": true
    },
    {
      "id": 15,
      "content": "9",
      "single_word": false,
      "lstrip": false,
      "rstrip": false,
      "normalized": false,
      "special": true
    },
    {
      "id": 32000,
      "content": "<mask>",
      "single_word": false,
      "lstrip": false,
      "rstrip": false,
      "normalized": false,
      "special": true
    }
  ],
  "normalizer": {
    "type": "NFKC"
  },
  "pre_tokenizer": {
    "type": "Metaspace",
    "replacement": "▁",
    "prepend_scheme": "always",
    "split": true
  },
  "post_processor": null,
  "decoder": {
    "type": "Metaspace",
    "replacement": "▁",
    "prepend_scheme": "always",
    "split": true
  },
  "model": {
    "type": "BPE",
    "dropout": null,
    "unk_token": "<unk>",
    "continuing_subword_prefix": null,
    "end_of_word_suffix": null,
    "fuse_unk": false,
    "byte_fallback": false,
    "ignore_merges": false,
    "vocab": {
      "<pad>": 0,
      "<unk>": 1,
      "<bos>": 2,
      "<eos>": 3,
      "<user>": 4,
      "<assistant>": 5,
      "0": 6,
      "1": 7,
      "2": 8,
      "3": 9,
      "4": 10,
      "5": 11,
      "6": 12,
      "7": 13,
      "8": 14,
      "9": 15,
      "!": 16,
      "\"": 17,
      "#": 18,
      "$": 19,
      "%": 20,
      "&": 21,
      "'": 22,
      "(": 23,
      ")": 24,
      "*": 25,
      "+": 26,
      ",": 27,
      "-": 28,
      ".": 29,
      "/": 30,
      ":": 31,
      ";": 32,
      "<": 33,
      "=": 34,
      ">": 35,
      "?": 36,
      "@": 37,
      "A": 38,
      "B": 39,
      "C": 40,
      "D": 41,
      "E": 42,
      "F": 43,
      "G": 44,
      "H": 45,
      "I": 46,
      "J": 47,
      "K": 48,
      "L": 49,
      "M": 50,
      "N": 51,
      "O": 52,
      "P": 53,
      "Q": 54,
      "R": 55,
      "S": 56,
      "T": 57,
      "U": 58,
      "V": 59,
      "W": 60,
      "X": 61,
      "Y": 62,
      "Z": 63,
      "[": 64,
      "\\": 65,
      "]": 66,
      "^": 67,
      "_": 68,
      "`": 69,
      "a": 70,
      "b": 71,
      "c": 72,
      "d": 73,
      "e": 74,
      "f": 75,
      "g": 76,
      "h": 77,
      "i": 78,
      "j": 79,
      "k": 80,
      "l": 81,
      "m": 82,
      "n": 83,
      "o": 84,
      "p": 85,
      "q": 86,
      "r": 87,
      "s": 88,
      "t": 89,
      "u": 90,
      "v": 91,
      "w": 92,
      "x": 93,
      "y": 94,
      "z": 95,
      "{": 96,
      "|": 97,
      "}": 98,
      "~": 99,
      "¡": 100,
      "¢": 101,
      "£": 102,
      "¥": 103,
      "§": 104,
      "©": 105,
      "«": 106,
      "¬": 107,
      "®": 108,
      "°": 109,
      "±": 110,
      "¶": 111,
      "·": 112,
      "»": 113,
      "¿": 114,
      "À": 115,
      "Á": 116,
      "Â": 117,
      "Ä": 118,
      "Å": 119,
      "Æ": 120,
      "Ç": 121,
      "È": 122,
      "É": 123,
      "Ê": 124,
      "Ë": 125,
      "Ì": 126,
      "Í": 127,
      "Î": 128,
      "Ï": 129,
      "Ñ": 130,
      "Ò": 131,
      "Ó": 132,
      "Ô": 133,
      "Ö": 134,
      "Ø": 135,
      "Ù": 136,
      "Ú": 137,
      "Û": 138,
      "Ü": 139,
      "ß": 140,
      "à": 141,
      "á": 142,
      "â": 143,
      "ã": 144,
      "ä": 145,
      "å": 146,
      "æ": 147,
      "ç": 148,
      "è": 149,
      "é": 150,
      "ê": 151,
      "ë": 152,
      "ì": 153,
      "í": 154,
      "î": 155,
      "ï": 156,
      "ð": 157,
      "ñ": 158,
      "ò": 159,
      "ó": 160,
      "ô": 161,
      "õ": 162,
      "ö": 163,
      "ø": 164,
      "ù": 165,
      "ú": 166,
      "û": 167,
      "ü": 168,
      "ÿ": 169,
      "ā": 170,
      "ą": 171,
      "Ć": 172,
      "ć": 173,
      "č": 174,
      "đ": 175,
      "ė": 176,
      "Ę": 177,
      "ę": 178,
      "ě": 179,
      "ġ": 180,
      "ĩ": 181,
      "ī": 182,
      "Į": 183,
      "į": 184,
      "ı": 185,
      "ľ": 186,
      "Ł": 187,
      "ł": 188,
      "ń": 189,
      "Ő": 190,
      "ő": 191,
      "Œ": 192,
      "œ": 193,
      "Ś": 194,
      "ś": 195,
      "Ş": 196,
      "ş": 197,
      "Š": 198,
      "š": 199,
      "ũ": 200,
      "ū": 201,
      "ů": 202,
      "ű": 203,
      "ų": 204,
      "Ÿ": 205,
      "ź": 206,
      "Ż": 207,
      "ż": 208,
      "Ž": 209,
      "ž": 210,
      "ʒ": 211,
      "́": 212,
      "̃": 213,
      "̓": 214,
      "ͤ": 215,
      "͵": 216,
      "Ά": 217,
      "Έ": 218,
      "Ί": 219,
      "Ό": 220,
      "Ύ": 221,
      "Ώ": 222,
      "ΐ": 223,
      "Α": 224,
      "Β": 225,
      "Γ": 226,
      "Δ": 227,
      "Ε": 228,
      "Ζ": 229,
      "Η": 230,
      "Θ": 231,
      "Ι": 232,
      "Κ": 233,
      "Λ": 234,
      "Μ": 235,
      "Ν": 236,
      "Ξ": 237,
      "Ο": 238,
      "Π": 239,
      "Ρ": 240,
      "Σ": 241,
      "Τ": 242,
      "Υ": 243,
      "Φ": 244,
      "Χ": 245,
      "Ψ": 246,
      "ά": 247,
      "έ": 248,
      "ή": 249,
      "ί": 250,
      "α": 251,
      "β": 252,
      "γ": 253,
      "δ": 254,
      "ε": 255,
      "ζ": 256,
      "η": 257,
      "θ": 258,
      "ι": 259,
      "κ": 260,
      "λ": 261,
      "μ": 262,
      "ν": 263,
      "ξ": 264,
      "ο": 265,
      "π": 266,
      "ρ": 267,
      "ς": 268,
      "σ": 269,
      "τ": 270,
      "υ": 271,
      "φ": 272,
      "χ": 273,
      "ψ": 274,
      "ω": 275,
      "ϊ": 276,
      "ό": 277,
      "ύ": 278,
      "ώ": 279,
      "Ё": 280,
      "Ђ": 281,
      "Є": 282,
      "Ѕ": 283,
      "І": 284,
      "Ї": 285,
      "Ј": 286,
      "Љ": 287,
      "Њ": 288,
      "Ћ": 289,
      "Ў": 290,
      "Џ": 291,
      "А": 292,
      "Б": 293,
      "В": 294,
      "Г": 295,
      "Д": 296,
      "Е": 297,
      "Ж": 298,
      "З": 299,
      "И": 300,
      "Й": 301,
      "К": 302,
      "Л": 303,
      "М": 304,
      "Н": 305,
      "О": 306,
      "П": 307,
      "Р": 308,
      "С": 309,
      "Т": 310,
      "У": 311,
      "Ф": 312,
      "Х": 313,
      "Ц": 314,
      "Ч": 315,
      "Ш": 316,
      "Щ": 317,
      "Ъ": 318,
      "Ы": 319,
      "Ь": 320,
      "Э": 321,
      "Ю": 322,
      "Я": 323,
      "а": 324,
      "б": 325,
      "в": 326,
      "г": 327,
      "д": 328,
      "е": 329,
      "ж": 330,
      "з": 331,
      "и": 332,
      "й": 333,
      "к": 334,
      "л": 335,
      "м": 336,
      "н": 337,
      "о": 338,
      "п": 339,
      "р": 340,
      "с": 341,
      "т": 342,
      "у": 343,
      "ф": 344,
      "х": 345,
      "ц": 346,
      "ч": 347,
      "ш": 348,
      "щ": 349,
      "ъ": 350,
      "ы": 351,
      "ь": 352,
      "э": 353,
      "ю": 354,
      "я": 355,
      "ё": 356,
      "ђ": 357,
      "ѓ": 358,
      "є": 359,
      "ѕ": 360,
      "і": 361,
      "ї": 362,
      "ј": 363,
      "љ": 364,
      "њ": 365,
      "ћ": 366,
      "ќ": 367,
      "ў": 368,
      "џ": 369,
      "Ѣ": 370,
      "ѣ": 371,
      "Ѳ": 372,
      "ѳ": 373,
      "Ѵ": 374,
      "ѵ": 375,
      "Ґ": 376,
      "ґ": 377,
      "Ғ": 378,
      "ғ": 379,
      "Ң": 380,
      "ң": 381,
      "ҥ": 382,
      "Ү": 383,
      "ү": 384,
      "Һ": 385,
      "һ": 386,
      "ӊ": 387,
      "Ә": 388,
      "ә": 389,
      "Ӣ": 390,
      "ӣ": 391,
      "Ө": 392,
      "ө": 393,
      "ְ": 394,
      "ִ": 395,
      "ֵ": 396,
      "ֶ": 397,
      "ַ": 398,
      "ָ": 399,
      "ֹ": 400,
      "ּ": 401,
      "ֿ": 402,
      "א": 403,
      "ב": 404,
      "ג": 405,
      "ד": 406,
      "ה": 407,
      "ו": 408,
      "ז": 409,
      "ח": 410,
      "ט": 411,
      "י": 412,
      "ך": 413,
      "כ": 414,
      "ל": 415,
      "ם": 416,
      "מ": 417,
      "ן": 418,
      "נ": 419,
      "ס": 420,
      "ע": 421,
      "ף": 422,
      "פ": 423,
      "ץ": 424,
      "צ": 425,
      "ק": 426,
      "ר": 427,
      "ש": 428,
      "ת": 429,
      "װ": 430,
      "ױ": 431,
      "ײ": 432,
      "؟": 433,
      "ء": 434,
      "آ": 435,
      "أ": 436,
      "ا": 437,
      "ب": 438,
      "ة": 439,
      "ت": 440,
      "ث": 441,
      "ج": 442,
      "ح": 443,
      "د": 444,
      "ذ": 445,
      "ر": 446,
      "ز": 447,
      "س": 448,
      "ش": 449,
      "ط": 450,
      "ع": 451,
      "ف": 452,
      "ق": 453,
      "ك": 454,
      "ل": 455,
      "م": 456,
      "ن": 457,
      "ه": 458,
      "و": 459,
      "ى": 460,
      "ي": 461,
      "٠": 462,
      "١": 463,
      "᷑": 464,
      "ᷓ": 465,
      "ᷣ": 466,
      "ẽ": 467,
      "ἀ": 468,
      "ἁ": 469,
      "ἂ": 470,
      "ἃ": 471,
      "ἄ": 472,
      "ἅ": 473,
      "ἆ": 474,
      "Ἀ": 475,
      "Ἄ": 476,
      "Ἅ": 477,
      "ἐ": 478,
      "ἑ": 479,
      "ἔ": 480,
      "ἕ": 481,
      "Ἐ": 482,
      "Ἑ": 483,
      "Ἔ": 484,
      "ἠ": 485,
      "ἡ": 486,
      "ἢ": 487,
      "ἣ": 488,
      "ἤ": 489,
      "ἥ": 490,
      "ἦ": 491,
      "ἧ": 492,
      "Ἠ": 493,
      "Ἡ": 494,
      "ἰ": 495,
      "ἱ": 496,
      "ἳ": 497,
      "ἴ": 498,
      "ἵ": 499,
      "ἶ": 500,
      "ἷ": 501,
      "Ἰ": 502,
      "Ἱ": 503,
      "Ἴ": 504,
      "ὀ": 505,
      "ὁ": 506,
      "ὃ": 507,
      "ὄ": 508,
      "ὅ": 509,
      "Ὀ": 510,
      "Ὁ": 511,
      "Ὅ": 512,
      "ὐ": 513,
      "ὑ": 514,
      "ὓ": 515,
      "ὔ": 516,
      "ὕ": 517,
      "ὖ": 518,
      "ὗ": 519,
      "Ὑ": 520,
      "Ὕ": 521,
      "ὠ": 522,
      "ὡ": 523,
      "ὢ": 524,
      "ὤ": 525,
      "ὥ": 526,
      "ὦ": 527,
      "ὧ": 528,
      "Ὡ": 529,
      "Ὥ": 530,
      "Ὦ": 531,
      "ὰ": 532,
      "ὲ": 533,
      "ὴ": 534,
      "ὶ": 535,
      "ὸ": 536,
      "ὺ": 537,
      "ὼ": 538,
      "ᾖ": 539,
      "ᾧ": 540,
      "ᾳ": 541,
      "ᾶ": 542,
      "ᾷ": 543,
      "ῃ": 544,
      "ῄ": 545,
      "ῆ": 546,
      "ῇ": 547,
      "ῖ": 548,
      "ῤ": 549,
      "ῥ": 550,
      "ῦ": 551,
      "Ῥ": 552,
      "ῳ": 553,
      "ῴ": 554,
      "ῶ": 555,
      "ῷ": 556,
      "‎": 557,
      "‏": 558,
      "–": 559,
      "—": 560,
      "‘": 561,
      "’": 562,
      "‚": 563,
      "“": 564,
      "”": 565,
      "„": 566,
      "•": 567,
      "‹": 568,
      "›": 569,
      "⁊": 570,
      "€": 571,
      "ↄ": 572,
      "⏑": 573,
      "▁": 574,
      "■": 575,
      "□": 576,
      "▲": 577,
      "►": 578,
      "▼": 579,
      "★": 580,
      "☆": 581,
      "♦": 582,
      "✓": 583,
      "❖": 584,
      "⸗": 585,
      "、": 586,
      "。": 587,
      "々": 588,
      "《": 589,
      "」": 590,
      "』": 591,
      "】": 592,
      "ぁ": 593,
      "あ": 594,
      "い": 595,
      "う": 596,
      "え": 597,
      "お": 598,
      "か": 599,
      "が": 600,
      "き": 601,
      "し": 602,
      "す": 603,
      "ず": 604,
      "せ": 605,
      "た": 606,
      "ち": 607,
      "っ": 608,
      "て": 609,
      "で": 610,
      "と": 611,
      "な": 612,
      "に": 613,
      "の": 614,
      "は": 615,
      "へ": 616,
      "ま": 617,
      "み": 618,
      "も": 619,
      "ゃ": 620,
      "や": 621,
      "り": 622,
      "る": 623,
      "を": 624,
      "ん": 625,
      "ア": 626,
      "ィ": 627,
      "イ": 628,
      "ウ": 629,
      "エ": 630,
      "オ": 631,
      "カ": 632,
      "キ": 633,
      "ギ": 634,
      "ク": 635,
      "グ": 636,
      "ケ": 637,
      "ゲ": 638,
      "コ": 639,
      "サ": 640,
      "ザ": 641,
      "シ": 642,
      "ジ": 643,
      "ス": 644,
      "ズ": 645,
      "セ": 646,
      "ゼ": 647,
      "タ": 648,
      "ダ": 649,
      "チ": 650,
      "ッ": 651,
      "ツ": 652,
      "テ": 653,
      "デ": 654,
      "ト": 655,
      "ド": 656,
      "ナ": 657,
      "ニ": 658,
      "ネ": 659,
      "ノ": 660,
      "ハ": 661,
      "バ": 662,
      "パ": 663,
      "ビ": 664,
      "ピ": 665,
      "フ": 666,
      "ブ": 667,
      "プ": 668,
      "ヘ": 669,
      "ペ": 670,
      "ホ": 671,
      "ボ": 672,
      "ポ": 673,
      "マ": 674,
      "ミ": 675,
      "ム": 676,
      "メ": 677,
      "モ": 678,
      "ャ": 679,
      "ヤ": 680,
      "ュ": 681,
      "ユ": 682,
      "ョ": 683,
      "ラ": 684,
      "リ": 685,
      "ル": 686,
      "レ": 687,
      "ロ": 688,
      "ン": 689,
      "ヵ": 690,
      "ヶ": 691,
      "・": 692,
      "ー": 693,
      "一": 694,
      "三": 695,
      "上": 696,
      "下": 697,
      "不": 698,
      "世": 699,
      "中": 700,
      "主": 701,
      "乗": 702,
      "了": 703,
      "事": 704,
      "二": 705,
      "交": 706,
      "人": 707,
      "今": 708,
      "仕": 709,
      "他": 710,
      "付": 711,
      "代": 712,
      "以": 713,
      "任": 714,
      "会": 715,
      "位": 716,
      "住": 717,
      "佐": 718,
      "何": 719,
      "作": 720,
      "使": 721,
      "例": 722,
      "侍": 723,
      "供": 724,
      "俗": 725,
      "保": 726,
      "信": 727,
      "備": 728,
      "優": 729,
      "元": 730,
      "光": 731,
      "入": 732,
      "全": 733,
      "公": 734,
      "共": 735,
      "兵": 736,
      "具": 737,
      "内": 738,
      "出": 739,
      "分": 740,
      "切": 741,
      "列": 742,
      "別": 743,
      "利": 744,
      "制": 745,
      "前": 746,
      "副": 747,
      "力": 748,
      "助": 749,
      "動": 750,
      "務": 751,
      "勢": 752,
      "北": 753,
      "区": 754,
      "十": 755,
      "反": 756,
      "取": 757,
      "古": 758,
      "只": 759,
      "可": 760,
      "合": 761,
      "同": 762,
      "名": 763,
      "吹": 764,
      "吾": 765,
      "味": 766,
      "命": 767,
      "和": 768,
      "品": 769,
      "商": 770,
      "器": 771,
      "四": 772,
      "園": 773,
      "在": 774,
      "地": 775,
      "場": 776,
      "士": 777,
      "外": 778,
      "多": 779,
      "大": 780,
      "天": 781,
      "夫": 782,
      "失": 783,
      "女": 784,
      "好": 785,
      "如": 786,
      "子": 787,
      "定": 788,
      "宮": 789,
      "家": 790,
      "宿": 791,
      "寄": 792,
      "小": 793,
      "少": 794,
      "尾": 795,
      "局": 796,
      "居": 797,
      "屋": 798,
      "山": 799,
      "岳": 800,
      "川": 801,
      "工": 802,
      "師": 803,
      "年": 804,
      "店": 805,
      "度": 806,
      "座": 807,
      "式": 808,
      "引": 809,
      "形": 810,
      "役": 811,
      "彼": 812,
      "後": 813,
      "徒": 814,
      "従": 815,
      "得": 816,
      "御": 817,
      "心": 818,
      "急": 819,
      "性": 820,
      "情": 821,
      "意": 822,
      "愛": 823,
      "成": 824,
      "所": 825,
      "手": 826,
      "打": 827,
      "押": 828,
      "持": 829,
      "指": 830,
      "掛": 831,
      "携": 832,
      "放": 833,
      "政": 834,
      "散": 835,
      "数": 836,
      "料": 837,
      "断": 838,
      "新": 839,
      "方": 840,
      "日": 841,
      "早": 842,
      "明": 843,
      "時": 844,
      "曲": 845,
      "書": 846,
      "最": 847,
      "月": 848,
      "有": 849,
      "服": 850,
      "朝": 851,
      "木": 852,
      "本": 853,
      "東": 854,
      "果": 855,
      "校": 856,
      "根": 857,
      "案": 858,
      "條": 859,
      "業": 860,
      "極": 861,
      "楽": 862,
      "様": 863,
      "標": 864,
      "模": 865,
      "横": 866,
      "機": 867,
      "次": 868,
      "正": 869,
      "武": 870,
      "死": 871,
      "段": 872,
      "水": 873,
      "決": 874,
      "河": 875,
      "油": 876,
      "治": 877,
      "法": 878,
      "波": 879,
      "洋": 880,
      "活": 881,
      "流": 882,
      "海": 883,
      "深": 884,
      "渡": 885,
      "温": 886,
      "激": 887,
      "火": 888,
      "無": 889,
      "焼": 890,
      "物": 891,
      "玉": 892,
      "理": 893,
      "生": 894,
      "用": 895,
      "由": 896,
      "申": 897,
      "男": 898,
      "白": 899,
      "的": 900,
      "目": 901,
      "直": 902,
      "相": 903,
      "着": 904,
      "知": 905,
      "石": 906,
      "禁": 907,
      "私": 908,
      "種": 909,
      "積": 910,
      "空": 911,
      "立": 912,
      "笑": 913,
      "第": 914,
      "等": 915,
      "粘": 916,
      "約": 917,
      "納": 918,
      "紙": 919,
      "結": 920,
      "置": 921,
      "美": 922,
      "義": 923,
      "者": 924,
      "職": 925,
      "腹": 926,
      "自": 927,
      "船": 928,
      "色": 929,
      "花": 930,
      "若": 931,
      "苦": 932,
      "英": 933,
      "茶": 934,
      "落": 935,
      "著": 936,
      "薬": 937,
      "行": 938,
      "裁": 939,
      "見": 940,
      "覧": 941,
      "言": 942,
      "計": 943,
      "設": 944,
      "許": 945,
      "評": 946,
      "話": 947,
      "語": 948,
      "調": 949,
      "論": 950,
      "議": 951,
      "護": 952,
      "豆": 953,
      "足": 954,
      "跡": 955,
      "軍": 956,
      "輸": 957,
      "込": 958,
      "近": 959,
      "返": 960,
      "追": 961,
      "通": 962,
      "造": 963,
      "連": 964,
      "過": 965,
      "道": 966,
      "選": 967,
      "部": 968,
      "酒": 969,
      "重": 970,
      "野": 971,
      "量": 972,
      "金": 973,
      "針": 974,
      "釣": 975,
      "銀": 976,
      "長": 977,
      "門": 978,
      "開": 979,
      "間": 980,
      "院": 981,
      "陸": 982,
      "際": 983,
      "集": 984,
      "電": 985,
      "面": 986,
      "音": 987,
      "領": 988,
      "類": 989,
      "風": 990,
      "食": 991,
      "飲": 992,
      "馬": 993,
      "高": 994,
      "魚": 995,
      "鳴": 996,
      "ꝑ": 997,
      "ꝓ": 998,
      "ꝗ": 999,
      "ꝙ": 1000,
      "ꝛ": 1001,
      "ꝝ": 1002,
      "ꝭ": 1003,
      "ꝯ": 1004,
      "ꝶ": 1005,
      "▁п": 1006,
      "▁с": 1007,
      "▁в": 1008,
      "▁и": 1009,
      "▁н": 1010,
      "ст": 1011,
      "ов": 1012,
      "▁о": 1013,
      "ра": 1014,
      "▁1": 1015,
      "ен": 1016,
      "▁т": 1017,
      "▁к": 1018,
      "▁д": 1019,
      "го": 1020,
      "ро": 1021,
      "ре": 1022,
      "но": 1023,
      "ат": 1024,
      "▁по": 1025,
      "ли": 1026,
      "▁м": 1027,
      "ри": 1028,
      "ет": 1029,
      "то": 1030,
      "ск": 1031,
      "▁б": 1032,
      "ан": 1033,
      "▁(": 1034,
      "▁а": 1035,
      "ль": 1036,
      "▁на": 1037,
      "▁—": 1038,
      "▁П": 1039,
      "▁у": 1040,
      "ит": 1041,
      "ны": 1042,
      "▁С": 1043,
      "▁з": 1044,
      "ер": 1045,
      "▁г": 1046,
      "ла": 1047,
      "▁В": 1048,
      "ло": 1049,
      "▁ч": 1050,
      "во": 1051,
      "на": 1052,
      "ка": 1053,
      "▁е": 1054,
      "ко": 1055,
      "..": 1056,
      "▁2": 1057,
      "er": 1058,
      "ва": 1059,
      "▁К": 1060,
      "ни": 1061,
      "▁М": 1062,
      "ся": 1063,
      "ле": 1064,
      "мъ": 1065,
      "▁А": 1066,
      "en": 1067,
      "да": 1068,
      "▁р": 1069,
      "▁не": 1070,
      "▁Н": 1071,
      "▁ко": 1072,
      "▁И": 1073,
      "▁ра": 1074,
      "▁О": 1075,
      "▁4": 1076,
      "▁a": 1077,
      "ъ,": 1078,
      "▁3": 1079,
      "ми": 1080,
      "ть": 1081,
      "▁s": 1082,
      "та": 1083,
      "▁Г": 1084,
      "▁со": 1085,
      "▁въ": 1086,
      "ем": 1087,
      "in": 1088,
      "ти": 1089,
      "▁.": 1090,
      "ля": 1091,
      "▁-": 1092,
      "▁во": 1093,
      "по": 1094,
      "▁Р": 1095,
      "▁то": 1096,
      "ру": 1097,
      "ени": 1098,
      "ки": 1099,
      "▁ж": 1100,
      "ать": 1101,
      "▁Т": 1102,
      "▁от": 1103,
      "▁d": 1104,
      "▁за": 1105,
      "ег": 1106,
      "▁Б": 1107,
      "▁при": 1108,
      "хъ": 1109,
      "▁t": 1110,
      "еп": 1111,
      "ей": 1112,
      "е,": 1113,
      "▁|": 1114,
      "ди": 1115,
      "га": 1116,
      "ев": 1117,
      "ар": 1118,
      "хо": 1119,
      "▁Д": 1120,
      "до": 1121,
      "▁до": 1122,
      "▁об": 1123,
      "▁,": 1124,
      "ак": 1125,
      "on": 1126,
      "▁8": 1127,
      "▁p": 1128,
      "р.": 1129,
      "ав": 1130,
      "▁c": 1131,
      "es": 1132,
      "▁5": 1133,
      "▁про": 1134,
      "▁я": 1135,
      "▁ш": 1136,
      "▁л": 1137,
      "an": 1138,
      "че": 1139,
      "мо": 1140,
      "ис": 1141,
      "ско": 1142,
      "те": 1143,
      "▁6": 1144,
      "▁Л": 1145,
      "ас": 1146,
      "бо": 1147,
      "▁9": 1148,
      ".,": 1149,
      "▁го": 1150,
      "де": 1151,
      "or": 1152,
      "▁I": 1153,
      "▁«": 1154,
      "▁Е": 1155,
      ").": 1156,
      "▁из": 1157,
      "▁n": 1158,
      "ес": 1159,
      "▁э": 1160,
      "ин": 1161,
      "ду": 1162,
      "▁мо": 1163,
      "й,": 1164,
      "іі": 1165,
      "ере": 1166,
      "re": 1167,
      "▁ст": 1168,
      "▁З": 1169,
      "ры": 1170,
      "сти": 1171,
      "▁У": 1172,
      "а,": 1173,
      "▁b": 1174,
      "ств": 1175,
      "сть": 1176,
      "▁вы": 1177,
      "лов": 1178,
      "ить": 1179,
      "ез": 1180,
      "ров": 1181,
      "11": 1182,
      "лу": 1183,
      "▁l": 1184,
      "▁f": 1185,
      "▁х": 1186,
      "сто": 1187,
      "▁m": 1188,
      "▁ф": 1189,
      "му": 1190,
      "▁o": 1191,
      "ar": 1192,
      "ма": 1193,
      "ча": 1194,
      "▁18": 1195,
      "▁ре": 1196,
      "ап": 1197,
      "ель": 1198,
      "со": 1199,
      "is": 1200,
      "▁бы": 1201,
      "ги": 1202,
      "чи": 1203,
      "си": 1204,
      "it": 1205,
      "ch": 1206,
      "▁По": 1207,
      "ски": 1208,
      "▁ц": 1209,
      "▁что": 1210,
      "▁H": 1211,
      "▁7": 1212,
      "at": 1213,
      "аз": 1214,
      "же": 1215,
      "▁Ч": 1216,
      "ани": 1217,
      "ше": 1218,
      "ши": 1219,
      "ал": 1220,
      "▁і": 1221,
      "ков": 1222,
      "▁бо": 1223,
      "ют": 1224,
      "....": 1225,
      "00": 1226,
      "ку": 1227,
      "ie": 1228,
      "▁ро": 1229,
      "ви": 1230,
      "▁пре": 1231,
      "я,": 1232,
      "ну": 1233,
      "ъ.": 1234,
      "▁[": 1235,
      "▁Ф": 1236,
      "ной": 1237,
      "▁но": 1238,
      "се": 1239,
      "▁^": 1240,
      "▁B": 1241,
      "сь": 1242,
      "ци": 1243,
      "ще": 1244,
      "▁раз": 1245,
      "іе": 1246,
      "па": 1247,
      "не": 1248,
      "ный": 1249,
      "са": 1250,
      "ря": 1251,
      "▁ни": 1252,
      "),": 1253,
      "et": 1254,
      "▁h": 1255,
      "лен": 1256,
      "e,": 1257,
      "▁съ": 1258,
      "пе": 1259,
      "из": 1260,
      "ска": 1261,
      "м.": 1262,
      "ня": 1263,
      "un": 1264,
      "ор": 1265,
      "ве": 1266,
      "щи": 1267,
      "▁N": 1268,
      "▁0": 1269,
      "▁A": 1270,
      "ме": 1271,
      "▁S": 1272,
      "▁*": 1273,
      "al": 1274,
      "▁же": 1275,
      "el": 1276,
      "▁v": 1277,
      "us": 1278,
      "▁под": 1279,
      "▁ве": 1280,
      "▁та": 1281,
      "▁10": 1282,
      "ово": 1283,
      "▁Х": 1284,
      "▁M": 1285,
      "▁ли": 1286,
      "д.": 1287,
      "мен": 1288,
      "ог": 1289,
      "▁ка": 1290,
      "ro": 1291,
      "▁І": 1292,
      "л.": 1293,
      "▁Ш": 1294,
      "▁19": 1295,
      "▁са": 1296,
      "il": 1297,
      "ется": 1298,
      "ur": 1299,
      "▁C": 1300,
      "1.": 1301,
      "▁па": 1302,
      "е.": 1303,
      "▁да": 1304,
      "сп": 1305,
      "ды": 1306,
      "ных": 1307,
      "оп": 1308,
      "за": 1309,
      "▁те": 1310,
      "▁ва": 1311,
      "ты": 1312,
      "къ": 1313,
      "▁Я": 1314,
      "▁сво": 1315,
      "▁T": 1316,
      "т.": 1317,
      "су": 1318,
      "об": 1319,
      "ша": 1320,
      "рав": 1321,
      "▁Ь": 1322,
      "ту": 1323,
      "нов": 1324,
      "▁бу": 1325,
      "▁||": 1326,
      "пи": 1327,
      "as": 1328,
      "▁г.": 1329,
      "ed": 1330,
      "би": 1331,
      "▁ру": 1332,
      "ге": 1333,
      "лю": 1334,
      "лъ": 1335,
      "нъ": 1336,
      "ного": 1337,
      "тъ": 1338,
      "ения": 1339,
      "▁си": 1340,
      "▁11": 1341,
      "▁to": 1342,
      "жи": 1343,
      "HH": 1344,
      "ные": 1345,
      "▁се": 1346,
      "ь,": 1347,
      "ra": 1348,
      "вы": 1349,
      "▁'": 1350,
      "▁=": 1351,
      "▁e": 1352,
      "▁кото": 1353,
      "ій": 1354,
      "he": 1355,
      "ig": 1356,
      "а.": 1357,
      "▁Ко": 1358,
      "лы": 1359,
      "гу": 1360,
      "ji": 1361,
      "▁;": 1362,
      "▁ме": 1363,
      "▁хо": 1364,
      "▁й": 1365,
      "ent": 1366,
      "▁его": 1367,
      "г.": 1368,
      "▁это": 1369,
      "▁16": 1370,
      "ная": 1371,
      "▁су": 1372,
      "▁w": 1373,
      "▁как": 1374,
      "▁17": 1375,
      "▁пере": 1376,
      "▁ви": 1377,
      "ство": 1378,
      "мы": 1379,
      "▁No": 1380,
      "бы": 1381,
      "и,": 1382,
      "▁g": 1383,
      "овъ": 1384,
      "ic": 1385,
      "le": 1386,
      "ай": 1387,
      "бу": 1388,
      "4.": 1389,
      "зы": 1390,
      "дъ": 1391,
      "qu": 1392,
      "▁de": 1393,
      "ос": 1394,
      "▁для": 1395,
      "▁in": 1396,
      "om": 1397,
      "ное": 1398,
      "ія": 1399,
      "вать": 1400,
      "▁или": 1401,
      "'Ь": 1402,
      "от": 1403,
      "ение": 1404,
      "аг": 1405,
      "пу": 1406,
      "ста": 1407,
      "▁K": 1408,
      "став": 1409,
      "ца": 1410,
      "▁12": 1411,
      "▁/": 1412,
      "▁D": 1413,
      "▁св": 1414,
      "▁де": 1415,
      "раз": 1416,
      "13": 1417,
      "ень": 1418,
      "▁пу": 1419,
      "ing": 1420,
      "дов": 1421,
      "м,": 1422,
      "▁пос": 1423,
      "▁че": 1424,
      "am": 1425,
      "▁P": 1426,
      "к.": 1427,
      "ской": 1428,
      "5.": 1429,
      "▁с.": 1430,
      "▁так": 1431,
      "1е": 1432,
      "ван": 1433,
      "▁сто": 1434,
      "ac": 1435,
      "▁i": 1436,
      "▁На": 1437,
      "ть,": 1438,
      "te": 1439,
      "й.": 1440,
      "▁13": 1441,
      "и.": 1442,
      "um": 1443,
      "▁ѵ": 1444,
      "0.": 1445,
      "мя": 1446,
      "ву": 1447,
      "ol": 1448,
      "▁Ц": 1449,
      "▁„": 1450,
      "етъ": 1451,
      "▁ста": 1452,
      "в.": 1453,
      "ion": 1454,
      "▁оп": 1455,
      "▁II": 1456,
      "н.": 1457,
      "18": 1458,
      "ова": 1459,
      "▁Во": 1460,
      "ю,": 1461,
      "▁the": 1462,
      "▁ча": 1463,
      "ха": 1464,
      "ате": 1465,
      "▁пред": 1466,
      "bi": 1467,
      "ръ": 1468,
      "▁15": 1469,
      "▁Мо": 1470,
      "▁14": 1471,
      "ран": 1472,
      "итель": 1473,
      "▁од": 1474,
      "мъ,": 1475,
      "▁V": 1476,
      "▁:": 1477,
      "ка,": 1478,
      "жа": 1479,
      "▁дру": 1480,
      "▁O": 1481,
      "▁вс": 1482,
      "▁къ": 1483,
      "ства": 1484,
      "ut": 1485,
      "жен": 1486,
      "вер": 1487,
      "п.": 1488,
      "въ": 1489,
      "ба": 1490,
      "▁r": 1491,
      "ща": 1492,
      "▁ad": 1493,
      "...": 1494,
      "6.": 1495,
      "ec": 1496,
      "каз": 1497,
      "▁воз": 1498,
      "ход": 1499,
      "em": 1500,
      "▁&": 1501,
      "▁пе": 1502,
      "▁Э": 1503,
      "▁ку": 1504,
      "▁ма": 1505,
      "бе": 1506,
      "▁X": 1507,
      "ОВ": 1508,
      "дь": 1509,
      "жно": 1510,
      "іи": 1511,
      "▁1.": 1512,
      "10": 1513,
      "▁•": 1514,
      "▁Бо": 1515,
      "▁ди": 1516,
      "я.": 1517,
      "нь": 1518,
      "ую": 1519,
      "ато": 1520,
      "▁G": 1521,
      "▁$": 1522,
      "ии": 1523,
      "ите": 1524,
      "у,": 1525,
      "▁т.": 1526,
      "▁‚": 1527,
      "▁изъ": 1528,
      "▁Со": 1529,
      "▁А.": 1530,
      "2.": 1531,
      "с.": 1532,
      "▁все": 1533,
      "▁\\": 1534,
      "чен": 1535,
      "8.": 1536,
      "ск.": 1537,
      "op": 1538,
      "▁an": 1539,
      "рь": 1540,
      "▁отъ": 1541,
      "m.": 1542,
      "ся,": 1543,
      "он": 1544,
      "ir": 1545,
      "».": 1546,
      "▁of": 1547,
      "▁E": 1548,
      "▁+": 1549,
      "▁{": 1550,
      "ep": 1551,
      "рг": 1552,
      "сі": 1553,
      "1,": 1554,
      "9.": 1555,
      "ред": 1556,
      "▁При": 1557,
      "os": 1558,
      "ят": 1559,
      "▁F": 1560,
      "ч.": 1561,
      "▁L": 1562,
      "род": 1563,
      "oc": 1564,
      "7.": 1565,
      "лько": 1566,
      "▁\"": 1567,
      "ствен": 1568,
      "тов": 1569,
      "ter": 1570,
      "ul": 1571,
      "ia": 1572,
      "ата": 1573,
      "▁ри": 1574,
      "3.": 1575,
      "▁ло": 1576,
      "ден": 1577,
      "id": 1578,
      "▁ми": 1579,
      "ати": 1580,
      "▁Ж": 1581,
      "▁<": 1582,
      "сс": 1583,
      "ие": 1584,
      "ныхъ": 1585,
      "ать,": 1586,
      "▁ле": 1587,
      "▁р.": 1588,
      "▁М.": 1589,
      "▁©": 1590,
      "▁пер": 1591,
      "▁слу": 1592,
      "чески": 1593,
      "б.": 1594,
      "im": 1595,
      "фи": 1596,
      "▁кон": 1597,
      "▁ос": 1598,
      "ый": 1599,
      "▁пр": 1600,
      "▁которы": 1601,
      "го,": 1602,
      "▁ю": 1603,
      "▁вре": 1604,
      "ность": 1605,
      "ке": 1606,
      "▁un": 1607,
      "атель": 1608,
      "СТ": 1609,
      "іп": 1610,
      "▁С.": 1611,
      "▁лю": 1612,
      "▁ти": 1613,
      "▁‘": 1614,
      "къ,": 1615,
      "fl": 1616,
      "^^": 1617,
      "ot": 1618,
      "▁R": 1619,
      "▁■": 1620,
      "pa": 1621,
      "▁ду": 1622,
      "▁20": 1623,
      "зи": 1624,
      ");": 1625,
      "ности": 1626,
      "f.": 1627,
      "но,": 1628,
      "спо": 1629,
      "лек": 1630,
      "▁сов": 1631,
      "лав": 1632,
      "ag": 1633,
      "мер": 1634,
      "це": 1635,
      "иг": 1636,
      "ус": 1637,
      "aa": 1638,
      "ек": 1639,
      "▁пов": 1640,
      "▁_": 1641,
      "дет": 1642,
      "ы,": 1643,
      "кой": 1644,
      "▁>": 1645,
      "er,": 1646,
      "гра": 1647,
      "шо": 1648,
      "ный,": 1649,
      "ft": 1650,
      "ич": 1651,
      "-Ь": 1652,
      "▁»": 1653,
      "▁им": 1654,
      "х.": 1655,
      "1а": 1656,
      "▁Ма": 1657,
      "наго": 1658,
      "сту": 1659,
      "▁ту": 1660,
      "лн": 1661,
      "ются": 1662,
      "j.": 1663,
      "▁За": 1664,
      "лѣ": 1665,
      "пис": 1666,
      "▁В.": 1667,
      "▁Ми": 1668,
      "ана": 1669,
      "▁la": 1670,
      "15": 1671,
      "14": 1672,
      "▁без": 1673,
      "гда": 1674,
      "іа": 1675,
      "▁ап": 1676,
      "ми,": 1677,
      "х,": 1678,
      "шь": 1679,
      "ян": 1680,
      "▁Ка": 1681,
      "ich": 1682,
      "ета": 1683,
      "▁му": 1684,
      "▁ны": 1685,
      "ип": 1686,
      "▁боль": 1687,
      "»,": 1688,
      "▁Ни": 1689,
      "19": 1690,
      "▁жи": 1691,
      "од": 1692,
      "▁Не": 1693,
      "▁Иван": 1694,
      "▁зна": 1695,
      "▁k": 1696,
      "тель": 1697,
      "ib": 1698,
      "▁И.": 1699,
      "▁adj.": 1700,
      "ская": 1701,
      "сты": 1702,
      "▁мы": 1703,
      "ского": 1704,
      "сЬ": 1705,
      "▁le": 1706,
      "8,": 1707,
      "скаго": 1708,
      "and": 1709,
      "▁qu": 1710,
      "io": 1711,
      "анов": 1712,
      "ита": 1713,
      "▁J": 1714,
      "АН": 1715,
      "Ъ,": 1716,
      "st": 1717,
      "у.": 1718,
      "ную": 1719,
      "2,": 1720,
      "▁no": 1721,
      "▁Пет": 1722,
      "▁ар": 1723,
      "ным": 1724,
      "▁д.": 1725,
      "вод": 1726,
      "0,": 1727,
      "ющи": 1728,
      "уб": 1729,
      "e.": 1730,
      "на,": 1731,
      "сли": 1732,
      "▁ее": 1733,
      "нд": 1734,
      "ЕН": 1735,
      "▁То": 1736,
      "▁Го": 1737,
      "▁пи": 1738,
      "ap": 1739,
      "АТ": 1740,
      "рт": 1741,
      "дер": 1742,
      "дѣ": 1743,
      "ут": 1744,
      "▁ха": 1745,
      "ето": 1746,
      "▁Про": 1747,
      "евъ": 1748,
      "▁be": 1749,
      "au": 1750,
      "зе": 1751,
      "▁ин": 1752,
      "ь.": 1753,
      "цы": 1754,
      "рен": 1755,
      "гі": 1756,
      "ания": 1757,
      "вв": 1758,
      "рат": 1759,
      "........": 1760,
      "▁2.": 1761,
      "ео": 1762,
      "▁м.": 1763,
      "▁см.": 1764,
      "сы": 1765,
      "зу": 1766,
      "est": 1767,
      "▁ок": 1768,
      "▁y": 1769,
      "▁Ро": 1770,
      "ant": 1771,
      "iv": 1772,
      "ad": 1773,
      "ить,": 1774,
      "ки,": 1775,
      "шен": 1776,
      "▁От": 1777,
      "▁он": 1778,
      "▁пол": 1779,
      "▁Ве": 1780,
      "им": 1781,
      "▁re": 1782,
      "▁л.": 1783,
      "иа": 1784,
      "▁ско": 1785,
      "1я": 1786,
      "вя": 1787,
      "6,": 1788,
      "рой": 1789,
      "жд": 1790,
      "▁Са": 1791,
      "ён": 1792,
      "▁j": 1793,
      "тя": 1794,
      "дн": 1795,
      "▁гра": 1796,
      "▁Вы": 1797,
      "▁га": 1798,
      "мъ.": 1799,
      "end": 1800,
      "▁188": 1801,
      "▁сп": 1802,
      "овы": 1803,
      "4,": 1804,
      "▁дол": 1805,
      "зо": 1806,
      "щен": 1807,
      "▁вер": 1808,
      "▁пра": 1809,
      "pe": 1810,
      "12": 1811,
      "ном": 1812,
      "▁Г.": 1813,
      "▁Та": 1814,
      "ютъ": 1815,
      "▁Въ": 1816,
      "ne": 1817,
      "▁Ю": 1818,
      "5,": 1819,
      "ио": 1820,
      "a.": 1821,
      "▁их": 1822,
      "т,": 1823,
      "зна": 1824,
      "ю.": 1825,
      "ab": 1826,
      "лись": 1827,
      "ными": 1828,
      "ил": 1829,
      "▁слов": 1830,
      "▁›": 1831,
      "▁рабо": 1832,
      "3,": 1833,
      "гь": 1834,
      "лож": 1835,
      "ка.": 1836,
      "вѣ": 1837,
      "ман": 1838,
      "пп": 1839,
      "зя": 1840,
      "▁913": 1841,
      "▁ПО": 1842,
      "ур": 1843,
      "9,": 1844,
      "е-": 1845,
      "to": 1846,
      "▁тре": 1847,
      "▁кра": 1848,
      "уч": 1849,
      "ром": 1850,
      "▁зем": 1851,
      "▁sm.": 1852,
      "хъ,": 1853,
      "хи": 1854,
      "▁ла": 1855,
      "▁1,": 1856,
      "7,": 1857,
      "▁какъ": 1858,
      "про": 1859,
      "if": 1860,
      "дин": 1861,
      "▁полу": 1862,
      "▁Но": 1863,
      "▁Вас": 1864,
      "▁ы": 1865,
      "▁сы": 1866,
      "▁ты": 1867,
      "мет": 1868,
      "лаго": 1869,
      "▁24": 1870,
      "▁К.": 1871,
      "ел": 1872,
      "▁П.": 1873,
      "▁22": 1874,
      "чь": 1875,
      "ой": 1876,
      "▁ба": 1877,
      "▁Об": 1878,
      "к,": 1879,
      "▁стр.": 1880,
      "▁3.": 1881,
      "ou": 1882,
      "зъ": 1883,
      "мь": 1884,
      "▁Ра": 1885,
      "ед": 1886,
      "да,": 1887,
      "II": 1888,
      "▁8.": 1889,
      "en,": 1890,
      "▁ск": 1891,
      "рі": 1892,
      "▁ь": 1893,
      "].": 1894,
      "▁25": 1895,
      "ание": 1896,
      "▁мен": 1897,
      "ess": 1898,
      "a,": 1899,
      "▁Ы": 1900,
      "▁Ст": 1901,
      "▁было": 1902,
      "t.": 1903,
      "ции": 1904,
      "лан": 1905,
      "▁образ": 1906,
      "рѣ": 1907,
      "ш.": 1908,
      "▁щ": 1909,
      "ла,": 1910,
      "▁только": 1911,
      "ему": 1912,
      "з.": 1913,
      "і.": 1914,
      "аты": 1915,
      "1;": 1916,
      "стоя": 1917,
      "г,": 1918,
      "▁30": 1919,
      "▁свя": 1920,
      "мѣ": 1921,
      "съ": 1922,
      "его": 1923,
      "ун": 1924,
      "▁for": 1925,
      "▁они": 1926,
      "▁x": 1927,
      "▁!": 1928,
      "ныя": 1929,
      "▁sf.": 1930,
      "тив": 1931,
      "▁et": 1932,
      "▁Ва": 1933,
      "16": 1934,
      "▁np": 1935,
      "▁der": 1936,
      "▁у.,": 1937,
      "▁п.": 1938,
      "▁Н.": 1939,
      "вет": 1940,
      "прав": 1941,
      "зыва": 1942,
      "▁вели": 1943,
      "▁par": 1944,
      "▁объ": 1945,
      "овъ,": 1946,
      "о,": 1947,
      "▁and": 1948,
      "▁а.": 1949,
      "▁и.": 1950,
      "▁дер": 1951,
      "▁23": 1952,
      "▁st": 1953,
      "od": 1954,
      "▁в.": 1955,
      "но-": 1956,
      "ли,": 1957,
      "▁40": 1958,
      "▁u": 1959,
      "ся.": 1960,
      "Ье": 1961,
      "ней": 1962,
      "ете": 1963,
      "*.": 1964,
      "▁ус": 1965,
      "Tb": 1966,
      "рё": 1967,
      "ия": 1968,
      "▁W": 1969,
      "суда": 1970,
      "▁28": 1971,
      "r.": 1972,
      "ми.": 1973,
      "▁en": 1974,
      "▁U": 1975,
      "▁эти": 1976,
      "▁er": 1977,
      "еть": 1978,
      "ть.": 1979,
      "ill": 1980,
      "иль": 1981,
      "▁(о": 1982,
      "ist": 1983,
      "бра": 1984,
      "іо": 1985,
      "ai": 1986,
      "▁зо": 1987,
      "лей": 1988,
      "зд": 1989,
      "▁1)": 1990,
      "▁al": 1991,
      "нн": 1992,
      "яв": 1993,
      "соб": 1994,
      "▁тру": 1995,
      "▁пис": 1996,
      "▁ав": 1997,
      "▁on": 1998,
      "ее": 1999,
      "св": 2000,
      "▁`": 2001,
      "ид": 2002,
      "▁@": 2003,
      "▁быть": 2004,
      "▁4.": 2005,
      "20": 2006,
      "ri": 2007,
      "рев": 2008,
      "▁челов": 2009,
      "ющ": 2010,
      "их": 2011,
      "▁se": 2012,
      "ct": 2013,
      "HO": 2014,
      "ья": 2015,
      "кт": 2016,
      "▁29": 2017,
      "стро": 2018,
      "▁con": 2019,
      "дни": 2020,
      "чно": 2021,
      "▁ком": 2022,
      "тре": 2023,
      "лся": 2024,
      "▁яв": 2025,
      "ху": 2026,
      "СК": 2027,
      "ст.": 2028,
      "вой": 2029,
      "▁рас": 2030,
      "ское": 2031,
      "ens": 2032,
      "сте": 2033,
      "іг": 2034,
      "▁Алек": 2035,
      "ers": 2036,
      "ЕР": 2037,
      "вать,": 2038,
      "тор": 2039,
      "жду": 2040,
      "▁27": 2041,
      "▁До": 2042,
      "▁“": 2043,
      "лось": 2044,
      "▁гово": 2045,
      "▁Ме": 2046,
      "при": 2047,
      "▁ры": 2048,
      "ир": 2049,
      "ится": 2050,
      "17": 2051,
      "▁ё": 2052,
      "▁Па": 2053,
      "кра": 2054,
      "кры": 2055,
      "▁Й": 2056,
      "▁ет": 2057,
      "▁произ": 2058,
      "▁26": 2059,
      "сн": 2060,
      "еа": 2061,
      "дя": 2062,
      "л,": 2063,
      "▁#": 2064,
      "▁фор": 2065,
      "▁Из": 2066,
      "CT": 2067,
      "ский": 2068,
      "пы": 2069,
      "хь": 2070,
      "ении": 2071,
      "ра,": 2072,
      "ны,": 2073,
      "ГО": 2074,
      "Ba": 2075,
      "▁ог": 2076,
      "og": 2077,
      "ходи": 2078,
      "ation": 2079,
      "сг": 2080,
      "▁th": 2081,
      "ИН": 2082,
      "ИТ": 2083,
      "ій,": 2084,
      "ник": 2085,
      "бли": 2086,
      "лет": 2087,
      "000": 2088,
      "88": 2089,
      "1о": 2090,
      "чин": 2091,
      "ца,": 2092,
      "t,": 2093,
      "уз": 2094,
      "▁О.": 2095,
      "▁Мар": 2096,
      "▁по-": 2097,
      "ника": 2098,
      "▁сле": 2099,
      "▁ше": 2100,
      "оо": 2101,
      "лад": 2102,
      "в,": 2103,
      "фе": 2104,
      "ge": 2105,
      "▁z": 2106,
      "льно": 2107,
      "п,": 2108,
      "ell": 2109,
      "▁чтобы": 2110,
      "▁og": 2111,
      "ей,": 2112,
      "▁чи": 2113,
      "рб": 2114,
      "▁тво": 2115,
      "ce": 2116,
      "гъ": 2117,
      "▁ге": 2118,
      "▁исто": 2119,
      "▁также": 2120,
      "1и": 2121,
      "▁чис": 2122,
      "сл": 2123,
      "▁)": 2124,
      "▁—,": 2125,
      "▁цар": 2126,
      "▁вес": 2127,
      "▁тем": 2128,
      "дан": 2129,
      "der": 2130,
      "іе,": 2131,
      "▁есть": 2132,
      "ления": 2133,
      "▁У.": 2134,
      "ва,": 2135,
      "▁ши": 2136,
      "▁ат": 2137,
      "▁Ha": 2138,
      "▁5.": 2139,
      "▁время": 2140,
      "▁онъ": 2141,
      "▁He": 2142,
      "our": 2143,
      "кон": 2144,
      "▁бе": 2145,
      "de": 2146,
      "30": 2147,
      "▁ска": 2148,
      "▁гу": 2149,
      "▁чу": 2150,
      "HM": 2151,
      "рн": 2152,
      "ЕВ": 2153,
      "▁стра": 2154,
      "re,": 2155,
      "▁au": 2156,
      "▁случа": 2157,
      "логи": 2158,
      "▁сторо": 2159,
      "▁4е": 2160,
      "гла": 2161,
      "▁гру": 2162,
      "цъ": 2163,
      "та,": 2164,
      "▁ему": 2165,
      "▁сти": 2166,
      "OM": 2167,
      "50": 2168,
      "▁пло": 2169,
      "▁s.": 2170,
      "▁того": 2171,
      "сов": 2172,
      "ax": 2173,
      "нымъ": 2174,
      "л-": 2175,
      "лин": 2176,
      "||": 2177,
      "аи": 2178,
      "ковъ": 2179,
      "ене": 2180,
      "▁af": 2181,
      "а-": 2182,
      "ОМ": 2183,
      "ки.": 2184,
      "▁к.": 2185,
      "ом": 2186,
      "ІІ": 2187,
      "ству": 2188,
      "▁]": 2189,
      "гов": 2190,
      "▁кре": 2191,
      "▁à": 2192,
      "▁гла": 2193,
      "▁Ъ": 2194,
      "▁0,": 2195,
      "▁pr": 2196,
      "▁Л.": 2197,
      "ком": 2198,
      "▁соп": 2199,
      "▁язы": 2200,
      "▁оч": 2201,
      "▁pl": 2202,
      "▁зе": 2203,
      "▁эк": 2204,
      "зь": 2205,
      "▁еп": 2206,
      "y,": 2207,
      "ОН": 2208,
      "▁поч": 2209,
      "лич": 2210,
      "▁Ан": 2211,
      "ЛА": 2212,
      "ставля": 2213,
      "▁после": 2214,
      "оу": 2215,
      "▁спо": 2216,
      "▁ша": 2217,
      "▁еще": 2218,
      "▁основ": 2219,
      "HT": 2220,
      "▁Алекс": 2221,
      "з,": 2222,
      "▁Пере": 2223,
      "▁Су": 2224,
      "скій": 2225,
      "▁мож": 2226,
      "▁Ба": 2227,
      "▁себ": 2228,
      "мот": 2229,
      "ber": 2230,
      "▁вой": 2231,
      "▁2)": 2232,
      "ine": 2233,
      "▁чер": 2234,
      "▁....": 2235,
      "ung": 2236,
      "▁ан": 2237,
      "▁чет": 2238,
      "▁госуда": 2239,
      "▁Си": 2240,
      "▁были": 2241,
      "av": 2242,
      "н,": 2243,
      "▁Ар": 2244,
      "No": 2245,
      "▁уч": 2246,
      "▁кру": 2247,
      "▁дво": 2248,
      "еш": 2249,
      "ii": 2250,
      "▁у.": 2251,
      "▁or": 2252,
      "ать.": 2253,
      "иъ": 2254,
      "аль": 2255,
      "40": 2256,
      "лась": 2257,
      "ять": 2258,
      "НЫ": 2259,
      "me": 2260,
      "▁ег": 2261,
      "▁соб": 2262,
      "▁отно": 2263,
      "▁ch": 2264,
      "1-": 2265,
      "о-": 2266,
      "▁ro": 2267,
      "стра": 2268,
      "ОР": 2269,
      "▁сот": 2270,
      "▁ну": 2271,
      "▁ж.": 2272,
      "лее": 2273,
      "анд": 2274,
      "▁сл": 2275,
      "▁ч.": 2276,
      "на.": 2277,
      "і,": 2278,
      "▁мно": 2279,
      "о.": 2280,
      "s,": 2281,
      "▁рус": 2282,
      "▁(с": 2283,
      "▁други": 2284,
      "да.": 2285,
      "ЛЬ": 2286,
      "рв": 2287,
      "▁само": 2288,
      "аа": 2289,
      "▁горо": 2290,
      "емы": 2291,
      "чу": 2292,
      "▁Ви": 2293,
      "ань": 2294,
      "▁Фе": 2295,
      "▁име": 2296,
      "▁над": 2297,
      "іс": 2298,
      "ak": 2299,
      "доб": 2300,
      "▁нача": 2301,
      "▁ne": 2302,
      "нѣ": 2303,
      "ена": 2304,
      "▁ря": 2305,
      "▁би": 2306,
      "зов": 2307,
      "шу": 2308,
      "клю": 2309,
      "ow": 2310,
      "лев": 2311,
      "ang": 2312,
      "рю": 2313,
      "▁рго": 2314,
      "80": 2315,
      "пре": 2316,
      "/9": 2317,
      "А.": 2318,
      "д,": 2319,
      "вая": 2320,
      "▁между": 2321,
      "еп,": 2322,
      "▁мас": 2323,
      "ip": 2324,
      "ж.": 2325,
      "▁Ку": 2326,
      "th": 2327,
      "ега": 2328,
      "ех": 2329,
      "▁die": 2330,
      "▁50": 2331,
      "▁pro": 2332,
      "ей.": 2333,
      "bl": 2334,
      "▁fl": 2335,
      "▁пл": 2336,
      "/.": 2337,
      "▁ср.": 2338,
      "▁Гос": 2339,
      "▁Раз": 2340,
      "▁I.": 2341,
      "ver": 2342,
      "ция": 2343,
      "▁кар": 2344,
      "▁6.": 2345,
      "▁ас": 2346,
      "▁обо": 2347,
      "▁Да": 2348,
      "шя": 2349,
      "▁пото": 2350,
      "▁44": 2351,
      "60": 2352,
      "▁(2": 2353,
      "жу": 2354,
      "▁когда": 2355,
      "лени": 2356,
      "ских": 2357,
      "дв": 2358,
      "станов": 2359,
      "▁1а": 2360,
      "раж": 2361,
      "хъ.": 2362,
      "▁кни": 2363,
      "фа": 2364,
      "зн": 2365,
      "фо": 2366,
      "Ъ.": 2367,
      "▁Бу": 2368,
      "ЕТ": 2369,
      "торы": 2370,
      "мн": 2371,
      "OB": 2372,
      "▁можно": 2373,
      "▁Щ": 2374,
      "тв": 2375,
      "en.": 2376,
      "ere": 2377,
      "ет,": 2378,
      "all": 2379,
      "▁поп": 2380,
      "ко,": 2381,
      "ному": 2382,
      "ans": 2383,
      "▁рг": 2384,
      "аться": 2385,
      "▁ио": 2386,
      "▁su": 2387,
      "ru": 2388,
      "▁ех": 2389,
      "АР": 2390,
      "▁co": 2391,
      "стан": 2392,
      "▁пров": 2393,
      "держ": 2394,
      "стя": 2395,
      "ент": 2396,
      "▁сер": 2397,
      "рос": 2398,
      "▁ex": 2399,
      "ление": 2400,
      "▁іі": 2401,
      "жда": 2402,
      "вед": 2403,
      "кого": 2404,
      "▁вз": 2405,
      "ляется": 2406,
      "n.": 2407,
      "лп": 2408,
      "шей": 2409,
      "ный.": 2410,
      "▁если": 2411,
      "▁33": 2412,
      "ит.": 2413,
      "пера": 2414,
      "▁Пу": 2415,
      "es,": 2416,
      "аны": 2417,
      "номъ": 2418,
      "ЕМ": 2419,
      "!!": 2420,
      "или": 2421,
      "▁ип": 2422,
      "▁бра": 2423,
      "ИК": 2424,
      "анъ": 2425,
      "с-": 2426,
      "ая": 2427,
      "▁уже": 2428,
      "▁Че": 2429,
      "▁Под": 2430,
      "*,": 2431,
      "ff": 2432,
      "eg": 2433,
      "▁Ѵ": 2434,
      "ровъ": 2435,
      "▁48": 2436,
      "и-": 2437,
      "із": 2438,
      "АМ": 2439,
      "ш,": 2440,
      "тер": 2441,
      "с,": 2442,
      "▁дѣ": 2443,
      "▁§": 2444,
      "ёр": 2445,
      "▁ихъ": 2446,
      "aM": 2447,
      "é,": 2448,
      "▁II.": 2449,
      "▁вся": 2450,
      "▁день": 2451,
      "▁Ре": 2452,
      "▁которые": 2453,
      "ОД": 2454,
      "итъ": 2455,
      "▁г.,": 2456,
      "дей": 2457,
      "▁des": 2458,
      "▁прав": 2459,
      "▁Моск": 2460,
      "къ.": 2461,
      "хов": 2462,
      "▁Га": 2463,
      "ив": 2464,
      "▁60": 2465,
      "▁ут": 2466,
      "▁189": 2467,
      "ступ": 2468,
      "АВ": 2469,
      "▁три": 2470,
      "▁21": 2471,
      "▁di": 2472,
      "▁тер": 2473,
      "А,": 2474,
      "атери": 2475,
      "▁кла": 2476,
      "сть,": 2477,
      "▁ов": 2478,
      "▁Се": 2479,
      "▁ад": 2480,
      "iss": 2481,
      "i,": 2482,
      "▁этого": 2483,
      "▁ки": 2484,
      "▁упо": 2485,
      "р1": 2486,
      "рон": 2487,
      "▁ей": 2488,
      "po": 2489,
      "▁подъ": 2490,
      "тъ,": 2491,
      "НО": 2492,
      "oro": 2493,
      "▁мѣ": 2494,
      "▁дву": 2495,
      "ae": 2496,
      "алъ": 2497,
      "рп": 2498,
      "▁80": 2499,
      "25": 2500,
      "емъ": 2501,
      "▁лу": 2502,
      "▁38": 2503,
      "▁35": 2504,
      "р-": 2505,
      "▁Чер": 2506,
      "▁com": 2507,
      "йть": 2508,
      "ег,": 2509,
      "ое": 2510,
      "лт": 2511,
      "▁много": 2512,
      "ложен": 2513,
      "▁34": 2514,
      "ников": 2515,
      "мп": 2516,
      "ае": 2517,
      "ро-": 2518,
      "енно": 2519,
      "го.": 2520,
      "ла.": 2521,
      "еп.": 2522,
      "ствов": 2523,
      "▁36": 2524,
      "реде": 2525,
      "▁вла": 2526,
      "ach": 2527,
      "▁цер": 2528,
      "pl": 2529,
      "▁каз": 2530,
      "▁свои": 2531,
      "евъ,": 2532,
      "еі": 2533,
      "'.": 2534,
      "мени": 2535,
      "▁ein": 2536,
      "р,": 2537,
      "▁зат": 2538,
      "▁друго": 2539,
      "▁ѵі": 2540,
      "▁испо": 2541,
      "▁жен": 2542,
      "▁St": 2543,
      "▁два": 2544,
      "▁46": 2545,
      "ку,": 2546,
      "ити": 2547,
      "ц.": 2548,
      "▁рав": 2549,
      "▁вь": 2550,
      "▁вто": 2551,
      "▁знач": 2552,
      "be": 2553,
      "вши": 2554,
      "ра.": 2555,
      "▁?": 2556,
      "1)": 2557,
      "ass": 2558,
      "личе": 2559,
      "▁°": 2560,
      "▁Нико": 2561,
      "▁Ру": 2562,
      "▁нап": 2563,
      "▁расп": 2564,
      "чат": 2565,
      "▁будет": 2566,
      "▁см": 2567,
      "рот": 2568,
      "пс": 2569,
      "▁доб": 2570,
      "▁обра": 2571,
      "гг": 2572,
      "ind": 2573,
      "▁говори": 2574,
      "▁91": 2575,
      "▁2,": 2576,
      "ay": 2577,
      "кое": 2578,
      "▁47": 2579,
      "▁37": 2580,
      "ети": 2581,
      "▁такъ": 2582,
      "Ь.": 2583,
      "▁сказ": 2584,
      "Ji": 2585,
      "▁%": 2586,
      "▁гл.": 2587,
      "шт": 2588,
      "22": 2589,
      "▁ПР": 2590,
      "нъ,": 2591,
      "▁кор": 2592,
      "оз": 2593,
      "рей": 2594,
      "▁Госпо": 2595,
      "▁190": 2596,
      "ф.": 2597,
      "a-": 2598,
      "▁был": 2599,
      "еге": 2600,
      "но.": 2601,
      "er.": 2602,
      "ов.": 2603,
      "ОЛ": 2604,
      "▁39": 2605,
      "**": 2606,
      "▁}": 2607,
      "▁кня": 2608,
      "▁43": 2609,
      "пі": 2610,
      "▁(С": 2611,
      "▁аи": 2612,
      "▁благо": 2613,
      "▁вид": 2614,
      "▁оу": 2615,
      "▁’": 2616,
      "ад": 2617,
      "▁100": 2618,
      "▁d'": 2619,
      "▁она": 2620,
      "ним": 2621,
      "OT": 2622,
      "1й": 2623,
      "лё": 2624,
      "▁дви": 2625,
      "щее": 2626,
      "▁каж": 2627,
      "▁ис": 2628,
      "рак": 2629,
      "e;": 2630,
      "▁тю": 2631,
      "▁дан": 2632,
      "ои": 2633,
      "га,": 2634,
      "▁иск": 2635,
      "▁буду": 2636,
      "ат.": 2637,
      "му,": 2638,
      "▁аа": 2639,
      "▁чере": 2640,
      "овой": 2641,
      "комъ": 2642,
      "▁помо": 2643,
      "▁(m": 2644,
      "▁стро": 2645,
      "ли.": 2646,
      "гн": 2647,
      "24": 2648,
      "s.": 2649,
      "ort": 2650,
      "лива": 2651,
      "OH": 2652,
      "▁НА": 2653,
      "▁185": 2654,
      "▁Пре": 2655,
      "▁году": 2656,
      "▁..": 2657,
      "▁и,": 2658,
      "▁Анд": 2659,
      "▁ие": 2660,
      "лв": 2661,
      "▁пла": 2662,
      "no": 2663,
      "д-": 2664,
      "▁дер.": 2665,
      "▁которо": 2666,
      "aK": 2667,
      "бъ": 2668,
      "▁обы": 2669,
      "ческой": 2670,
      "▁исп": 2671,
      "▁Гри": 2672,
      "1с": 2673,
      "ith": 2674,
      "стъ": 2675,
      "tre": 2676,
      "▁is": 2677,
      "ИС": 2678,
      "стре": 2679,
      "кая": 2680,
      "pr": 2681,
      "лк": 2682,
      "^.": 2683,
      "иться": 2684,
      "тт": 2685,
      "ок": 2686,
      "▁49": 2687,
      "ниц": 2688,
      "▁111": 2689,
      "▁45": 2690,
      "▁186": 2691,
      "уа": 2692,
      "!.": 2693,
      "▁at": 2694,
      "▁вѣ": 2695,
      "▁дере": 2696,
      "▁вра": 2697,
      "▁Де": 2698,
      "лб": 2699,
      "▁ху": 2700,
      "▁нас": 2701,
      "▁0.": 2702,
      "ет.": 2703,
      "▁сло": 2704,
      "имо": 2705,
      "▁Ге": 2706,
      "▁пар": 2707,
      "▁обла": 2708,
      "й-": 2709,
      "И.": 2710,
      "▁Пав": 2711,
      "ug": 2712,
      "ерн": 2713,
      "▁ор": 2714,
      "бря": 2715,
      "▁א": 2716,
      "▁Это": 2717,
      "▁Р.": 2718,
      "▁In": 2719,
      "▁32": 2720,
      "тро": 2721,
      "▁тя": 2722,
      "▁90": 2723,
      "▁іп": 2724,
      "▁сем": 2725,
      "▁жиз": 2726,
      "▁сч": 2727,
      "рии": 2728,
      "aT": 2729,
      "und": 2730,
      "▁собо": 2731,
      "▁1-": 2732,
      "ату": 2733,
      "▁рег": 2734,
      "бр": 2735,
      "que": 2736,
      "ОТ": 2737,
      "ло,": 2738,
      "щая": 2739,
      "▁Бе": 2740,
      "жден": 2741,
      "▁und": 2742,
      "70": 2743,
      "▁той": 2744,
      "▁Рос": 2745,
      "▁кап": 2746,
      "шки": 2747,
      "▁фи": 2748,
      "ain": 2749,
      "1^": 2750,
      "▁уп": 2751,
      "eHH": 2752,
      "хе": 2753,
      "▁1е": 2754,
      "чка": 2755,
      "ie,": 2756,
      "шн": 2757,
      "▁жа": 2758,
      "▁9.": 2759,
      "жде": 2760,
      "▁поз": 2761,
      "та.": 2762,
      "▁сред": 2763,
      "жъ": 2764,
      "она": 2765,
      "АС": 2766,
      "▁ги": 2767,
      "▁года": 2768,
      "▁губ": 2769,
      "ться": 2770,
      "рес": 2771,
      "ны.": 2772,
      "▁пр.": 2773,
      "y.": 2774,
      "▁l'": 2775,
      "си.": 2776,
      "(1": 2777,
      "▁Бог": 2778,
      "роб": 2779,
      "▁Ста": 2780,
      "ких": 2781,
      "aH": 2782,
      "▁моло": 2783,
      "▁(П": 2784,
      "▁Ав": 2785,
      "▁была": 2786,
      "▁а,": 2787,
      "ment": 2788,
      "лом": 2789,
      "▁42": 2790,
      "тн": 2791,
      "лі": 2792,
      "пъ": 2793,
      "hr": 2794,
      "ий": 2795,
      "aji": 2796,
      "ено": 2797,
      "tr": 2798,
      "▁мя": 2799,
      "ые": 2800,
      "▁теп": 2801,
      "ue": 2802,
      "▁ак": 2803,
      "ум": 2804,
      "▁Е.": 2805,
      "лиз": 2806,
      "▁va.": 2807,
      "▁уда": 2808,
      "▁час": 2809,
      "образ": 2810,
      "▁указ": 2811,
      "▁7.": 2812,
      "▁Пе": 2813,
      "▁ал": 2814,
      "CK": 2815,
      "никъ": 2816,
      "▁Иванъ": 2817,
      "▁ся": 2818,
      "нут": 2819,
      "ы.": 2820,
      "▁(f": 2821,
      "сти,": 2822,
      "ob": 2823,
      "▁Му": 2824,
      "том": 2825,
      "ier": 2826,
      "▁це": 2827,
      "▁(1": 2828,
      "ит,": 2829,
      "▁фун": 2830,
      "ke": 2831,
      "▁An": 2832,
      "рй": 2833,
      "▁ев": 2834,
      "шка": 2835,
      "▁имен": 2836,
      "▁я.": 2837,
      "ыва": 2838,
      "▁аг": 2839,
      "!е": 2840,
      "мби": 2841,
      "▁пря": 2842,
      "дав": 2843,
      "ых": 2844,
      "81": 2845,
      "ію": 2846,
      "▁вв": 2847,
      "ить.": 2848,
      "ительно": 2849,
      "per": 2850,
      "33": 2851,
      "яз": 2852,
      "лон": 2853,
      "▁сла": 2854,
      "бор": 2855,
      "лй": 2856,
      "дц": 2857,
      "кан": 2858,
      "▁него": 2859,
      "hh": 2860,
      "▁кри": 2861,
      "треб": 2862,
      "▁Пер": 2863,
      "▁ІІ": 2864,
      "▁XX": 2865,
      "рас": 2866,
      "Ь,": 2867,
      "--": 2868,
      "рс": 2869,
      "▁в.,": 2870,
      "щ.": 2871,
      "Ьа": 2872,
      "ud": 2873,
      "oe": 2874,
      "ов,": 2875,
      "90": 2876,
      "ше,": 2877,
      "пол": 2878,
      "шин": 2879,
      "——": 2880,
      "ОС": 2881,
      "шъ": 2882,
      "еи": 2883,
      "▁ден": 2884,
      "▁гор": 2885,
      "фор": 2886,
      "ец": 2887,
      "ло-": 2888,
      "▁Т.": 2889,
      "▁сте": 2890,
      "▁Il": 2891,
      "кла": 2892,
      "чер": 2893,
      "іе.": 2894,
      "▁den": 2895,
      "▁Кон": 2896,
      "i.": 2897,
      "рая": 2898,
      "ard": 2899,
      "ss": 2900,
      "ва.": 2901,
      "▁f.": 2902,
      "▁®": 2903,
      "ЕС": 2904,
      "іт": 2905,
      "ческих": 2906,
      "лъ,": 2907,
      "yn": 2908,
      "вый": 2909,
      "▁ra": 2910,
      "55": 2911,
      "той": 2912,
      "▁дей": 2913,
      "ure": 2914,
      "ании": 2915,
      "eb": 2916,
      "енъ": 2917,
      "o,": 2918,
      "НА": 2919,
      "▁184": 2920,
      "сколько": 2921,
      "▁который": 2922,
      "дом": 2923,
      "▁необ": 2924,
      "▁ver": 2925,
      "гор": 2926,
      "▁Ѳ": 2927,
      "готов": 2928,
      "каза": 2929,
      "^а": 2930,
      "▁С.,": 2931,
      "▁род": 2932,
      "▁Александ": 2933,
      "ux": 2934,
      "ема": 2935,
      "▁голов": 2936,
      "сь,": 2937,
      "▁обще": 2938,
      "▁ост": 2939,
      "▁14.": 2940,
      "▁сист": 2941,
      "р.,": 2942,
      "▁ar": 2943,
      "▁оста": 2944,
      "кто": 2945,
      "ичъ": 2946,
      "мит": 2947,
      "▁Б.": 2948,
      "▁Он": 2949,
      "▁более": 2950,
      "бв": 2951,
      "мат": 2952,
      "лд": 2953,
      "▁88": 2954,
      "▁Ки": 2955,
      "e-": 2956,
      "роп": 2957,
      "▁нов": 2958,
      "▁этой": 2959,
      "уп": 2960,
      "▁долж": 2961,
      "ten": 2962,
      "▁мн": 2963,
      "▁часть": 2964,
      "ды,": 2965,
      "▁Если": 2966,
      "ль-": 2967,
      "скихъ": 2968,
      "ph": 2969,
      "▁наз": 2970,
      "ОВЪ,": 2971,
      "▁Кар": 2972,
      "ui": 2973,
      "1Й": 2974,
      "лг": 2975,
      "ском": 2976,
      "▁свой": 2977,
      ">K": 2978,
      "нос": 2979,
      "рд": 2980,
      "емо": 2981,
      "eH": 2982,
      "ра-": 2983,
      "▁е.": 2984,
      "скому": 2985,
      "▁орг": 2986,
      "▁les": 2987,
      "oh": 2988,
      "▁высо": 2989,
      "▁части": 2990,
      "▁im": 2991,
      "АК": 2992,
      "ід": 2993,
      "йт": 2994,
      "дол": 2995,
      "▁913.": 2996,
      "cc": 2997,
      "можно": 2998,
      "ег.": 2999,
      "▁Ап": 3000,
      "сп.": 3001,
      "ью": 3002,
      "▁сов.": 3003,
      "ением": 3004,
      "▁ино": 3005,
      "▁буд": 3006,
      "▁очень": 3007,
      "шев": 3008,
      "▁оо": 3009,
      "гс": 3010,
      "ИЕ": 3011,
      "Г.": 3012,
      "!,": 3013,
      "▁кров": 3014,
      "'к": 3015,
      "пов": 3016,
      "ОК": 3017,
      "▁...": 3018,
      "▁Ли": 3019,
      "▁du": 3020,
      "ЕЛ": 3021,
      "ous": 3022,
      "▁суще": 3023,
      "▁p.": 3024,
      "▁особ": 3025,
      "ам": 3026,
      "▁СТ": 3027,
      "▁того,": 3028,
      "цо": 3029,
      "рован": 3030,
      "ками": 3031,
      "▁взя": 3032,
      "▁Никола": 3033,
      "ль,": 3034,
      "▁Те": 3035,
      "ck": 3036,
      "ord": 3037,
      "▁коро": 3038,
      "ловъ": 3039,
      "бав": 3040,
      "б,": 3041,
      "ваю": 3042,
      "▁(m)": 3043,
      "44": 3044,
      "стве": 3045,
      "▁соот": 3046,
      "▁уча": 3047,
      "шего": 3048,
      "▁точ": 3049,
      "ким": 3050,
      "га.": 3051,
      "▁тюр.": 3052,
      "▁Z": 3053,
      "стер": 3054,
      "▁опреде": 3055,
      "которы": 3056,
      "],": 3057,
      "TH": 3058,
      "xo": 3059,
      "ёть": 3060,
      "▁служ": 3061,
      "▁ще": 3062,
      "ье": 3063,
      "ЕД": 3064,
      "▁наход": 3065,
      "▁ab": 3066,
      "▁совер": 3067,
      "▁кто": 3068,
      "иі": 3069,
      "▁гре": 3070,
      "нима": 3071,
      "▁аб": 3072,
      "▁Сер": 3073,
      "▁169": 3074,
      "▁М.,": 3075,
      "ect": 3076,
      "▁Хо": 3077,
      "▁аз": 3078,
      "▁Ев": 3079,
      "т-": 3080,
      "ений": 3081,
      "лл": 3082,
      "p.": 3083,
      "▁Пос": 3084,
      "▁тех": 3085,
      "▁3,": 3086,
      "▁воло": 3087,
      "▁вп": 3088,
      "н-": 3089,
      "бов": 3090,
      "вш": 3091,
      "ти,": 3092,
      "^е": 3093,
      "уе": 3094,
      "77": 3095,
      "ИМ": 3096,
      "▁with": 3097,
      "▁всего": 3098,
      "▁может": 3099,
      "▁её": 3100,
      "стой": 3101,
      "^,": 3102,
      "кий": 3103,
      "ly": 3104,
      "лез": 3105,
      "▁уч.": 3106,
      "стран": 3107,
      "ііі": 3108,
      "стов": 3109,
      "НЫЙ": 3110,
      "▁68": 3111,
      "▁уе": 3112,
      "MH": 3113,
      "рож": 3114,
      "нич": 3115,
      "▁уг": 3116,
      "66": 3117,
      "ину": 3118,
      "нее": 3119,
      "▁Сем": 3120,
      "▁ѵ.": 3121,
      "ръ,": 3122,
      "BH": 3123,
      "цу": 3124,
      "али": 3125,
      "ѣ,": 3126,
      "вра": 3127,
      "1>": 3128,
      "▁by": 3129,
      "1п": 3130,
      "тен": 3131,
      "тво": 3132,
      "I,": 3133,
      "py": 3134,
      "▁ай": 3135,
      "▁фо": 3136,
      "▁ля": 3137,
      "ствую": 3138,
      "99": 3139,
      "ér": 3140,
      "▁руб": 3141,
      "▁свое": 3142,
      "ват": 3143,
      "▁Его": 3144,
      "каго": 3145,
      "скую": 3146,
      "П.": 3147,
      "▁око": 3148,
      "▁(д.": 3149,
      "▁иг": 3150,
      "▁sp": 3151,
      "▁я,": 3152,
      "ЕК": 3153,
      "▁Так": 3154,
      "▁живо": 3155,
      "▁мат": 3156,
      "▁Д.": 3157,
      "▁город": 3158,
      "вн": 3159,
      "▁функ": 3160,
      "BO": 3161,
      "38": 3162,
      "гап": 3163,
      "ство,": 3164,
      "\".": 3165,
      "ov": 3166,
      "▁Ин": 3167,
      "ною": 3168,
      "ca": 3169,
      "▁Вла": 3170,
      "рия": 3171,
      "чет": 3172,
      "цев": 3173,
      "35": 3174,
      "▁поло": 3175,
      "Н.": 3176,
      "▁поли": 3177,
      "▁же,": 3178,
      "скомъ": 3179,
      "веден": 3180,
      "ческие": 3181,
      "лага": 3182,
      "▁мет": 3183,
      "аса": 3184,
      "o-": 3185,
      "ыхъ": 3186,
      "▁31": 3187,
      "▁Ле": 3188,
      "лать": 3189,
      "▁00": 3190,
      "▁Пр": 3191,
      "▁I,": 3192,
      "полн": 3193,
      "▁состоя": 3194,
      "▁весь": 3195,
      "34": 3196,
      "▁тѣ": 3197,
      "▁est": 3198,
      "▁man": 3199,
      "▁хоро": 3200,
      "кс": 3201,
      "шп": 3202,
      "йте": 3203,
      "▁per": 3204,
      "▁зи": 3205,
      "▁(К": 3206,
      "бт": 3207,
      "яс": 3208,
      "блю": 3209,
      "кре": 3210,
      "en;": 3211,
      "ко-": 3212,
      "11.": 3213,
      "чн": 3214,
      "▁могу": 3215,
      "▁пог": 3216,
      "▁he": 3217,
      "ement": 3218,
      "руж": 3219,
      "щих": 3220,
      "28": 3221,
      "▁лег": 3222,
      "ИЛ": 3223,
      "ёт": 3224,
      "апа": 3225,
      "арь": 3226,
      "36": 3227,
      "▁é": 3228,
      "▁безъ": 3229,
      "▁раст": 3230,
      "▁(В": 3231,
      "ем,": 3232,
      "кие": 3233,
      "▁следу": 3234,
      "ставлен": 3235,
      "▁4,": 3236,
      "ht": 3237,
      "▁на-": 3238,
      "нуть": 3239,
      "1|": 3240,
      "26": 3241,
      "ские": 3242,
      "▁sh": 3243,
      "год": 3244,
      "▁70": 3245,
      "▁вос": 3246,
      "нен": 3247,
      "раб": 3248,
      "▁производ": 3249,
      "▁Ти": 3250,
      "ца.": 3251,
      "▁ход": 3252,
      "ti": 3253,
      "стей": 3254,
      "нес": 3255,
      "ВО": 3256,
      "ние": 3257,
      "гп": 3258,
      "льной": 3259,
      "TO": 3260,
      "▁вод": 3261,
      "48": 3262,
      "eM": 3263,
      "▁фа": 3264,
      "▁55": 3265,
      "▁Для": 3266,
      "гЬ": 3267,
      "▁das": 3268,
      "нк": 3269,
      "ших": 3270,
      "▁3)": 3271,
      "▁вас": 3272,
      "у-": 3273,
      "хай": 3274,
      "▁11.": 3275,
      "ению": 3276,
      "▁челове": 3277,
      "'^": 3278,
      "▁кис": 3279,
      "чъ": 3280,
      "вают": 3281,
      "б-": 3282,
      "111": 3283,
      "cr": 3284,
      "огда": 3285,
      "казыва": 3286,
      "скій,": 3287,
      "▁ца": 3288,
      "ковъ,": 3289,
      "АЛ": 3290,
      "ерь": 3291,
      "ann": 3292,
      "▁кол": 3293,
      "▁наро": 3294,
      "щей": 3295,
      "ремен": 3296,
      "▁^^": 3297,
      "27": 3298,
      "ма,": 3299,
      "▁Be": 3300,
      "инъ": 3301,
      "▁времени": 3302,
      "чина": 3303,
      "▁слова": 3304,
      "▁государ": 3305,
      "На": 3306,
      "ства,": 3307,
      "▁дав": 3308,
      "го-": 3309,
      "▁количе": 3310,
      "▁где": 3311,
      "ряд": 3312,
      "ЕЕ": 3313,
      "fe": 3314,
      "▁(f)": 3315,
      "▁Бы": 3316,
      "▁еди": 3317,
      "▁Миха": 3318,
      "▁смер": 3319,
      "▁них": 3320,
      "▁при-": 3321,
      "lich": 3322,
      "▁v.": 3323,
      "▁проти": 3324,
      "гат": 3325,
      "цъ,": 3326,
      "лит": 3327,
      "29": 3328,
      "▁(бо": 3329,
      "▁tr": 3330,
      "с1": 3331,
      "жо": 3332,
      "сла": 3333,
      "вест": 3334,
      "цион": 3335,
      "▁тек": 3336,
      "ская,": 3337,
      "▁na": 3338,
      "-го": 3339,
      "v.": 3340,
      "▁тра": 3341,
      "▁ци": 3342,
      "ерх": 3343,
      "▁сх": 3344,
      "▁луч": 3345,
      "ники": 3346,
      "▁этом": 3347,
      "едо": 3348,
      "▁ст.": 3349,
      "жь": 3350,
      "▁ber": 3351,
      "▁про-": 3352,
      "ien": 3353,
      "▁тель": 3354,
      "▁распо": 3355,
      "йе": 3356,
      "льт": 3357,
      "אַ": 3358,
      "рова": 3359,
      "воз": 3360,
      "▁проц": 3361,
      "вали": 3362,
      "47": 3363,
      "▁мона": 3364,
      "▁Ье": 3365,
      "ex": 3366,
      "▁перво": 3367,
      "37": 3368,
      "▁ез": 3369,
      "▁древ": 3370,
      "в-": 3371,
      "лод": 3372,
      "▁ея": 3373,
      "стин": 3374,
      "ись": 3375,
      "▁раство": 3376,
      "ледов": 3377,
      "▁Ча": 3378,
      "▁til": 3379,
      "▁Мат": 3380,
      "1Я": 3381,
      "▁(М": 3382,
      "ис.": 3383,
      "jib": 3384,
      "▁сре": 3385,
      "se": 3386,
      "аі": 3387,
      "▁мар": 3388,
      "▁о.": 3389,
      "мм": 3390,
      "na": 3391,
      "ане": 3392,
      "во,": 3393,
      "есо": 3394,
      "▁матери": 3395,
      "тр": 3396,
      "iz": 3397,
      "i-": 3398,
      "▁н.": 3399,
      "▁66": 3400,
      "вь": 3401,
      "ду,": 3402,
      "of": 3403,
      "О,": 3404,
      "▁чем": 3405,
      "▁спе": 3406,
      "sch": 3407,
      "чев": 3408,
      "ія,": 3409,
      "▁Ту": 3410,
      "▁иа": 3411,
      "▁Все": 3412,
      "▁81": 3413,
      "вается": 3414,
      "▁глав": 3415,
      "▁одно": 3416,
      "к-": 3417,
      "дель": 3418,
      "▁Хри": 3419,
      "▁ву": 3420,
      "אָ": 3421,
      "1'": 3422,
      "Т.": 3423,
      "▁услов": 3424,
      "сно": 3425,
      "▁ou": 3426,
      ";—": 3427,
      "И,": 3428,
      "▁своего": 3429,
      "rom": 3430,
      "▁авто": 3431,
      "▁необходи": 3432,
      "ты,": 3433,
      "ont": 3434,
      "над": 3435,
      "▁зав": 3436,
      "▁wh": 3437,
      "JI": 3438,
      "▁одна": 3439,
      "▁41": 3440,
      "-то": 3441,
      "▁дв": 3442,
      "▁(у": 3443,
      "чо": 3444,
      "39": 3445,
      "бя": 3446,
      "ate": 3447,
      "АЗ": 3448,
      "ער": 3449,
      "▁(в": 3450,
      "▁Ос": 3451,
      "мов": 3452,
      "ля,": 3453,
      "▁Ф.": 3454,
      "▁тол": 3455,
      "▁10.": 3456,
      "ють": 3457,
      "ни,": 3458,
      "▁бол": 3459,
      "▁pe": 3460,
      "▁пись": 3461,
      "лить": 3462,
      "чной": 3463,
      "▁себя": 3464,
      "45": 3465,
      "рк": 3466,
      "▁Лу": 3467,
      "слов": 3468,
      "зем": 3469,
      "▁(по": 3470,
      "▁выше": 3471,
      "аза": 3472,
      "▁даже": 3473,
      "един": 3474,
      "▁внут": 3475,
      "еу": 3476,
      "n,": 3477,
      "ева": 3478,
      "лла": 3479,
      "I.": 3480,
      "▁осо": 3481,
      "|)": 3482,
      "рог": 3483,
      "▁сви": 3484,
      "▁роз": 3485,
      "аго": 3486,
      "ען": 3487,
      "ющих": 3488,
      "▁65": 3489,
      "▁всех": 3490,
      "АД": 3491,
      "шая": 3492,
      "сй": 3493,
      "▁содерж": 3494,
      "дё": 3495,
      "▁заклю": 3496,
      "тур": 3497,
      "▁тогда": 3498,
      "▁НЕ": 3499,
      "KH": 3500,
      "ін": 3501,
      "▁Кор": 3502,
      "▁Ду": 3503,
      "▁200": 3504,
      "рить": 3505,
      "▁опис": 3506,
      "▁Ок": 3507,
      "ХХ": 3508,
      "бот": 3509,
      "обра": 3510,
      "ing,": 3511,
      "Ka": 3512,
      "ast": 3513,
      "▁спи": 3514,
      "кн": 3515,
      "вов": 3516,
      "▁Од": 3517,
      "46": 3518,
      "боль": 3519,
      "рег": 3520,
      "кихъ": 3521,
      "▁ото": 3522,
      ".-": 3523,
      "рит": 3524,
      "п-": 3525,
      "78": 3526,
      "▁Василь": 3527,
      "атъ": 3528,
      "т.)": 3529,
      "▁En": 3530,
      "jie": 3531,
      "▁лет": 3532,
      "Ш,": 3533,
      "новъ": 3534,
      "тера": 3535,
      "огра": 3536,
      "▁отд.": 3537,
      "вит": 3538,
      "ll": 3539,
      "ения,": 3540,
      "▁пы": 3541,
      "пт": 3542,
      "ку.": 3543,
      "ди,": 3544,
      "бл": 3545,
      "м-": 3546,
      "ИЧ": 3547,
      "▁Рус": 3548,
      "▁ня": 3549,
      "▁оди": 3550,
      "TB": 3551,
      "рез": 3552,
      "лот": 3553,
      "▁170": 3554,
      "ur,": 3555,
      "▁Ака": 3556,
      "роз": 3557,
      "сш": 3558,
      "▁Ла": 3559,
      "▁У.,": 3560,
      "▁бере": 3561,
      "▁называ": 3562,
      "▁поль": 3563,
      "▁глу": 3564,
      "▁тот": 3565,
      "HHH": 3566,
      "стоян": 3567,
      "enn": 3568,
      "▁полож": 3569,
      "ong": 3570,
      "▁меня": 3571,
      "пр": 3572,
      "льный": 3573,
      "вен": 3574,
      "няя": 3575,
      "іш": 3576,
      "ар.": 3577,
      "авъ": 3578,
      "еръ": 3579,
      "бира": 3580,
      "рово": 3581,
      "▁кры": 3582,
      "▁II,": 3583,
      "yp": 3584,
      "▁1о": 3585,
      "▁Пи": 3586,
      "onn": 3587,
      "▁ap": 3588,
      "▁своей": 3589,
      "сут": 3590,
      "ао": 3591,
      "49": 3592,
      "▁Как": 3593,
      "▁56": 3594,
      "▁вопро": 3595,
      "▁народ": 3596,
      "ОБ": 3597,
      "',": 3598,
      "▁Чи": 3599,
      "ческого": 3600,
      "▁жел": 3601,
      "▁свою": 3602,
      "мф": 3603,
      "ния": 3604,
      "ІЙ": 3605,
      "▁nep": 3606,
      "бург": 3607,
      "чить": 3608,
      "сѣ": 3609,
      "▁ео": 3610,
      "шли": 3611,
      "▁IV": 3612,
      "is,": 3613,
      "▁тов": 3614,
      "ма.": 3615,
      "▁ит": 3616,
      "Ьег": 3617,
      "▁водо": 3618,
      "АТИ": 3619,
      "ond": 3620,
      "▁возможно": 3621,
      "▁исполь": 3622,
      "^о": 3623,
      "зі": 3624,
      "▁part.": 3625,
      "иц": 3626,
      "дъ,": 3627,
      "мина": 3628,
      "▁58": 3629,
      "сі.": 3630,
      "▁ое": 3631,
      "▁тор": 3632,
      "вар": 3633,
      "▁согла": 3634,
      "jiH": 3635,
      "ходя": 3636,
      "▁четы": 3637,
      "въ,": 3638,
      "▁99": 3639,
      "пас": 3640,
      "нг": 3641,
      "іф": 3642,
      "▁Ьа": 3643,
      "ческая": 3644,
      "▁ой": 3645,
      "мби;": 3646,
      "1:": 3647,
      "▁po": 3648,
      "cn": 3649,
      "са,": 3650,
      "▁ох": 3651,
      "▁различ": 3652,
      "▁против": 3653,
      "ены": 3654,
      "▁том": 3655,
      "CH": 3656,
      "▁мал": 3657,
      "▁5,": 3658,
      "):": 3659,
      "нт": 3660,
      "▁as": 3661,
      "▁управ": 3662,
      "▁сит": 3663,
      "дела": 3664,
      "b.": 3665,
      "гово": 3666,
      "▁прави": 3667,
      "23": 3668,
      "▁органи": 3669,
      "▁pa": 3670,
      "()": 3671,
      "▁которой": 3672,
      "▁Пред": 3673,
      "▁Аи": 3674,
      "1в": 3675,
      "ée,": 3676,
      "▁нем": 3677,
      "са.": 3678,
      "щий": 3679,
      "▁лишь": 3680,
      "ore": 3681,
      "▁недо": 3682,
      "С.": 3683,
      "ire": 3684,
      "рук": 3685,
      "bie": 3686,
      "▁fam": 3687,
      "город": 3688,
      "лия": 3689,
      "▁ао": 3690,
      "ственно": 3691,
      "вает": 3692,
      "▁сох": 3693,
      "пл": 3694,
      "▁а4": 3695,
      "d.": 3696,
      "▁пти": 3697,
      "▁Би": 3698,
      "чис": 3699,
      "▁XV": 3700,
      "▁мало": 3701,
      "нять": 3702,
      "рм": 3703,
      "В.": 3704,
      "жн": 3705,
      "ст,": 3706,
      "▁эта": 3707,
      "art": 3708,
      "▁является": 3709,
      "еди": 3710,
      "▁пара": 3711,
      "лик": 3712,
      "▁(а": 3713,
      "▁действ": 3714,
      "▁bie": 3715,
      "омъ": 3716,
      "гб": 3717,
      "же,": 3718,
      "it,": 3719,
      "сти.": 3720,
      "сер": 3721,
      "76": 3722,
      "О.": 3723,
      "▁ней": 3724,
      "слу": 3725,
      "▁то,": 3726,
      "▁былъ": 3727,
      "▁проис": 3728,
      "пя": 3729,
      "▁ד": 3730,
      "▁Ри": 3731,
      "b,": 3732,
      "сю": 3733,
      "-,": 3734,
      "чный": 3735,
      "eT": 3736,
      "▁лѣ": 3737,
      "кою": 3738,
      "тб": 3739,
      "▁Что": 3740,
      "▁Тро": 3741,
      "▁вЪ": 3742,
      "▁большо": 3743,
      "леж": 3744,
      "▁зъ": 3745,
      "omm": 3746,
      "дать": 3747,
      "ати,": 3748,
      "вал": 3749,
      "ев.": 3750,
      "мі": 3751,
      "ности,": 3752,
      "УТ": 3753,
      "пра": 3754,
      "ОГ": 3755,
      "▁Мы": 3756,
      "iu": 3757,
      "вое": 3758,
      "г-": 3759,
      "én": 3760,
      "ющие": 3761,
      "▁часто": 3762,
      "▁стан": 3763,
      "▁Федо": 3764,
      "ен.": 3765,
      "▁шо": 3766,
      "ert": 3767,
      "▁нѣ": 3768,
      "▁Sch": 3769,
      "21": 3770,
      "▁//": 3771,
      "és": 3772,
      "ове": 3773,
      "кви": 3774,
      "чки": 3775,
      "ау": 3776,
      "▁Мак": 3777,
      "лять": 3778,
      "4е": 3779,
      "▁ии": 3780,
      "рш": 3781,
      "▁томъ": 3782,
      "▁ды": 3783,
      "▁V.": 3784,
      "гт": 3785,
      "вать.": 3786,
      "По": 3787,
      "бн": 3788,
      "ется,": 3789,
      "▁2-": 3790,
      "зан": 3791,
      "Д.": 3792,
      "чение": 3793,
      "▁86": 3794,
      "▁Un": 3795,
      "СА": 3796,
      "ры,": 3797,
      "ний": 3798,
      "01": 3799,
      "▁Нов": 3800,
      "ef": 3801,
      "98": 3802,
      "Не": 3803,
      "ш-": 3804,
      "кло": 3805,
      "р^": 3806,
      "кти": 3807,
      "▁so": 3808,
      "ле-": 3809,
      "▁ед": 3810,
      "ства.": 3811,
      "▁(19": 3812,
      "мин": 3813,
      "▁пас": 3814,
      "▁дли": 3815,
      "▁The": 3816,
      "▁ъ": 3817,
      "▁it": 3818,
      "▁Ди": 3819,
      "ОП": 3820,
      "▁(А": 3821,
      "▁нау": 3822,
      "ешь": 3823,
      "▁qui": 3824,
      "ВА": 3825,
      "▁йе": 3826,
      "яти": 3827,
      "горо": 3828,
      "бй": 3829,
      "кп": 3830,
      "▁(18": 3831,
      "es.": 3832,
      "ys": 3833,
      "▁Михаи": 3834,
      "▁bl": 3835,
      "дко": 3836,
      "▁состав": 3837,
      "это": 3838,
      "гли": 3839,
      "icht": 3840,
      "▁une": 3841,
      "▁сд": 3842,
      "рий": 3843,
      "▁τ": 3844,
      "▁о,": 3845,
      "31": 3846,
      "ску": 3847,
      "▁яко": 3848,
      "75": 3849,
      "▁гг.": 3850,
      "ерт": 3851,
      "▁gr": 3852,
      "шй": 3853,
      "▁me": 3854,
      "▁med": 3855,
      "нии": 3856,
      "Р.": 3857,
      "▁рга": 3858,
      "▁Степ": 3859,
      "▁мило": 3860,
      "▁ш.": 3861,
      "uc": 3862,
      "▁дет": 3863,
      "ромъ": 3864,
      "▁ОТ": 3865,
      "▁Зо": 3866,
      "сков": 3867,
      "us,": 3868,
      "▁Фев": 3869,
      "щие": 3870,
      "▁откры": 3871,
      "are": 3872,
      "ym": 3873,
      "ox": 3874,
      "чё": 3875,
      "▁полов": 3876,
      "есі": 3877,
      "▁наи": 3878,
      "ница": 3879,
      "▁най": 3880,
      "▁Васил": 3881,
      "кв": 3882,
      "ben": 3883,
      "зда": 3884,
      "iH": 3885,
      "▁памя": 3886,
      "личи": 3887,
      "щаго": 3888,
      "ары": 3889,
      "▁посл": 3890,
      "anc": 3891,
      "▁(на": 3892,
      "▁пода": 3893,
      "рет": 3894,
      "еве": 3895,
      "▁зако": 3896,
      "ИЙ": 3897,
      "▁поро": 3898,
      "▁85": 3899,
      "iqu": 3900,
      "▁one": 3901,
      "▁заво": 3902,
      "▁порт": 3903,
      "ды.": 3904,
      "▁истори": 3905,
      "мЪ": 3906,
      "ust": 3907,
      "шш": 3908,
      "int": 3909,
      "▁вов": 3910,
      "▁всѣ": 3911,
      "▁губерн": 3912,
      "▁пост": 3913,
      "▁доро": 3914,
      "▁через": 3915,
      "▁уз": 3916,
      "▁бес": 3917,
      "oB": 3918,
      "▁Ch": 3919,
      "▁ль": 3920,
      "лены": 3921,
      "▁сь": 3922,
      ".)": 3923,
      "▁Гра": 3924,
      "▁ков": 3925,
      "ческий": 3926,
      "кимъ": 3927,
      "есь": 3928,
      "32": 3929,
      "▁оть": 3930,
      "-.": 3931,
      "▁Сов": 3932,
      "▁употреб": 3933,
      "еру": 3934,
      "▁раг": 3935,
      "▁(бот.)": 3936,
      "che": 3937,
      "ави": 3938,
      "▁Михай": 3939,
      "▁исс": 3940,
      "41": 3941,
      "▁каче": 3942,
      "08": 3943,
      "У.": 3944,
      "Іі": 3945,
      "▁Рас": 3946,
      "▁(Т": 3947,
      "дем": 3948,
      "▁es": 3949,
      "ction": 3950,
      "▁сере": 3951,
      "ность,": 3952,
      "▁подо": 3953,
      "▁торг": 3954,
      "▁©.": 3955,
      "▁Le": 3956,
      "ЫЙ": 3957,
      "▁тб": 3958,
      "up": 3959,
      "раль": 3960,
      "▁4)": 3961,
      "▁мин": 3962,
      "рем": 3963,
      "▁пб": 3964,
      "ная,": 3965,
      "щего": 3966,
      "▁тоб": 3967,
      "уо": 3968,
      "ряж": 3969,
      "рин": 3970,
      "ern": 3971,
      "'ь": 3972,
      "шее": 3973,
      "▁Ивановъ": 3974,
      "ub": 3975,
      "пй": 3976,
      "ч-": 3977,
      "oll": 3978,
      "▁ана": 3979,
      "сказ": 3980,
      "ok": 3981,
      "рам": 3982,
      "▁хай": 3983,
      "▁вар": 3984,
      "ші": 3985,
      "ik": 3986,
      "▁Им": 3987,
      "уд": 3988,
      "ляр": 3989,
      "КА": 3990,
      "▁зн": 3991,
      "▁Каз": 3992,
      "ло.": 3993,
      "▁установ": 3994,
      "еги": 3995,
      "▁Фи": 3996,
      "▁самы": 3997,
      "ц,": 3998,
      "itt": 3999,
      "▁Андре": 4000,
      "▁пока": 4001,
      "сть.": 4002,
      "▁(Л": 4003,
      "Ьо": 4004,
      "▁сна": 4005,
      "▁гд": 4006,
      "▁соответ": 4007,
      "42": 4008,
      "▁пой": 4009,
      "цк": 4010,
      "96": 4011,
      "aj": 4012,
      "95": 4013,
      "▁Лю": 4014,
      "ческое": 4015,
      "aire": 4016,
      "▁непо": 4017,
      "▁сли": 4018,
      "ve": 4019,
      "▁(О": 4020,
      "▁пес": 4021,
      "▁(3": 4022,
      "нова": 4023,
      "лемен": 4024,
      "ige": 4025,
      "cl": 4026,
      "▁ид": 4027,
      "сят": 4028,
      "▁кисло": 4029,
      "г^": 4030,
      "гй": 4031,
      "/913": 4032,
      "▁ВЪ": 4033,
      "IN": 4034,
      "▁руб.": 4035,
      "▁paa": 4036,
      "▁Ar": 4037,
      "AH": 4038,
      "кси": 4039,
      "чит": 4040,
      "ги,": 4041,
      "▁Прав": 4042,
      ";.": 4043,
      "▁процес": 4044,
      "ваго": 4045,
      "лый": 4046,
      "▁all": 4047,
      "М.": 4048,
      "▁ув": 4049,
      "л^": 4050,
      "▁перед": 4051,
      "никъ,": 4052,
      "▁син": 4053,
      "▁«С": 4054,
      "ея": 4055,
      "ха,": 4056,
      "ѣй": 4057,
      "▁us": 4058,
      "▁дела": 4059,
      "▁прос": 4060,
      "▁мор": 4061,
      "03": 4062,
      "ятся": 4063,
      "тин": 4064,
      "▁Петръ": 4065,
      "овая": 4066,
      "егда": 4067,
      "▁представля": 4068,
      "▁способ": 4069,
      "йа": 4070,
      "іу": 4071,
      "1з": 4072,
      "стато": 4073,
      "пь": 4074,
      "▁зд": 4075,
      "▁либо": 4076,
      "ево": 4077,
      "▁имъ": 4078,
      "▁q": 4079,
      "▁пит": 4080,
      "шаго": 4081,
      "▁Ьу": 4082,
      "!я": 4083,
      "▁(см.": 4084,
      "1е,": 4085,
      "▁Ис": 4086,
      "рА": 4087,
      "▁вет": 4088,
      "▁6,": 4089,
      "KO": 4090,
      "Я,": 4091,
      "▁Ио": 4092,
      "▁бли": 4093,
      "▁ум": 4094,
      "1Ь": 4095,
      "▁коне": 4096,
      "рую": 4097,
      "шв": 4098,
      "▁ИЗ": 4099,
      "▁195": 4100,
      "▁Я.": 4101,
      "18.": 4102,
      "епе": 4103,
      "▁кан": 4104,
      "пад": 4105,
      "▁ХУ": 4106,
      "чается": 4107,
      "с^": 4108,
      "▁бѣ": 4109,
      "▁Дмит": 4110,
      "▁sa": 4111,
      "еви": 4112,
      "▁четыре": 4113,
      "аться,": 4114,
      "ляются": 4115,
      "▁Влади": 4116,
      "on,": 4117,
      "▁хи": 4118,
      "ія.": 4119,
      "НИ": 4120,
      "▁оно": 4121,
      "▁Ой": 4122,
      "▁сооб": 4123,
      "▁~": 4124,
      "епи": 4125,
      "ті": 4126,
      "\",": 4127,
      "▁многи": 4128,
      "▁sc": 4129,
      "▁худо": 4130,
      "рф": 4131,
      "стья": 4132,
      "йн": 4133,
      "▁сва": 4134,
      "▁наблю": 4135,
      "Е,": 4136,
      "▁одной": 4137,
      "▁von": 4138,
      "▁ау": 4139,
      "▁монасты": 4140,
      "▁Кан": 4141,
      "▁/.": 4142,
      "етъ,": 4143,
      "ѵе": 4144,
      "пн": 4145,
      "шения": 4146,
      "-к": 4147,
      "▁хотя": 4148,
      "▁Q": 4149,
      "лой": 4150,
      "^'": 4151,
      "ж-": 4152,
      "ятель": 4153,
      "86": 4154,
      "шк": 4155,
      "ках": 4156,
      ".....": 4157,
      "▁Вар": 4158,
      "ero": 4159,
      "age": 4160,
      "▁необходимо": 4161,
      "мб": 4162,
      "▁реак": 4163,
      "▁продол": 4164,
      "|.": 4165,
      "епа": 4166,
      "шие": 4167,
      "▁12.": 4168,
      "▁год": 4169,
      "ныхь": 4170,
      "▁золо": 4171,
      "ign": 4172,
      "▁ной": 4173,
      "ost": 4174,
      "bix": 4175,
      "▁adv.": 4176,
      "▁крас": 4177,
      "▁10,": 4178,
      "et,": 4179,
      "рах": 4180,
      "▁аре": 4181,
      "йств": 4182,
      "ю-": 4183,
      "▁........": 4184,
      "▁ный": 4185,
      "▁57": 4186,
      "ah": 4187,
      "▁оГ": 4188,
      "▁om": 4189,
      "▁его,": 4190,
      "▁А,": 4191,
      "вс": 4192,
      "▁ji": 4193,
      "▁оц": 4194,
      "ля.": 4195,
      "05": 4196,
      "▁Гу": 4197,
      "бит": 4198,
      "вЪ": 4199,
      "er;": 4200,
      "кь": 4201,
      "▁am": 4202,
      "ни.": 4203,
      "▁ибо": 4204,
      "▁ist": 4205,
      "▁Аб": 4206,
      "▁пери": 4207,
      "▁около": 4208,
      "РА": 4209,
      "▁ВО": 4210,
      "▁84": 4211,
      "▁печ": 4212,
      "▁Ч.": 4213,
      "▁Ад": 4214,
      "▁вн": 4215,
      "кому": 4216,
      "▁людей": 4217,
      "▁за-": 4218,
      "нуть,": 4219,
      "▁вин": 4220,
      "▁Свя": 4221,
      "▁Ха": 4222,
      "ыя": 4223,
      "▁Нап": 4224,
      "▁опу": 4225,
      "рЪ": 4226,
      "aB": 4227,
      "пд": 4228,
      "тери": 4229,
      "ях": 4230,
      "▁914": 4231,
      "▁Ло": 4232,
      "▁ть": 4233,
      "▁77": 4234,
      "ре,": 4235,
      "евич": 4236,
      "ступа": 4237,
      "мыш": 4238,
      "▁АН": 4239,
      "ций": 4240,
      "лем": 4241,
      "ing.": 4242,
      "я-": 4243,
      "▁фак": 4244,
      "▁вот": 4245,
      "ющий": 4246,
      "▁ров": 4247,
      "ite": 4248,
      "▁р.)": 4249,
      "СС": 4250,
      "кру": 4251,
      "дие": 4252,
      "іемъ": 4253,
      "▁зан": 4254,
      "бод": 4255,
      "цов": 4256,
      "pt": 4257,
      "▁bo": 4258,
      "▁o6": 4259,
      "Е.": 4260,
      "▁ОБ": 4261,
      "▁915.": 4262,
      "▁Зап": 4263,
      "—19": 4264,
      "рус": 4265,
      "чи,": 4266,
      "▁пат": 4267,
      "▁Іо": 4268,
      "йо": 4269,
      "▁m.": 4270,
      "▁уст": 4271,
      "|1": 4272,
      "пор": 4273,
      "▁другой": 4274,
      "ружи": 4275,
      "томъ": 4276,
      "пля": 4277,
      "▁рі": 4278,
      "▁69": 4279,
      "MM": 4280,
      "yc": 4281,
      "▁8,": 4282,
      "чего": 4283,
      "▁чего": 4284,
      "▁сі": 4285,
      "иться,": 4286,
      "▁рѣ": 4287,
      "▁59": 4288,
      "▁должно": 4289,
      "▁ent": 4290,
      "le,": 4291,
      "▁сего": 4292,
      "бер": 4293,
      "СН": 4294,
      "▁глаго": 4295,
      "▁Зе": 4296,
      "▁Фо": 4297,
      "яя": 4298,
      "▁sur": 4299,
      "▁are": 4300,
      "кат": 4301,
      "хар": 4302,
      "▁פ": 4303,
      "э;": 4304,
      "▁став": 4305,
      "▁част": 4306,
      "▁потому": 4307,
      "ОЖ": 4308,
      "▁сей": 4309,
      "▁Ор": 4310,
      "мень": 4311,
      "ф,": 4312,
      "we": 4313,
      "мой": 4314,
      "▁Іі": 4315,
      "▁Сен": 4316,
      "ти.": 4317,
      "аш": 4318,
      "▁‹": 4319,
      "д.).": 4320,
      "▁75": 4321,
      "▁окон": 4322,
      "▁Григо": 4323,
      "▁восп": 4324,
      "▁один": 4325,
      "чай": 4326,
      "▁98": 4327,
      "▁наши": 4328,
      "▁города": 4329,
      "▁H3": 4330,
      "▁сказал": 4331,
      "ій.": 4332,
      "▁fam.": 4333,
      "ль.": 4334,
      "▁Съ": 4335,
      "▁сен": 4336,
      "рое": 4337,
      "▁Гор": 4338,
      "гё": 4339,
      "▁пор": 4340,
      "br": 4341,
      "▁ко-": 4342,
      "▁dé": 4343,
      "tem": 4344,
      "ле,": 4345,
      "par": 4346,
      "▁напис": 4347,
      "▁со-": 4348,
      "▁Вели": 4349,
      "▁б.": 4350,
      "емь": 4351,
      "IO": 4352,
      "▁которых": 4353,
      "tt": 4354,
      "либо": 4355,
      "ге,": 4356,
      "ci": 4357,
      "дели": 4358,
      "йс": 4359,
      "▁степ": 4360,
      "дств": 4361,
      "▁ново": 4362,
      "4-": 4363,
      "то,": 4364,
      "ive": 4365,
      "ев,": 4366,
      "uch": 4367,
      "ИВ": 4368,
      "▁совершен": 4369,
      "▁одного": 4370,
      "пер": 4371,
      "65": 4372,
      "фу": 4373,
      "з-": 4374,
      "сси": 4375,
      "▁Когда": 4376,
      "▁(Б": 4377,
      "▁должны": 4378,
      "▁ЕЕ": 4379,
      "▁hto": 4380,
      "ню": 4381,
      "▁которая": 4382,
      "gen": 4383,
      "▁кн.": 4384,
      "▁принад": 4385,
      "хан": 4386,
      "▁noc": 4387,
      "▁ство": 4388,
      "Ве": 4389,
      "вт": 4390,
      "ения.": 4391,
      "▁87": 4392,
      "▁Москов": 4393,
      "▁Без": 4394,
      "ИД": 4395,
      "erm": 4396,
      "▁нет": 4397,
      "▁вол": 4398,
      "pos": 4399,
      "ors": 4400,
      "▁1п": 4401,
      "▁нам": 4402,
      "▁ради": 4403,
      "▁дерев": 4404,
      "дой": 4405,
      "ix": 4406,
      "▁право": 4407,
      "▁этих": 4408,
      "Ha": 4409,
      "ные,": 4410,
      "▁дово": 4411,
      "▁ое,": 4412,
      "▁(Р": 4413,
      "▁уве": 4414,
      "гоп": 4415,
      "кі": 4416,
      "ко.": 4417,
      "Ко": 4418,
      "▁хра": 4419,
      "кѣ": 4420,
      "ной,": 4421,
      "тора": 4422,
      "лова": 4423,
      "ёв": 4424,
      "▁ника": 4425,
      "Но": 4426,
      "▁av": 4427,
      "ies": 4428,
      "цию": 4429,
      "ОЙ": 4430,
      "▁67": 4431,
      "85": 4432,
      "yr": 4433,
      "че-": 4434,
      "▁наг": 4435,
      "pH": 4436,
      "o.": 4437,
      "щу": 4438,
      "▁представ": 4439,
      "ано": 4440,
      "▁верх": 4441,
      "▁окру": 4442,
      "▁пот": 4443,
      "ат,": 4444,
      "▁направ": 4445,
      "▁Ша": 4446,
      "ностью": 4447,
      "▁резу": 4448,
      "▁53": 4449,
      "тый": 4450,
      "▁ая,": 4451,
      "ри,": 4452,
      "▁коло": 4453,
      "!»": 4454,
      "▁дня": 4455,
      "orm": 4456,
      "е;": 4457,
      "ég": 4458,
      "▁лов": 4459,
      "ed,": 4460,
      "гл": 4461,
      "бой": 4462,
      "ze": 4463,
      "ыт": 4464,
      "▁ил": 4465,
      "лава": 4466,
      "▁іо": 4467,
      "▁52": 4468,
      "ion,": 4469,
      "▁приня": 4470,
      "▁89": 4471,
      "▁54": 4472,
      "Ьі": 4473,
      "чных": 4474,
      "▁гро": 4475,
      "ше.": 4476,
      "ОВЪ": 4477,
      "ИХ": 4478,
      "▁95": 4479,
      "▁нихъ": 4480,
      "▁е1": 4481,
      "▁тому": 4482,
      "ение,": 4483,
      "......": 4484,
      "unt": 4485,
      "▁not": 4486,
      "туры": 4487,
      "▁запис": 4488,
      "IV": 4489,
      "▁ен": 4490,
      "Ъе": 4491,
      "иту": 4492,
      "▁96": 4493,
      "▁16.": 4494,
      "ЕЛЬ": 4495,
      ",,": 4496,
      "льная": 4497,
      "ig.": 4498,
      "Ьеп": 4499,
      "▁mo": 4500,
      "▁гов": 4501,
      "АА": 4502,
      "▁подоб": 4503,
      "овые": 4504,
      "▁auf": 4505,
      "ЕСТ": 4506,
      "▁измен": 4507,
      "ну,": 4508,
      "▁(г": 4509,
      "▁почти": 4510,
      "вые": 4511,
      "тъ.": 4512,
      "▁ge": 4513,
      "зс": 4514,
      "лки": 4515,
      "▁др.": 4516,
      "льные": 4517,
      "▁вме": 4518,
      "▁Ё": 4519,
      "uf": 4520,
      "▁стать": 4521,
      "▁13.": 4522,
      "ene": 4523,
      "in,": 4524,
      "пг": 4525,
      "домъ": 4526,
      "▁Кі": 4527,
      "кро": 4528,
      "ходит": 4529,
      "▁харак": 4530,
      "▁уго": 4531,
      "1!": 4532,
      "иш": 4533,
      "▁dans": 4534,
      "▁стоя": 4535,
      "▁ся,": 4536,
      "держи": 4537,
      "▁Цар": 4538,
      "▁ac": 4539,
      "▁извест": 4540,
      "▁15.": 4541,
      "чей": 4542,
      "ish": 4543,
      "лле": 4544,
      "▁Фа": 4545,
      "▁исследов": 4546,
      "бб": 4547,
      "ibus": 4548,
      "риз": 4549,
      "хв": 4550,
      "elle": 4551,
      "▁(Г": 4552,
      "▁госпо": 4553,
      "них": 4554,
      "тй": 4555,
      "куп": 4556,
      "▁ѵісі.": 4557,
      "▁всегда": 4558,
      "что": 4559,
      "▁ем": 4560,
      "чная": 4561,
      "лено": 4562,
      "тп": 4563,
      "ре-": 4564,
      "ритель": 4565,
      "ши,": 4566,
      "фф": 4567,
      "▁дов": 4568,
      "▁не-": 4569,
      "сит": 4570,
      "▁настоя": 4571,
      "гв": 4572,
      "ство.": 4573,
      "▁бла": 4574,
      "хаз": 4575,
      "ым": 4576,
      "▁щи": 4577,
      "ался": 4578,
      "ТО": 4579,
      "^и": 4580,
      "▁бума": 4581,
      "▁имѣ": 4582,
      "ск,": 4583,
      "▁имя": 4584,
      "е1": 4585,
      "ait": 4586,
      "▁іЬе": 4587,
      "кова": 4588,
      "анием": 4589,
      "▁темпера": 4590,
      "▁наш": 4591,
      "дар": 4592,
      "▁помощ": 4593,
      "см": 4594,
      "▁78": 4595,
      "▁работа": 4596,
      "во-": 4597,
      "▁СО": 4598,
      "ць": 4599,
      "▁——": 4600,
      "▁(и": 4601,
      "Т,": 4602,
      "▁915": 4603,
      "▁npe": 4604,
      "шение": 4605,
      "▁br": 4606,
      "доров": 4607,
      "▁прода": 4608,
      "Л.": 4609,
      "▁64": 4610,
      "▁га.": 4611,
      "Ьи": 4612,
      "▁широ": 4613,
      "▁CT": 4614,
      "▁Пол": 4615,
      "кнов": 4616,
      "лы,": 4617,
      "ста,": 4618,
      "än": 4619,
      "ющей": 4620,
      "▁выра": 4621,
      "▁дн": 4622,
      "▁образов": 4623,
      "▁76": 4624,
      "▁we": 4625,
      "!;": 4626,
      "равн": 4627,
      "ты.": 4628,
      "цы,": 4629,
      "овых": 4630,
      "▁лен": 4631,
      "$.": 4632,
      "▁Февр.": 4633,
      "▁TO": 4634,
      "ателя": 4635,
      "▁двиг": 4636,
      "ли-": 4637,
      "▁зр": 4638,
      "пз": 4639,
      "▁скоро": 4640,
      "▁больше": 4641,
      ">.": 4642,
      "лена": 4643,
      "дый": 4644,
      "▁число": 4645,
      "чения": 4646,
      "▁18.": 4647,
      "бро": 4648,
      "ни-": 4649,
      "▁дё": 4650,
      "раго": 4651,
      "ИЯ": 4652,
      "▁Ше": 4653,
      "▁остав": 4654,
      "▁see": 4655,
      "11,": 4656,
      "TM": 4657,
      "▁tra": 4658,
      "▁from": 4659,
      "▁$.": 4660,
      "▁церков": 4661,
      "этому": 4662,
      "Во": 4663,
      "пет": 4664,
      "і-": 4665,
      "▁зада": 4666,
      "1г": 4667,
      "▁Иванов": 4668,
      "кл": 4669,
      "дно": 4670,
      "▁слѣ": 4671,
      "▁(онъ": 4672,
      "ка;": 4673,
      "▁that": 4674,
      "▁det": 4675,
      "▁Одна": 4676,
      "▁коп": 4677,
      "вый,": 4678,
      "▁тет": 4679,
      "▁Gr": 4680,
      "тс": 4681,
      "енера": 4682,
      "▁нес": 4683,
      "iel": 4684,
      "ракт": 4685,
      "шё": 4686,
      "▁отпу": 4687,
      "▁себе": 4688,
      "out": 4689,
      "иу": 4690,
      "▁ян": 4691,
      "▁рой": 4692,
      "▁литера": 4693,
      "▁цент": 4694,
      "мер,": 4695,
      "97": 4696,
      "ый,": 4697,
      "▁твер": 4698,
      "ir,": 4699,
      "сад": 4700,
      "▁1889": 4701,
      "▁(п": 4702,
      "▁надо": 4703,
      "▁оз": 4704,
      "1(": 4705,
      "дро": 4706,
      "/913),": 4707,
      "десь": 4708,
      "вор": 4709,
      "▁результ": 4710,
      "▁инте": 4711,
      "▁мне": 4712,
      "дел": 4713,
      "o6": 4714,
      "▁мень": 4715,
      "ителя": 4716,
      "реб": 4717,
      "ét": 4718,
      "▁110": 4719,
      "▁Анто": 4720,
      "fer": 4721,
      "▁Se": 4722,
      "вин": 4723,
      "▁Ке": 4724,
      "стал": 4725,
      "зз": 4726,
      "▁газ": 4727,
      "кими": 4728,
      "▁dis": 4729,
      "тё": 4730,
      "▁9,": 4731,
      "▁ob": 4732,
      "▁zu": 4733,
      "і'": 4734,
      "жать": 4735,
      "ще,": 4736,
      "▁196": 4737,
      "▁ЗА": 4738,
      "ез,": 4739,
      "рами": 4740,
      "▁место": 4741,
      "▁dem": 4742,
      "▁ИВ": 4743,
      "рл": 4744,
      "ково": 4745,
      "циона": 4746,
      "▁пп": 4747,
      "^-": 4748,
      "▁кро": 4749,
      "ва-": 4750,
      "▁HH": 4751,
      "▁арх": 4752,
      "ИСЯ": 4753,
      "▁Y": 4754,
      "▁-ée,": 4755,
      "сіі": 4756,
      "▁слав": 4757,
      "▁шу": 4758,
      "▁7,": 4759,
      "йть,": 4760,
      "льное": 4761,
      "ів": 4762,
      "▁предпо": 4763,
      "▁180": 4764,
      "▁с0": 4765,
      "шеп": 4766,
      "▁еже": 4767,
      "▁сам": 4768,
      "стью": 4769,
      "▁очи": 4770,
      "▁Ак": 4771,
      "ium": 4772,
      "▁вне": 4773,
      "ater": 4774,
      "част": 4775,
      "▁относ": 4776,
      "▁смы": 4777,
      "ган": 4778,
      "▁смо": 4779,
      "▁Оп": 4780,
      "ческ": 4781,
      "yx": 4782,
      "ight": 4783,
      "▁встре": 4784,
      "ais": 4785,
      "▁топ": 4786,
      "i/": 4787,
      "BB": 4788,
      "u,": 4789,
      "▁показ": 4790,
      "тра": 4791,
      "▁cl": 4792,
      "▁Сы": 4793,
      "▁Оси": 4794,
      "▁прибав": 4795,
      "ду.": 4796,
      "▁уб": 4797,
      "▁некоторы": 4798,
      "ett": 4799,
      "▁Черд.).": 4800,
      "▁out": 4801,
      "▁това": 4802,
      "▁83": 4803,
      "▁сѣ": 4804,
      "▁Th": 4805,
      "э,": 4806,
      "льных": 4807,
      "1И": 4808,
      "▁нъ": 4809,
      "▁[С": 4810,
      "sk": 4811,
      "▁ind": 4812,
      "▁фе": 4813,
      "ick": 4814,
      "УМ": 4815,
      "▁диа": 4816,
      "НИК": 4817,
      "ательно": 4818,
      "лежа": 4819,
      "▁97": 4820,
      "лъ.": 4821,
      "ant,": 4822,
      "▁теб": 4823,
      "волю": 4824,
      "чные": 4825,
      "▁опред": 4826,
      "ian": 4827,
      "▁бъ": 4828,
      "ЕЙ": 4829,
      "ace": 4830,
      "▁времен": 4831,
      "▁187": 4832,
      "▁109": 4833,
      "▁pas": 4834,
      "▁весьма": 4835,
      "▁Вер": 4836,
      "▁поверх": 4837,
      "▁(4": 4838,
      "зин": 4839,
      "шь,": 4840,
      "ed.": 4841,
      "▁пок": 4842,
      "ри-": 4843,
      "▁som": 4844,
      "ществ": 4845,
      "▁собра": 4846,
      "▁лоша": 4847,
      "▁Рис.": 4848,
      "▁напри": 4849,
      "▁пле": 4850,
      "H,": 4851,
      "-П": 4852,
      "дук": 4853,
      "▁стороны": 4854,
      "▁особенно": 4855,
      "▁тро": 4856,
      "▁учи": 4857,
      "ation,": 4858,
      "▁сог": 4859,
      "вп": 4860,
      "▁*)": 4861,
      "$,": 4862,
      "лей,": 4863,
      "▁Фран": 4864,
      "ё,": 4865,
      "▁Ук.": 4866,
      "^Ь": 4867,
      "ied": 4868,
      "▁конц": 4869,
      "▁«П": 4870,
      "▁что,": 4871,
      "л*": 4872,
      "Jia": 4873,
      "▁mar": 4874,
      "чан": 4875,
      "ѵѵ": 4876,
      "▁cr": 4877,
      "▁Ги": 4878,
      "▁будетъ": 4879,
      "кую": 4880,
      "ша,": 4881,
      "▁пет": 4882,
      "дд": 4883,
      "▁ba": 4884,
      "▁даль": 4885,
      "ший": 4886,
      "▁Гер": 4887,
      "▁просто": 4888,
      "р*": 4889,
      "▁бро": 4890,
      "▁люб": 4891,
      "1ь": 4892,
      "yd": 4893,
      "▁постоян": 4894,
      "▁зв": 4895,
      "▁sich": 4896,
      "▁non": 4897,
      "▁возду": 4898,
      "▁которое": 4899,
      "циаль": 4900,
      "те.": 4901,
      "▁(І": 4902,
      "▁сум": 4903,
      "atur": 4904,
      "алы": 4905,
      "3-": 4906,
      "▁нару": 4907,
      "чт": 4908,
      "▁уо": 4909,
      "▁отв": 4910,
      "▁ce": 4911,
      "▁do": 4912,
      "мв": 4913,
      "▁СП": 4914,
      "ііе": 4915,
      "(е": 4916,
      "▁Они": 4917,
      "13.": 4918,
      "ем.": 4919,
      "▁губ.": 4920,
      "▁имеет": 4921,
      "4;": 4922,
      "1П": 4923,
      "▁яс": 4924,
      "сии": 4925,
      "it.": 4926,
      "то-": 4927,
      "ial": 4928,
      "▁в*": 4929,
      "ваться": 4930,
      "лья": 4931,
      "ломъ": 4932,
      "▁чин": 4933,
      "▁Bo": 4934,
      "▁посы": 4935,
      "съ,": 4936,
      "▁Василій": 4937,
      "▁op": 4938,
      "יי": 4939,
      "▁300": 4940,
      "▁иногда": 4941,
      "реп": 4942,
      "▁составля": 4943,
      "▁sch": 4944,
      "▁1888": 4945,
      "▁грав": 4946,
      "вав": 4947,
      "▁gro": 4948,
      "▁кого": 4949,
      "ать;": 4950,
      "▁жо": 4951,
      "▁XXX": 4952,
      "▁Ты": 4953,
      "h.": 4954,
      "ОСТ": 4955,
      "▁слово": 4956,
      "▁up": 4957,
      "▁св.": 4958,
      "men": 4959,
      "▁призна": 4960,
      "ливо": 4961,
      "▁поб": 4962,
      "ack": 4963,
      "ув": 4964,
      "▁коле": 4965,
      "▁двух": 4966,
      "спе": 4967,
      "ровъ,": 4968,
      "▁примен": 4969,
      "▁ыы": 4970,
      "іег": 4971,
      "▁пове": 4972,
      "▁пово": 4973,
      "гъ,": 4974,
      "лка": 4975,
      "▁Ѳедо": 4976,
      "▁ив": 4977,
      "тия": 4978,
      "▁que": 4979,
      "▁fra": 4980,
      "▁получи": 4981,
      "▁4-": 4982,
      "▁il": 4983,
      "▁поко": 4984,
      "▁похо": 4985,
      "1ю": 4986,
      "▁об.": 4987,
      "ру,": 4988,
      "акъ": 4989,
      "▁ю.": 4990,
      "▁покры": 4991,
      "▁51": 4992,
      "ning": 4993,
      "▁именно": 4994,
      "▁\\\\": 4995,
      "land": 4996,
      "бд": 4997,
      "▁дости": 4998,
      "▁лож": 4999,
      "▁вя": 5000,
      "і^": 5001,
      ":.": 5002,
      "ницы": 5003,
      "isch": 5004,
      "▁вд": 5005,
      "▁С,": 5006,
      "▁развит": 5007,
      "значен": 5008,
      "2е": 5009,
      "able": 5010,
      "l.": 5011,
      "▁Te": 5012,
      "▁19.": 5013,
      "шемъ": 5014,
      "ide": 5015,
      "▁земли": 5016,
      "▁тон": 5017,
      "He": 5018,
      "ЯТ": 5019,
      "нп": 5020,
      "фт": 5021,
      "тая": 5022,
      "геп": 5023,
      "чное": 5024,
      "апе": 5025,
      "ющая": 5026,
      "89": 5027,
      "ским": 5028,
      "▁уег": 5029,
      "ности.": 5030,
      "ляют": 5031,
      "КО": 5032,
      "▁расс": 5033,
      "сколь": 5034,
      "▁руко": 5035,
      "▁утвер": 5036,
      "йд": 5037,
      "erb": 5038,
      "того": 5039,
      "erd": 5040,
      "щения": 5041,
      "НН": 5042,
      "▁распро": 5043,
      "▁(0": 5044,
      "▁уси": 5045,
      "чь,": 5046,
      "ult": 5047,
      "▁d'un": 5048,
      "рок": 5049,
      "▁жъ": 5050,
      "2-": 5051,
      "▁20.": 5052,
      "Ка": 5053,
      "Го": 5054,
      "лая": 5055,
      "▁мъ": 5056,
      "▁движ": 5057,
      "▁вст": 5058,
      "▁рода": 5059,
      "▁Сто": 5060,
      "вести": 5061,
      "▁OT": 5062,
      "▁там": 5063,
      "тября": 5064,
      "І.": 5065,
      "▁конф": 5066,
      "▁ам": 5067,
      "еты": 5068,
      "▁aus": 5069,
      "лат": 5070,
      "У,": 5071,
      "▁ес": 5072,
      "▁ѵѵ": 5073,
      "▁куп": 5074,
      "▁паз": 5075,
      "ваютъ": 5076,
      "гля": 5077,
      "▁ero": 5078,
      "y;": 5079,
      "▁сту": 5080,
      "▁позво": 5081,
      "▁рабочи": 5082,
      "▁воро": 5083,
      "иь": 5084,
      "▁этот": 5085,
      "▁мел": 5086,
      "▁Al": 5087,
      "▁3-": 5088,
      "▁дом": 5089,
      "ах": 5090,
      "▁дар": 5091,
      "▁растен": 5092,
      "▁cor": 5093,
      "СП": 5094,
      "erv": 5095,
      "du": 5096,
      "дви": 5097,
      "бло": 5098,
      "зв": 5099,
      "ці": 5100,
      "▁da": 5101,
      "▁5)": 5102,
      "▁полити": 5103,
      "▁[с": 5104,
      "▁fr": 5105,
      "▁цѣ": 5106,
      "мента": 5107,
      "▁мон": 5108,
      "роят": 5109,
      "▁(И": 5110,
      "хани": 5111,
      "▁Пов": 5112,
      "▁свѣ": 5113,
      "ni": 5114,
      "бри": 5115,
      "▁тебе": 5116,
      "▁еі": 5117,
      "▁деся": 5118,
      "▁уров": 5119,
      "▁ved": 5120,
      "▁Св": 5121,
      "▁человек": 5122,
      "▁других": 5123,
      "My": 5124,
      "▁круп": 5125,
      "▁Pro": 5126,
      "«.": 5127,
      "HC": 5128,
      "/,": 5129,
      "▁44.": 5130,
      "▁дома": 5131,
      "jia": 5132,
      "жествен": 5133,
      "▁17.": 5134,
      ".......": 5135,
      "него": 5136,
      "▁люди": 5137,
      "аков": 5138,
      "▁over": 5139,
      "ИР": 5140,
      "▁пом": 5141,
      "▁mit": 5142,
      "▁1'": 5143,
      "ича": 5144,
      "▁вза": 5145,
      "▁Николай": 5146,
      "▁ДЪ": 5147,
      "лм": 5148,
      "листи": 5149,
      "▁источ": 5150,
      "▁ке": 5151,
      "▁стре": 5152,
      "зю": 5153,
      "п^": 5154,
      "84": 5155,
      "▁Ну": 5156,
      "olog": 5157,
      "ством": 5158,
      "▁комп": 5159,
      "▁сб": 5160,
      "град": 5161,
      "▁мой": 5162,
      "Ше": 5163,
      "▁зу": 5164,
      "оі": 5165,
      "▁сохра": 5166,
      "▁постав": 5167,
      "▁Вс": 5168,
      "▁выпу": 5169,
      "▁(5": 5170,
      "гас": 5171,
      "▁Ива": 5172,
      "▁ho": 5173,
      "▁пут": 5174,
      "▁тай": 5175,
      "▁Исп.": 5176,
      "▁чув": 5177,
      "д^": 5178,
      "▁праз": 5179,
      "а1": 5180,
      "▁церкви": 5181,
      "рыв": 5182,
      "Ш.": 5183,
      "▁вр": 5184,
      "▁дев": 5185,
      "mer": 5186,
      "▁Яков": 5187,
      "оте": 5188,
      "’s": 5189,
      "▁Ив.": 5190,
      "сутств": 5191,
      "тоу": 5192,
      "▁Лег": 5193,
      "ждения": 5194,
      "▁серд": 5195,
      "час": 5196,
      "ent,": 5197,
      "скимъ": 5198,
      "ихъ": 5199,
      "▁сх.": 5200,
      "▁Аир.": 5201,
      "ина": 5202,
      "ede": 5203,
      "▁тт": 5204,
      "▁поме": 5205,
      "▁-,": 5206,
      "Г,": 5207,
      "чп": 5208,
      "рый": 5209,
      "▁KOT": 5210,
      "▁том,": 5211,
      "fen": 5212,
      "три": 5213,
      "те,": 5214,
      "▁пс": 5215,
      "ствует": 5216,
      "▁шко": 5217,
      "▁ВЫ": 5218,
      "▁После": 5219,
      "ик": 5220,
      "▁ук": 5221,
      "цен": 5222,
      "▁неб": 5223,
      "лли": 5224,
      "'Ё": 5225,
      "▁свер": 5226,
      "▁соедин": 5227,
      "▁АЛ": 5228,
      "коно": 5229,
      "▁Господь": 5230,
      "итай": 5231,
      "▁105": 5232,
      "▁нат": 5233,
      "▁Ник": 5234,
      "ЕЗ": 5235,
      "▁сю": 5236,
      "▁Ек": 5237,
      "▁Аг": 5238,
      "▁исклю": 5239,
      "▁воен": 5240,
      "ленія": 5241,
      "П,": 5242,
      "▁обяз": 5243,
      "тег": 5244,
      "▁отда": 5245,
      ":,": 5246,
      "ст.,": 5247,
      "тно": 5248,
      "ір": 5249,
      "jih": 5250,
      "пада": 5251,
      "▁участ": 5252,
      "ДР": 5253,
      "▁Pr": 5254,
      ";,": 5255,
      "йз": 5256,
      "нв": 5257,
      "▁el": 5258,
      "▁послѣ": 5259,
      "шет": 5260,
      "▁93": 5261,
      "СЛ": 5262,
      "бин": 5263,
      "▁несколько": 5264,
      "▁коман": 5265,
      "Jie": 5266,
      "шю": 5267,
      "▁199": 5268,
      "бс": 5269,
      "▁бог": 5270,
      "43": 5271,
      "нер": 5272,
      "▁вооб": 5273,
      "▁Коп": 5274,
      "▁VII": 5275,
      "▁npo": 5276,
      "ale": 5277,
      "▁жизни": 5278,
      "раг": 5279,
      "ende": 5280,
      "▁і.": 5281,
      "дф": 5282,
      "ER": 5283,
      "▁зву": 5284,
      "ографи": 5285,
      "▁должен": 5286,
      "чать": 5287,
      "лог": 5288,
      "▁рез": 5289,
      "▁от-": 5290,
      "▁внутрен": 5291,
      "▁.V": 5292,
      "▁буде": 5293,
      "роу": 5294,
      "▁всем": 5295,
      "87": 5296,
      "коп": 5297,
      "руз": 5298,
      "гар": 5299,
      "▁79": 5300,
      "изи": 5301,
      "ДА": 5302,
      "ги.": 5303,
      "▁[П": 5304,
      "ОЧ": 5305,
      "▁поня": 5306,
      "▁мер": 5307,
      "▁спра": 5308,
      "▁образо": 5309,
      "▁И,": 5310,
      "▁зам": 5311,
      "▁6)": 5312,
      "▁сказа": 5313,
      "оа": 5314,
      "лив": 5315,
      "▁могут": 5316,
      "▁oc": 5317,
      "▁числа": 5318,
      "▁ато": 5319,
      "лиза": 5320,
      "дра": 5321,
      "▁важ": 5322,
      "▁йіе": 5323,
      "▁вклю": 5324,
      "biM": 5325,
      "чаль": 5326,
      "▁ман": 5327,
      "▁боя": 5328,
      "ющее": 5329,
      "K)": 5330,
      "ür": 5331,
      "ША": 5332,
      "▁по¬": 5333,
      "ior": 5334,
      "▁зер": 5335,
      "будь": 5336,
      "▁изв": 5337,
      "oth": 5338,
      "▁систем": 5339,
      "пк": 5340,
      "раи": 5341,
      "деж": 5342,
      "▁куль": 5343,
      "чъ,": 5344,
      "fle": 5345,
      "ложи": 5346,
      "ё.": 5347,
      "слав": 5348,
      "▁De": 5349,
      "Me": 5350,
      "▁дал": 5351,
      "▁характ": 5352,
      "06": 5353,
      "ербург": 5354,
      "▁тр": 5355,
      "▁хозя": 5356,
      "▁формы": 5357,
      "деб": 5358,
      "Г)": 5359,
      "ла-": 5360,
      "▁ер": 5361,
      "▁Іа": 5362,
      "cK": 5363,
      "цѣ": 5364,
      "▁осу": 5365,
      "низ": 5366,
      "▁искус": 5367,
      "р.)": 5368,
      "▁суд": 5369,
      "nn": 5370,
      "▁гар": 5371,
      "бора": 5372,
      "▁fe": 5373,
      "кар": 5374,
      "къ;": 5375,
      "епз": 5376,
      "гк": 5377,
      "▁предо": 5378,
      "▁проб": 5379,
      "ИТИ": 5380,
      "▁рай": 5381,
      "и1": 5382,
      "▁надъ": 5383,
      "▁нар.": 5384,
      "▁Обще": 5385,
      "нь;": 5386,
      "▁72": 5387,
      "▁противо": 5388,
      "ог.": 5389,
      "hm": 5390,
      "печат": 5391,
      "▁ори": 5392,
      "att": 5393,
      "ical": 5394,
      "▁ван": 5395,
      "ча,": 5396,
      "▁вен": 5397,
      "▁Пси.": 5398,
      "есе": 5399,
      "ции,": 5400,
      "хода": 5401,
      "▁гн": 5402,
      "чая": 5403,
      "▁работ": 5404,
      "Я.": 5405,
      "▁ф.": 5406,
      "стить": 5407,
      "ре.": 5408,
      "▁пал": 5409,
      "-либо": 5410,
      "гез": 5411,
      "гя": 5412,
      "▁тыся": 5413,
      "▁сн": 5414,
      "▁ЖЕ": 5415,
      "▁«у": 5416,
      "▁общ": 5417,
      "ter,": 5418,
      "▁разъ": 5419,
      "▁тако": 5420,
      "ителей": 5421,
      "▁ю.,": 5422,
      "▁край": 5423,
      "еса": 5424,
      "чень": 5425,
      "▁(6": 5426,
      "ол": 5427,
      "▁грамо": 5428,
      "▁бан": 5429,
      "▁низ": 5430,
      "▁Or": 5431,
      "мож": 5432,
      "▁62": 5433,
      "▁обна": 5434,
      "УЗ": 5435,
      "▁Re": 5436,
      "▁тап": 5437,
      "іѵ": 5438,
      "▁огра": 5439,
      "▁Мас": 5440,
      "-1": 5441,
      "ps": 5442,
      "▁Чу": 5443,
      "▁X.": 5444,
      "В,": 5445,
      "скъ": 5446,
      "''": 5447,
      "56": 5448,
      "гш": 5449,
      "ка-": 5450,
      "ение.": 5451,
      "▁Фор": 5452,
      "▁обыкнов": 5453,
      "▁son": 5454,
      "▁Михаилъ": 5455,
      "▁насъ": 5456,
      "иты": 5457,
      "ств.": 5458,
      "%.": 5459,
      "▁Петров": 5460,
      "Н,": 5461,
      "'s": 5462,
      "▁63": 5463,
      "▁Госуда": 5464,
      "▁Гог": 5465,
      "old": 5466,
      "▁min": 5467,
      "лыш": 5468,
      "▁Семен": 5469,
      "▁гер": 5470,
      "▁люд": 5471,
      "Т)": 5472,
      "▁(«": 5473,
      "▁землю": 5474,
      "тии": 5475,
      "поли": 5476,
      "▁197": 5477,
      "▁Марта": 5478,
      "ого": 5479,
      "іе;": 5480,
      "нь.": 5481,
      "▁тс": 5482,
      "▁пору": 5483,
      "шел": 5484,
      "83": 5485,
      "Іе": 5486,
      "▁sel": 5487,
      "уш": 5488,
      "▁тат": 5489,
      "▁дать": 5490,
      "▁82": 5491,
      "▁виде": 5492,
      "▁Мая": 5493,
      "ТА": 5494,
      "▁пят": 5495,
      "▁появ": 5496,
      "▁Ры": 5497,
      "▁еъ": 5498,
      "▁во-": 5499,
      "▁иде": 5500,
      "▁зани": 5501,
      "1т": 5502,
      "ition": 5503,
      "лс": 5504,
      "▁хорошо": 5505,
      "дж": 5506,
      "чк": 5507,
      "лого": 5508,
      "коне": 5509,
      "ОЗ": 5510,
      "fi": 5511,
      "la": 5512,
      "лЪ": 5513,
      "▁Бот.": 5514,
      "1С": 5515,
      "▁член": 5516,
      "▁var": 5517,
      "▁(ри": 5518,
      "▁|.": 5519,
      "*-": 5520,
      "шихъ": 5521,
      "▁вино": 5522,
      "▁своих": 5523,
      "ков,": 5524,
      "li": 5525,
      "пв": 5526,
      "ри.": 5527,
      "▁всю": 5528,
      "▁счита": 5529,
      "ан.": 5530,
      "▁друг": 5531,
      "К.": 5532,
      "▁кр": 5533,
      "▁ния": 5534,
      "▁ter": 5535,
      "аъ": 5536,
      "▁сме": 5537,
      "бир": 5538,
      "▁sub": 5539,
      "▁кой": 5540,
      "▁СА": 5541,
      "не.": 5542,
      "▁Er": 5543,
      "шла": 5544,
      "urch": 5545,
      "-b": 5546,
      "▁Бер": 5547,
      "▁борь": 5548,
      "▁кому": 5549,
      "по-": 5550,
      "▁MH": 5551,
      "▁Мед.": 5552,
      "нс": 5553,
      "igh": 5554,
      "▁Серг": 5555,
      "л.,": 5556,
      "ді": 5557,
      "▁01": 5558,
      "▁ных": 5559,
      "!)": 5560,
      "▁пли": 5561,
      "ile": 5562,
      "▁вы-": 5563,
      "▁108": 5564,
      "док": 5565,
      "ляет": 5566,
      "нами": 5567,
      "мон": 5568,
      "мъ;": 5569,
      "ской,": 5570,
      "▁тео": 5571,
      "▁em": 5572,
      "▁брат": 5573,
      "тк": 5574,
      "▁ХХ": 5575,
      "▁держ": 5576,
      "iè": 5577,
      "ju": 5578,
      "▁Исто": 5579,
      "▁11,": 5580,
      "ин.": 5581,
      "нихъ": 5582,
      "ON": 5583,
      "▁lo": 5584,
      "риц": 5585,
      "▁бур": 5586,
      "▁находи": 5587,
      "теп": 5588,
      "▁Пра": 5589,
      "▁уд": 5590,
      "▁голо": 5591,
      "▁що": 5592,
      "нй": 5593,
      "чка,": 5594,
      "▁смот": 5595,
      "▁неболь": 5596,
      "▁чре": 5597,
      "▁языка": 5598,
      "ясн": 5599,
      "деми": 5600,
      "▁воды": 5601,
      "иса": 5602,
      "шед": 5603,
      "▁цв": 5604,
      "▁камен": 5605,
      "▁прежде": 5606,
      "▁использов": 5607,
      "ба,": 5608,
      "▁уа": 5609,
      "▁теперь": 5610,
      "▁цвѣ": 5611,
      "▁окра": 5612,
      "гр": 5613,
      "▁форму": 5614,
      "стно": 5615,
      "▁аще": 5616,
      "егз": 5617,
      "▁кам": 5618,
      "Ва": 5619,
      "▁Воз": 5620,
      "ходить": 5621,
      "ath": 5622,
      "рил": 5623,
      "▁количество": 5624,
      "52": 5625,
      "ловъ,": 5626,
      "Be": 5627,
      "ille": 5628,
      "▁npH": 5629,
      "▁Nr.": 5630,
      "до-": 5631,
      "▁пан": 5632,
      "▁Mar": 5633,
      "аний": 5634,
      "▁ним": 5635,
      "муще": 5636,
      "гу,": 5637,
      "▁(б": 5638,
      "xa": 5639,
      "ания,": 5640,
      "Ьг": 5641,
      "сса": 5642,
      "▁насе": 5643,
      "чв": 5644,
      "ступи": 5645,
      "кор": 5646,
      "ѣ.": 5647,
      "▁элемен": 5648,
      "▁Кре": 5649,
      "▁--": 5650,
      "▁завис": 5651,
      "бур": 5652,
      "▁Воло": 5653,
      "ret": 5654,
      "▁Ши": 5655,
      "▁а)": 5656,
      "▁61": 5657,
      "▁две": 5658,
      "▁**": 5659,
      "ake": 5660,
      "▁Сте": 5661,
      "няго": 5662,
      "▁π": 5663,
      "нин": 5664,
      "▁готов": 5665,
      "▁друга": 5666,
      "шы": 5667,
      "▁che": 5668,
      "матри": 5669,
      "пит": 5670,
      "▁неу": 5671,
      "▁элек": 5672,
      "тий": 5673,
      "▁oh": 5674,
      "▁12,": 5675,
      "▁объек": 5676,
      "yio": 5677,
      "▁Крас": 5678,
      "▁работы": 5679,
      "тан": 5680,
      "▁отли": 5681,
      "▁dr": 5682,
      "▁Констан": 5683,
      "al,": 5684,
      "1у": 5685,
      "▁ИВАН": 5686,
      "▁четвер": 5687,
      "Ta": 5688,
      "▁укра": 5689,
      "at.": 5690,
      "ке,": 5691,
      "▁мето": 5692,
      "▁Соп": 5693,
      "▁Изъ": 5694,
      "кб": 5695,
      "▁(е": 5696,
      "ша.": 5697,
      "мери": 5698,
      "во.": 5699,
      "ный;": 5700,
      "▁чт": 5701,
      "ют,": 5702,
      "▁Сав": 5703,
      "▁всей": 5704,
      "лян": 5705,
      "▁вам": 5706,
      "ger": 5707,
      "▁нор": 5708,
      "▁Сп": 5709,
      "▁La": 5710,
      "▁Окт.": 5711,
      "итро": 5712,
      "▁ті": 5713,
      "▁меди": 5714,
      "лиц": 5715,
      "▁Петра": 5716,
      "дЪ": 5717,
      "▁ран": 5718,
      "▁вл": 5719,
      "▁практи": 5720,
      "'і": 5721,
      "І,": 5722,
      "▁Ново": 5723,
      "іі.": 5724,
      "▁рог": 5725,
      "мент": 5726,
      "▁177": 5727,
      "тура": 5728,
      "▁тъ": 5729,
      "▁was": 5730,
      "▁Pl": 5731,
      "ון": 5732,
      "^т": 5733,
      "дп": 5734,
      "act": 5735,
      "▁живот": 5736,
      "жев": 5737,
      "▁такой": 5738,
      "ители": 5739,
      "кото": 5740,
      "▁послан": 5741,
      "▁стар": 5742,
      "ёз": 5743,
      "▁Кап": 5744,
      "one": 5745,
      "▁06": 5746,
      "t>": 5747,
      "▁Ab": 5748,
      "▁станов": 5749,
      "анию": 5750,
      "ave": 5751,
      "гит": 5752,
      "▁1:": 5753,
      "▁моз": 5754,
      "ius": 5755,
      "ту,": 5756,
      "▁деятель": 5757,
      "aus": 5758,
      "чного": 5759,
      "хот": 5760,
      "▁начина": 5761,
      "▁ниж": 5762,
      "▁эксп": 5763,
      "ине": 5764,
      "инъ,": 5765,
      "at,": 5766,
      "▁сами": 5767,
      "▁обрат": 5768,
      "1я,": 5769,
      "димо": 5770,
      "дова": 5771,
      "▁случае": 5772,
      "мт": 5773,
      "др": 5774,
      "лина": 5775,
      "▁s'": 5776,
      "▁раз-": 5777,
      "▁Геор": 5778,
      "ОЕ": 5779,
      "льного": 5780,
      "егу": 5781,
      "▁этомъ": 5782,
      "▁См.": 5783,
      "▁достато": 5784,
      "ср": 5785,
      "фес": 5786,
      "▁бук": 5787,
      "▁прямо": 5788,
      "▁«О": 5789,
      "Te": 5790,
      "▁183": 5791,
      "леніе": 5792,
      "дат": 5793,
      "▁тоже": 5794,
      "▁напряж": 5795,
      "▁прив": 5796,
      "ііа": 5797,
      "▁KaK": 5798,
      "1Г": 5799,
      "▁inter": 5800,
      "▁собствен": 5801,
      "йи": 5802,
      "тап": 5803,
      "аніе": 5804,
      "▁pos": 5805,
      "▁a.": 5806,
      "▁911": 5807,
      "▁нер": 5808,
      "▁ag": 5809,
      "▁pre": 5810,
      "▁баз": 5811,
      "▁(въ": 5812,
      "▁прн": 5813,
      "▁муж": 5814,
      "2;": 5815,
      "IX": 5816,
      "датель": 5817,
      "▁Ал-": 5818,
      "▁Бори": 5819,
      "▁6bi": 5820,
      "aut": 5821,
      "w.": 5822,
      "▁Вот": 5823,
      "▁94": 5824,
      "»;": 5825,
      "говор": 5826,
      "oft": 5827,
      "дит": 5828,
      "ёе": 5829,
      "▁уоп": 5830,
      "▁уви": 5831,
      "▁Макси": 5832,
      "еси": 5833,
      "▁als": 5834,
      "▁отвер": 5835,
      "▁Фили": 5836,
      "▁Con": 5837,
      "▁Зи": 5838,
      "ош": 5839,
      "оп.": 5840,
      "лч": 5841,
      "ѵ.": 5842,
      "▁роди": 5843,
      "▁пя": 5844,
      "▁XVII": 5845,
      "Ые": 5846,
      "лый,": 5847,
      "tra": 5848,
      "УР": 5849,
      "▁car": 5850,
      "▁106": 5851,
      "шим": 5852,
      "ЕВЪ,": 5853,
      "▁сЬ": 5854,
      "▁приготов": 5855,
      "▁нн": 5856,
      "Ы.": 5857,
      "газ": 5858,
      "(а": 5859,
      "▁СВ": 5860,
      "мар": 5861,
      "▁te": 5862,
      "▁до-": 5863,
      "выхъ": 5864,
      "▁Григорь": 5865,
      "▁прин": 5866,
      "сф": 5867,
      "▁мог": 5868,
      "ИИ": 5869,
      "Б.": 5870,
      "1ег": 5871,
      "ric": 5872,
      "чем": 5873,
      "рого": 5874,
      "тся": 5875,
      "щение": 5876,
      "ём": 5877,
      "яви": 5878,
      "▁ае": 5879,
      "▁вб": 5880,
      "па.": 5881,
      "3;": 5882,
      "рина": 5883,
      "▁(8": 5884,
      "▁изоб": 5885,
      "ваются": 5886,
      "▁области": 5887,
      "▁74": 5888,
      "▁тамъ": 5889,
      "!а": 5890,
      "éc": 5891,
      "ОО": 5892,
      "▁ГР": 5893,
      "bH": 5894,
      "▁которыхъ": 5895,
      "—2": 5896,
      "▁4ез": 5897,
      "▁обе": 5898,
      "▁CB": 5899,
      "тат": 5900,
      "сив": 5901,
      "▁сг": 5902,
      "і)": 5903,
      "ха.": 5904,
      "▁1880": 5905,
      "дй": 5906,
      "▁све": 5907,
      "▁Аз": 5908,
      "іеп": 5909,
      "стоятель": 5910,
      "▁брать": 5911,
      "▁Ху": 5912,
      "▁Кур": 5913,
      "14),": 5914,
      "▁науч": 5915,
      "▁прош": 5916,
      "1»": 5917,
      "▁пап": 5918,
      "▁отправ": 5919,
      "ваетъ": 5920,
      "▁рд.": 5921,
      "▁среди": 5922,
      "феп": 5923,
      "▁(n": 5924,
      "▁групп": 5925,
      "ИП": 5926,
      "eng": 5927,
      "хо-": 5928,
      "▁ная": 5929,
      "▁оЁ": 5930,
      "грам": 5931,
      "▁допу": 5932,
      "рта": 5933,
      "▁Кра": 5934,
      "CTB": 5935,
      "▁Sp": 5936,
      "кй": 5937,
      "▁Гав": 5938,
      "oM": 5939,
      "рите": 5940,
      "шан": 5941,
      "мая": 5942,
      "граф": 5943,
      "lig": 5944,
      "▁года,": 5945,
      "▁духов": 5946,
      "▁24.": 5947,
      "ез.": 5948,
      "іи,": 5949,
      "▁приказ": 5950,
      "▁вм": 5951,
      "▁характер": 5952,
      "▁«М": 5953,
      "▁мед": 5954,
      "▁зап": 5955,
      "рЬ": 5956,
      "ский,": 5957,
      "се.": 5958,
      "ette": 5959,
      "бь": 5960,
      "▁совершенно": 5961,
      "лое": 5962,
      "▁(рис.": 5963,
      "▁Маг": 5964,
      "▁Br": 5965,
      "▁требу": 5966,
      "▁вм.": 5967,
      "▁поэ": 5968,
      "лаг": 5969,
      "▁^^^": 5970,
      "▁мл": 5971,
      "▁gra": 5972,
      "▁получа": 5973,
      "▁РУ": 5974,
      "▁165": 5975,
      "▁тут": 5976,
      "91": 5977,
      "АЯ": 5978,
      "рз": 5979,
      "из,": 5980,
      "ёй": 5981,
      "▁архи": 5982,
      "▁Иси.": 5983,
      "▁привод": 5984,
      "m,": 5985,
      "]а": 5986,
      "▁Дав": 5987,
      "10,": 5988,
      "▁Пар": 5989,
      "▁нен": 5990,
      "▁800": 5991,
      "▁оф": 5992,
      "▁тран": 5993,
      "118": 5994,
      "igit": 5995,
      "тав": 5996,
      "емый": 5997,
      "%,": 5998,
      "▁ген": 5999,
      "▁восто": 6000,
      "доль": 6001,
      "ock": 6002,
      "ю;": 6003,
      "мг": 6004,
      "▁Полу": 6005,
      "ement,": 6006,
      "▁един": 6007,
      "топ": 6008,
      "га-": 6009,
      "▁(-": 6010,
      "▁Къ": 6011,
      "▁Соб": 6012,
      "▁ние": 6013,
      "лег": 6014,
      "▁eine": 6015,
      "▁еіп": 6016,
      "▁кг": 6017,
      "Бо": 6018,
      "УП": 6019,
      "▁филь": 6020,
      "▁тв": 6021,
      "▁кб": 6022,
      "ры.": 6023,
      "'1": 6024,
      "▁pour": 6025,
      "зав": 6026,
      "гой": 6027,
      "голь": 6028,
      "жм": 6029,
      "дак": 6030,
      "▁неиз": 6031,
      "асе": 6032,
      "▁(Н": 6033,
      "▁ской": 6034,
      "руб": 6035,
      "▁4ег": 6036,
      "▁«В": 6037,
      "▁пуст.": 6038,
      "▁равно": 6039,
      "▁long": 6040,
      "aHH": 6041,
      "▁В,": 6042,
      "▁Андрей": 6043,
      "▁г,": 6044,
      "ске": 6045,
      "18,": 6046,
      "▁го-": 6047,
      "▁ними": 6048,
      "ing;": 6049,
      "▁затем": 6050,
      "▁gen": 6051,
      "▁спу": 6052,
      "ваться,": 6053,
      "alt": 6054,
      "oir": 6055,
      "МЪ": 6056,
      "▁Ліе": 6057,
      "els": 6058,
      "▁горя": 6059,
      "um,": 6060,
      "▁dim.": 6061,
      "чно,": 6062,
      "▁дра": 6063,
      "дь,": 6064,
      "чку": 6065,
      "▁мм": 6066,
      "▁предмет": 6067,
      "р!": 6068,
      "▁ои": 6069,
      "держа": 6070,
      "▁эту": 6071,
      "▁120": 6072,
      "кахъ": 6073,
      "▁Доб": 6074,
      "▁ред.": 6075,
      "▁ом": 6076,
      "гон": 6077,
      "]е": 6078,
      "▁повы": 6079,
      "ня.": 6080,
      "новъ,": 6081,
      "▁Алла": 6082,
      "лении": 6083,
      "▁оте": 6084,
      "▁сег": 6085,
      "▁pac": 6086,
      "▁царя": 6087,
      "вы,": 6088,
      "1еп": 6089,
      "ЕЧ": 6090,
      "нок": 6091,
      "ся;": 6092,
      "▁aut": 6093,
      "▁аш": 6094,
      "▁BO": 6095,
      "▁экзем": 6096,
      "▁сколько": 6097,
      "ровать": 6098,
      "Jib": 6099,
      "▁ü": 6100,
      "▁остро": 6101,
      "иси": 6102,
      "нат": 6103,
      "▁МО": 6104,
      "▁дат": 6105,
      "ata": 6106,
      "ции.": 6107,
      "вых": 6108,
      "дс": 6109,
      "юсь,": 6110,
      "Р,": 6111,
      "▁(й": 6112,
      "ise": 6113,
      "ift": 6114,
      "▁ные": 6115,
      "▁здесь": 6116,
      "▁метал": 6117,
      "ну.": 6118,
      "▁стран": 6119,
      "▁150": 6120,
      "▁нужно": 6121,
      "▁рё": 6122,
      "▁cons": 6123,
      "ood": 6124,
      "▁ата": 6125,
      "▁Зат": 6126,
      "▁Ver": 6127,
      "лш": 6128,
      "être": 6129,
      "▁посла": 6130,
      "▁плат": 6131,
      "▁будут": 6132,
      "ized": 6133,
      "ée": 6134,
      "▁заг": 6135,
      "апс": 6136,
      "▁Ян": 6137,
      "et.": 6138,
      "дк": 6139,
      "▁царь": 6140,
      "af": 6141,
      "▁СЛ": 6142,
      "дт": 6143,
      "▁уѣ": 6144,
      "1н": 6145,
      "aft": 6146,
      "▁постро": 6147,
      "читель": 6148,
      "▁мощ": 6149,
      "оп,": 6150,
      "▁Tr": 6151,
      "зм": 6152,
      "▁выда": 6153,
      "ст-": 6154,
      "ЖЕ": 6155,
      "ска,": 6156,
      "▁рече": 6157,
      "МА": 6158,
      "▁треть": 6159,
      "▁дней": 6160,
      "▁Цер": 6161,
      "^г": 6162,
      "82": 6163,
      "▁tem": 6164,
      "▁col": 6165,
      "іі,": 6166,
      "▁можетъ": 6167,
      "▁чо": 6168,
      "мир": 6169,
      "▁Qu": 6170,
      "▁какой": 6171,
      "ЕНИЕ": 6172,
      "▁условия": 6173,
      "ной.": 6174,
      "▁Хи": 6175,
      "▁wir": 6176,
      "сВ": 6177,
      "ческаго": 6178,
      "ется.": 6179,
      "▁Ал": 6180,
      "оге": 6181,
      "▁нашего": 6182,
      "ém": 6183,
      "й;": 6184,
      "▁теле": 6185,
      ">,": 6186,
      "аря": 6187,
      "▁Зав": 6188,
      "лок": 6189,
      "ками,": 6190,
      "▁отнош": 6191,
      "шую": 6192,
      "1р": 6193,
      "Ге": 6194,
      "▁выс": 6195,
      "▁r.": 6196,
      "▁дя": 6197,
      "ковод": 6198,
      "▁оши": 6199,
      "▁тес": 6200,
      "що": 6201,
      "▁форма": 6202,
      "іл": 6203,
      "ница,": 6204,
      "зк": 6205,
      "▁переда": 6206,
      "Ы,": 6207,
      "▁Эти": 6208,
      "Га": 6209,
      "▁СЪ": 6210,
      "ания.": 6211,
      "ГА": 6212,
      "1к": 6213,
      "чи.": 6214,
      "шко": 6215,
      "ображен": 6216,
      "▁Ш.": 6217,
      "y-": 6218,
      "kt": 6219,
      "мы,": 6220,
      "▁Екатери": 6221,
      "1й,": 6222,
      "лоп": 6223,
      "▁part": 6224,
      "▁бар": 6225,
      "▁For": 6226,
      "кис": 6227,
      "д*": 6228,
      "▁Ее": 6229,
      "▁Однако": 6230,
      "тг": 6231,
      "тами": 6232,
      "▁HO": 6233,
      "▁истории": 6234,
      "▁особен": 6235,
      "вую": 6236,
      "▁капита": 6237,
      "-же": 6238,
      "ice": 6239,
      "▁стр": 6240,
      "ерен": 6241,
      "67": 6242,
      "ность.": 6243,
      "c.": 6244,
      "ско-": 6245,
      "скими": 6246,
      "▁конца": 6247,
      "атор": 6248,
      "итов": 6249,
      "1Л": 6250,
      "ær": 6251,
      "▁Нас": 6252,
      "НЕ": 6253,
      "анія": 6254,
      "инь": 6255,
      "▁случай": 6256,
      "О-": 6257,
      "▁si": 6258,
      "▁ожи": 6259,
      "▁пох": 6260,
      "▁собой": 6261,
      "?)": 6262,
      "▁сет": 6263,
      "▁1;": 6264,
      "▁21.": 6265,
      "▁ответ": 6266,
      "▁hab": 6267,
      "ТИ": 6268,
      "мя,": 6269,
      "▁XII": 6270,
      "▁пож": 6271,
      "клады": 6272,
      "enc": 6273,
      "on.": 6274,
      "▁500": 6275,
      "▁родъ": 6276,
      "лА": 6277,
      "▁Глава": 6278,
      "рито": 6279,
      "ться,": 6280,
      "▁труд": 6281,
      "ан-": 6282,
      "▁апо": 6283,
      "ымъ": 6284,
      "▁сіе": 6285,
      "▁Par": 6286,
      "ins": 6287,
      "▁дес": 6288,
      "Bep": 6289,
      "▁АВ": 6290,
      "▁мастер": 6291,
      "’.": 6292,
      "▁ща": 6293,
      "ѵі": 6294,
      "стн": 6295,
      "ге.": 6296,
      "и^": 6297,
      "стр.": 6298,
      "▁bet": 6299,
      "▁образу": 6300,
      "▁современ": 6301,
      "▁Жи": 6302,
      "▁зло": 6303,
      "станав": 6304,
      "ёть,": 6305,
      "▁ево": 6306,
      "▁поле": 6307,
      "скаго,": 6308,
      "ѵа": 6309,
      "форма": 6310,
      "|,": 6311,
      "▁игра": 6312,
      "age,": 6313,
      "ский.": 6314,
      "▁второй": 6315,
      "('": 6316,
      "ствомъ": 6317,
      "▁деп": 6318,
      "рив": 6319,
      "▁пъ": 6320,
      "▁созд": 6321,
      "▁Боль": 6322,
      "гес": 6323,
      "▁т,": 6324,
      "гот": 6325,
      "▁Кня": 6326,
      "▁ниже": 6327,
      "▁апсі": 6328,
      "▁находится": 6329,
      "моу": 6330,
      "оя": 6331,
      "▁доку": 6332,
      "▁Импера": 6333,
      "▁нь": 6334,
      "дцать": 6335,
      "жет": 6336,
      "▁ел": 6337,
      "▁мене": 6338,
      "Ба": 6339,
      "▁цен": 6340,
      "▁Ву": 6341,
      "▁Шу": 6342,
      "▁холод": 6343,
      "сх": 6344,
      "▁Ск": 6345,
      "▁пять": 6346,
      "▁gl": 6347,
      "▁nepe": 6348,
      "▁Ho": 6349,
      "чный,": 6350,
      "▁Иль": 6351,
      "▁nicht": 6352,
      "4)": 6353,
      "*)": 6354,
      "▁сап": 6355,
      "ями": 6356,
      "анный": 6357,
      "▁говоря": 6358,
      "ЕП": 6359,
      "93": 6360,
      "▁ака": 6361,
      "▁A.": 6362,
      "▁Григор": 6363,
      "az": 6364,
      "▁этому": 6365,
      "▁MO": 6366,
      "▁умер": 6367,
      "▁tro": 6368,
      "raph": 6369,
      "ч,": 6370,
      "▁€": 6371,
      "▁фай": 6372,
      "▁Go": 6373,
      "וי": 6374,
      "▁Пр.": 6375,
      "▁двухъ": 6376,
      "▁Кіев": 6377,
      "red": 6378,
      "ствовать": 6379,
      "“.": 6380,
      "▁вообще": 6381,
      "mm": 6382,
      "u-": 6383,
      "▁Бар": 6384,
      "работ": 6385,
      "ового": 6386,
      "▁характери": 6387,
      "ету": 6388,
      "ох": 6389,
      "▁Отъ": 6390,
      "^п": 6391,
      "^у": 6392,
      "ИЦ": 6393,
      "ed;": 6394,
      "Па": 6395,
      "кам": 6396,
      "евичъ": 6397,
      "моби": 6398,
      "▁73": 6399,
      "▁генера": 6400,
      "ГШ": 6401,
      "▁res": 6402,
      "▁бї": 6403,
      "▁близ": 6404,
      "ноп": 6405,
      "2)": 6406,
      "мышлен": 6407,
      "іЬ": 6408,
      "▁фу": 6409,
      "деть": 6410,
      "▁000": 6411,
      "▁Коро": 6412,
      "H.": 6413,
      "▁СК": 6414,
      "▁ph": 6415,
      "ua": 6416,
      "▁пои": 6417,
      "▁ное": 6418,
      "▁мест": 6419,
      "фъ": 6420,
      "ia,": 6421,
      "▁говор": 6422,
      "рап": 6423,
      "ecK": 6424,
      "▁учен": 6425,
      "стру": 6426,
      "▁«К": 6427,
      "овъ.": 6428,
      "ер.": 6429,
      "▁выде": 6430,
      "▁сдела": 6431,
      "▁тё": 6432,
      "▁182": 6433,
      "▁n.": 6434,
      "пись": 6435,
      "▁ПОД": 6436,
      "▁°С": 6437,
      "▁тбу": 6438,
      "▁Гру": 6439,
      "▁spec": 6440,
      "▁хри": 6441,
      "gr": 6442,
      "enb": 6443,
      "▁раск": 6444,
      "стый": 6445,
      "▁уж": 6446,
      "я;": 6447,
      "▁состо": 6448,
      "▁системы": 6449,
      "▁140": 6450,
      "▁Академ": 6451,
      "▁Выс.": 6452,
      "▁Гре": 6453,
      "таго": 6454,
      "▁cn": 6455,
      "ков.": 6456,
      "▁прекра": 6457,
      "ген": 6458,
      "▁человѣ": 6459,
      "да-": 6460,
      "\\\\": 6461,
      "Е-": 6462,
      "/914),": 6463,
      "чи-": 6464,
      "▁«И": 6465,
      "▁лучше": 6466,
      "orn": 6467,
      "стъ,": 6468,
      "pro": 6469,
      "▁118": 6470,
      "▁чисто": 6471,
      "▁400": 6472,
      "▁198": 6473,
      "▁тебя": 6474,
      "▁одинъ": 6475,
      "IT": 6476,
      "110": 6477,
      "бл.": 6478,
      "▁(д": 6479,
      "аку": 6480,
      "знача": 6481,
      "▁груп": 6482,
      "йти": 6483,
      "яхъ": 6484,
      "ік": 6485,
      "реди": 6486,
      "йш": 6487,
      "ствова": 6488,
      "х-": 6489,
      "▁del": 6490,
      "fter": 6491,
      "дръ": 6492,
      "▁леж": 6493,
      "▁простран": 6494,
      "är": 6495,
      "юз": 6496,
      "езе": 6497,
      "че,": 6498,
      "▁служи": 6499,
      "▁кол.": 6500,
      "фет": 6501,
      "▁возвра": 6502,
      "▁книги": 6503,
      "ein": 6504,
      "▁”": 6505,
      "▁Слов": 6506,
      "▁22.": 6507,
      "гай": 6508,
      "oi": 6509,
      "▁py": 6510,
      "▁oder": 6511,
      "ör": 6512,
      "▁столь": 6513,
      "нуты": 6514,
      "▁acc": 6515,
      "▁3a": 6516,
      "▁малень": 6517,
      "УД": 6518,
      "▁план": 6519,
      "64": 6520,
      "вания": 6521,
      "си,": 6522,
      "яъ": 6523,
      "тое": 6524,
      "леп": 6525,
      "▁KOTop": 6526,
      "▁зак": 6527,
      "'-": 6528,
      "▁пути": 6529,
      "▁чит": 6530,
      "▁отдель": 6531,
      "аси": 6532,
      "ane": 6533,
      "▁сар": 6534,
      "▁92": 6535,
      "Ма": 6536,
      "▁слож": 6537,
      "▁дЪ": 6538,
      "кой,": 6539,
      "▁связ": 6540,
      "чеб": 6541,
      "пыт": 6542,
      "КОВ": 6543,
      "▁sl": 6544,
      "не-": 6545,
      "рета": 6546,
      "1*": 6547,
      "92": 6548,
      "НТ": 6549,
      "сд": 6550,
      "Ие": 6551,
      "▁материа": 6552,
      "ina": 6553,
      "▁[а": 6554,
      "M,": 6555,
      "▁рт": 6556,
      "ilit": 6557,
      "▁Св.": 6558,
      "шта": 6559,
      "сен": 6560,
      "9;": 6561,
      "иъ,": 6562,
      "▁вое": 6563,
      "iax": 6564,
      "дить": 6565,
      "▁нев": 6566,
      "▁-.": 6567,
      "▁обес": 6568,
      "d)": 6569,
      "▁намъ": 6570,
      "ess,": 6571,
      "гом": 6572,
      "▁револю": 6573,
      "era": 6574,
      "▁силь": 6575,
      "дъ.": 6576,
      "леб": 6577,
      "▁МА": 6578,
      "▁опо": 6579,
      "▁шп": 6580,
      "ное,": 6581,
      "МО": 6582,
      "inc": 6583,
      "▁Bbi": 6584,
      "стри": 6585,
      "▁Вос": 6586,
      "шни": 6587,
      "▁вх": 6588,
      "вай": 6589,
      "▁нему": 6590,
      "ons": 6591,
      "^к": 6592,
      "▁сЪ": 6593,
      "oy": 6594,
      "юсь": 6595,
      "▁нео": 6596,
      "▁107": 6597,
      "▁рис.": 6598,
      "ier,": 6599,
      "води": 6600,
      "▁Оід": 6601,
      "елъ": 6602,
      "мор": 6603,
      "▁дис": 6604,
      "кин": 6605,
      "▁лица": 6606,
      "'а": 6607,
      "for": 6608,
      "▁лиц": 6609,
      "▁Дек.": 6610,
      "▁sn.": 6611,
      "▁спа": 6612,
      "▁ош": 6613,
      "▁положен": 6614,
      "▁РА": 6615,
      "ste": 6616,
      "юня": 6617,
      "дина": 6618,
      "▁Пушки": 6619,
      "-2": 6620,
      "▁маши": 6621,
      "ыми": 6622,
      "eth": 6623,
      "Aa": 6624,
      "▁которого": 6625,
      "еб": 6626,
      "кій": 6627,
      "▁1/": 6628,
      "▁S.": 6629,
      "▁двор": 6630,
      "щихъ": 6631,
      "ven": 6632,
      "чины": 6633,
      "▁end": 6634,
      "▁рат": 6635,
      "▁прим": 6636,
      "▁менее": 6637,
      "▁sm": 6638,
      "▁этотъ": 6639,
      "нивер": 6640,
      "68": 6641,
      "ъ;": 6642,
      "▁года.": 6643,
      "кров": 6644,
      "дователь": 6645,
      "▁земле": 6646,
      "то.": 6647,
      "▁торгов": 6648,
      "uss": 6649,
      "▁вида": 6650,
      "е:": 6651,
      "более": 6652,
      "urn": 6653,
      "▁руки": 6654,
      "числен": 6655,
      "▁собою": 6656,
      "^в": 6657,
      "▁из-": 6658,
      "лых": 6659,
      "▁Иа": 6660,
      "▁поряд": 6661,
      "ружен": 6662,
      "з;": 6663,
      "Ан": 6664,
      "▁71": 6665,
      "▁свет": 6666,
      "▁ir": 6667,
      "▁Ь.": 6668,
      "▁Тур": 6669,
      "aro": 6670,
      "▁глаза": 6671,
      "▁Ех": 6672,
      "iam": 6673,
      "под": 6674,
      "▁вним": 6675,
      "▁пого": 6676,
      "▁,,": 6677,
      "ского,": 6678,
      "▁מ": 6679,
      "▁Ком": 6680,
      "!и": 6681,
      "▁сни": 6682,
      "'и": 6683,
      "▁прису": 6684,
      "ho": 6685,
      "▁НО": 6686,
      "▁другихъ": 6687,
      "▁под-": 6688,
      "рій": 6689,
      "▁арест,": 6690,
      "▁механи": 6691,
      "▁сде": 6692,
      "1111": 6693,
      "▁Зем": 6694,
      "▁ВС": 6695,
      "▁этихъ": 6696,
      "▁большой": 6697,
      "па,": 6698,
      "▁Кро": 6699,
      "▁типа": 6700,
      "урна": 6701,
      "ющим": 6702,
      "▁ску": 6703,
      "▁уби": 6704,
      "▁25.": 6705,
      "▁нЪ": 6706,
      "▁дене": 6707,
      "▁забо": 6708,
      "ал.": 6709,
      "▁B.": 6710,
      "▁кур": 6711,
      "▁класс": 6712,
      "іІ": 6713,
      "струк": 6714,
      "▁ныхъ": 6715,
      "▁ноя": 6716,
      "тей": 6717,
      "▁отде": 6718,
      "x,": 6719,
      "ХЪ": 6720,
      "вй": 6721,
      "▁свобод": 6722,
      "нит": 6723,
      "▁земля": 6724,
      "6;": 6725,
      "▁пси": 6726,
      "▁ока": 6727,
      "▁ири": 6728,
      "никовъ": 6729,
      "вших": 6730,
      "рх": 6731,
      "▁ѣ": 6732,
      "деп": 6733,
      "▁which": 6734,
      "▁сбо": 6735,
      "▁защ": 6736,
      "▁принима": 6737,
      "же-": 6738,
      "94": 6739,
      "гае": 6740,
      "▁каждый": 6741,
      ".........": 6742,
      "▁продук": 6743,
      "▁s.m.": 6744,
      "▁должна": 6745,
      "▁старо": 6746,
      "тие": 6747,
      "▁pl.": 6748,
      "▁соци": 6749,
      "овое": 6750,
      "ста.": 6751,
      "▁опе": 6752,
      "▁Лав": 6753,
      "ющій": 6754,
      "▁смерти": 6755,
      "▁Кли": 6756,
      "овыхъ": 6757,
      "ma": 6758,
      "Пе": 6759,
      "▁her": 6760,
      "▁изд": 6761,
      "▁29.": 6762,
      "мое": 6763,
      "▁объяв": 6764,
      "А-": 6765,
      "шить": 6766,
      "ал,": 6767,
      "▁жела": 6768,
      "ні": 6769,
      "поль": 6770,
      "апз": 6771,
      "луч": 6772,
      "▁которую": 6773,
      "б.,": 6774,
      "рить,": 6775,
      "l,": 6776,
      "▁нель": 6777,
      "▁sol": 6778,
      "▁ного": 6779,
      "IOS": 6780,
      "іоп": 6781,
      "лей.": 6782,
      "▁мая": 6783,
      "58": 6784,
      "дам": 6785,
      "5-": 6786,
      "▁спосо": 6787,
      "GG": 6788,
      "▁князь": 6789,
      "▁Ат": 6790,
      "▁первой": 6791,
      "3)": 6792,
      "щё": 6793,
      "стьян": 6794,
      "▁сро": 6795,
      "••": 6796,
      "ine,": 6797,
      "ки;": 6798,
      "ese": 6799,
      "рец": 6800,
      "org": 6801,
      "▁коллек": 6802,
      "▁181": 6803,
      "us.": 6804,
      "кш": 6805,
      "▁клю": 6806,
      "варя": 6807,
      "▁болѣ": 6808,
      "лю,": 6809,
      "бель": 6810,
      "▁каза": 6811,
      "M.": 6812,
      "шка,": 6813,
      "▁его.": 6814,
      "▁трех": 6815,
      "ИСТ": 6816,
      "▁==": 6817,
      "щим": 6818,
      "07": 6819,
      "▁Бога": 6820,
      "▁прп": 6821,
      "▁23.": 6822,
      "EN": 6823,
      "тах": 6824,
      "▁связи": 6825,
      "▁(У": 6826,
      "▁е!": 6827,
      "пот": 6828,
      "▁Ско": 6829,
      "|>": 6830,
      "нача": 6831,
      "▁Ков": 6832,
      "▁оса": 6833,
      "▁значитель": 6834,
      "▁вни": 6835,
      "yl": 6836,
      "▁ий": 6837,
      "▁расположен": 6838,
      "левъ": 6839,
      "▁(.": 6840,
      "хх": 6841,
      "▁cb": 6842,
      "él": 6843,
      "шг": 6844,
      "▁сос": 6845,
      "див": 6846,
      "ame": 6847,
      "енный": 6848,
      "ie.": 6849,
      "▁экземпля": 6850,
      "сов.": 6851,
      "▁экз.": 6852,
      "▁следует": 6853,
      "кр": 6854,
      "яо": 6855,
      "▁15,": 6856,
      "uer": 6857,
      "мё": 6858,
      "▁être": 6859,
      "51": 6860,
      "ble": 6861,
      "ын": 6862,
      "чаются": 6863,
      "цин": 6864,
      "▁чрез": 6865,
      "емые": 6866,
      "▁легко": 6867,
      "ИЗ": 6868,
      "▁дни": 6869,
      "!-": 6870,
      "▁É": 6871,
      "ance": 6872,
      "▁реб": 6873,
      "▁Digit": 6874,
      "▁Абхаз": 6875,
      "'І": 6876,
      "▁кип": 6877,
      "▁мак": 6878,
      "▁.....": 6879,
      "пара": 6880,
      "▁бег": 6881,
      "▁гр": 6882,
      "▁Она": 6883,
      "▁пь": 6884,
      "ли:": 6885,
      "▁ски": 6886,
      "▁отдѣ": 6887,
      "▁14,": 6888,
      "▁Сот": 6889,
      "▁cal": 6890,
      "ta": 6891,
      "▁вав": 6892,
      "де.": 6893,
      "Й,": 6894,
      "▁мир": 6895,
      "▁אַ": 6896,
      "▁сына": 6897,
      "▁Дру": 6898,
      "▁30.": 6899,
      "ment,": 6900,
      "1Н": 6901,
      "лу,": 6902,
      "▁Me": 6903,
      "о^": 6904,
      "AM": 6905,
      "йг": 6906,
      "ан,": 6907,
      "▁ничего": 6908,
      "шать": 6909,
      "▁Константи": 6910,
      "▁нос": 6911,
      "шс": 6912,
      "▁семь": 6913,
      "▁Ог": 6914,
      "▁[ср.": 6915,
      "ждение": 6916,
      "▁Тех": 6917,
      "▁иъ": 6918,
      "▁чё": 6919,
      "▁pop": 6920,
      "▁имени": 6921,
      "а^": 6922,
      "▁СЬ": 6923,
      "▁плот": 6924,
      "▁Арх": 6925,
      "ведения": 6926,
      "кут": 6927,
      "ант": 6928,
      "▁гри": 6929,
      "ДН": 6930,
      "шем": 6931,
      "▁собы": 6932,
      "гиз": 6933,
      "ди.": 6934,
      "▁образом": 6935,
      "ient": 6936,
      "ШЕ": 6937,
      "▁рі.": 6938,
      "▁непре": 6939,
      "▁אי": 6940,
      "▁reg": 6941,
      "рать": 6942,
      "ата,": 6943,
      "▁якъ": 6944,
      "инов": 6945,
      "▁мои": 6946,
      "co": 6947,
      "ж,": 6948,
      "s;": 6949,
      "И-": 6950,
      "▁Лени": 6951,
      "▁Am": 6952,
      "apa": 6953,
      "аб": 6954,
      "esch": 6955,
      "тез": 6956,
      "писи": 6957,
      "Х.": 6958,
      "▁цвет": 6959,
      "рода": 6960,
      "▁маг": 6961,
      "▁ток": 6962,
      "▁Ьо": 6963,
      "▁III": 6964,
      "▁Ap": 6965,
      "te,": 6966,
      "кг": 6967,
      "▁се,": 6968,
      "▁Тре": 6969,
      "ТЬ": 6970,
      "▁ето": 6971,
      "▁1*": 6972,
      "▁ins": 6973,
      "▁конфлик": 6974,
      "k,": 6975,
      "▁гб": 6976,
      "ск1й": 6977,
      "▁ах": 6978,
      "▁своему": 6979,
      "▁сильно": 6980,
      "іііі": 6981,
      "▁мое": 6982,
      "▁werd": 6983,
      "▁inc": 6984,
      "▁дале": 6985,
      "57": 6986,
      "igen": 6987,
      "▁з.": 6988,
      "▁семей": 6989,
      "▁די": 6990,
      "▁Hac": 6991,
      "▁карти": 6992,
      "▁довольно": 6993,
      "▁сл.": 6994,
      "▁кн": 6995,
      "▁разно": 6996,
      "KT": 6997,
      "04": 6998,
      "ві": 6999,
      "▁хе": 7000,
      "▁государе": 7001,
      "▁«А": 7002,
      "▁д'Ь": 7003,
      "▁предъ": 7004,
      "пеп": 7005,
      "▁Digitized": 7006,
      "8;": 7007,
      "é.": 7008,
      "ных,": 7009,
      "няется": 7010,
      "(.": 7011,
      "an,": 7012,
      "▁Ш,": 7013,
      "Иа": 7014,
      "ь-": 7015,
      "▁влия": 7016,
      "IS": 7017,
      "pac": 7018,
      "▁Ас": 7019,
      "апи": 7020,
      "▁иду": 7021,
      "▁наше": 7022,
      "ull": 7023,
      "ясь": 7024,
      "▁блю": 7025,
      "▁самъ": 7026,
      "дней": 7027,
      "▁получен": 7028,
      "дую": 7029,
      "rag": 7030,
      "вѣт": 7031,
      "▁множе": 7032,
      "яа": 7033,
      "▁прибы": 7034,
      "▁8)": 7035,
      "▁быстро": 7036,
      "▁пуст.,": 7037,
      "так": 7038,
      "▁Чо": 7039,
      "ild": 7040,
      "▁каждо": 7041,
      "3H": 7042,
      "ép": 7043,
      "сот": 7044,
      "!й": 7045,
      "in.": 7046,
      "▁денег": 7047,
      "▁«Р": 7048,
      "▁fo": 7049,
      "63": 7050,
      "сво": 7051,
      "стр": 7052,
      "▁уро": 7053,
      "▁священ": 7054,
      "▁нико": 7055,
      "-^": 7056,
      "▁нее": 7057,
      "O,": 7058,
      "▁пѣ": 7059,
      "▁дит": 7060,
      "▁ДА": 7061,
      "▁началь": 7062,
      "▁бал": 7063,
      "вала": 7064,
      "л:": 7065,
      "ру.": 7066,
      "▁счит": 7067,
      "▁причин": 7068,
      "казатель": 7069,
      "▁первый": 7070,
      "ою": 7071,
      "▁28.": 7072,
      "езз": 7073,
      "▁сын": 7074,
      "▁чрезъ": 7075,
      "▁про¬": 7076,
      "▁ben": 7077,
      "в*": 7078,
      "▁ПЕР": 7079,
      "детель": 7080,
      "JiH": 7081,
      "▁Быть": 7082,
      "ІН": 7083,
      "▁тяже": 7084,
      "▁В1": 7085,
      "скій.": 7086,
      "▁гг": 7087,
      "▁Кри": 7088,
      "▁nom": 7089,
      "▁Объ": 7090,
      "дии": 7091,
      "лые": 7092,
      "▁являются": 7093,
      "▁auch": 7094,
      "▁устрой": 7095,
      "тос": 7096,
      "▁уста": 7097,
      "is.": 7098,
      "▁Les": 7099,
      "▁говорить": 7100,
      "▁эпо": 7101,
      "▁тотъ": 7102,
      "▁Тимо": 7103,
      "▁шт": 7104,
      "анные": 7105,
      "▁аЬ": 7106,
      "на-": 7107,
      "▁еа": 7108,
      "▁долго": 7109,
      "▁Нау": 7110,
      "▁автомоби": 7111,
      "жение": 7112,
      "▁пе-": 7113,
      "▁книга": 7114,
      "▁исполн": 7115,
      "▁опера": 7116,
      "▁Ge": 7117,
      "жной": 7118,
      "vel": 7119,
      "ям": 7120,
      "немъ": 7121,
      "▁распростран": 7122,
      "▁оі": 7123,
      "ственной": 7124,
      "исе": 7125,
      "▁дѣла": 7126,
      "юля": 7127,
      "▁(З": 7128,
      "▁оба": 7129,
      "▁подвер": 7130,
      "гель": 7131,
      "нологи": 7132,
      "▁фран": 7133,
      "му.": 7134,
      "▁возра": 7135,
      "▁расши": 7136,
      "ЛЯ": 7137,
      "▁желе": 7138,
      "1&": 7139,
      "евер": 7140,
      "air": 7141,
      "Ша": 7142,
      "▁мяг": 7143,
      "0-": 7144,
      "^e": 7145,
      "цы.": 7146,
      "▁определен": 7147,
      "Ke": 7148,
      "твор": 7149,
      "дах": 7150,
      "ски,": 7151,
      "прави": 7152,
      "▁яй": 7153,
      "▁s.f.": 7154,
      "éd": 7155,
      "вд": 7156,
      "▁потреб": 7157,
      "▁Смо": 7158,
      "▁указыва": 7159,
      "▁ква": 7160,
      "▁наго": 7161,
      "▁Куз": 7162,
      "ao": 7163,
      "▁посред": 7164,
      "▁жизнь": 7165,
      "▁стали": 7166,
      "▁живу": 7167,
      "▁Росси": 7168,
      "g.": 7169,
      "▁разу": 7170,
      "—3": 7171,
      "▁потом": 7172,
      "▁Игн": 7173,
      "▁n'": 7174,
      "▁испр.": 7175,
      "▁моя": 7176,
      "▁хран": 7177,
      "ure,": 7178,
      "▁но,": 7179,
      "▁кь": 7180,
      "▁сравн": 7181,
      "чй": 7182,
      "▁мЪ": 7183,
      "▁can": 7184,
      "6-": 7185,
      "▁села": 7186,
      "▁перево": 7187,
      "▁поля": 7188,
      "▁посе": 7189,
      "▁16,": 7190,
      "▁всЬ": 7191,
      "xe": 7192,
      "пё": 7193,
      "-К": 7194,
      "▁длин": 7195,
      "атив": 7196,
      "cT": 7197,
      "бм": 7198,
      "res": 7199,
      "▁Пс": 7200,
      "▁Мал": 7201,
      "▁фев": 7202,
      "(о": 7203,
      "пш": 7204,
      "▁авгу": 7205,
      "^H": 7206,
      "▁бат": 7207,
      "▁созда": 7208,
      "iff": 7209,
      "ановъ": 7210,
      "д'Ь": 7211,
      "1М": 7212,
      "hn": 7213,
      "яте": 7214,
      "h,": 7215,
      "▁посо": 7216,
      "▁соу": 7217,
      "ator": 7218,
      "OR": 7219,
      "л'Ь": 7220,
      "▁Сог": 7221,
      "▁яр": 7222,
      "HHe": 7223,
      "▁172": 7224,
      "▁бер": 7225,
      "▁(т": 7226,
      "u.": 7227,
      "ба.": 7228,
      "▁ἀ": 7229,
      "вого": 7230,
      "гер": 7231,
      "▁сбор": 7232,
      "▁кас": 7233,
      "рек": 7234,
      "gl": 7235,
      "ши.": 7236,
      "ry": 7237,
      "чества": 7238,
      "щь": 7239,
      "ѣмъ": 7240,
      "руд": 7241,
      "іГ": 7242,
      "▁«Д": 7243,
      "▁(к": 7244,
      "▁ряд": 7245,
      "▁черезъ": 7246,
      "сле": 7247,
      "▁воево": 7248,
      "▁Ца": 7249,
      "Ab": 7250,
      "cx": 7251,
      "гна": 7252,
      "ити,": 7253,
      "Іа": 7254,
      "ЕХ": 7255,
      "▁IX": 7256,
      "▁har": 7257,
      "▁судь": 7258,
      "?.": 7259,
      "епі": 7260,
      "▁918": 7261,
      "▁например,": 7262,
      "жмите": 7263,
      "▁Рег": 7264,
      "▁(Д.": 7265,
      "▁лы": 7266,
      "ово,": 7267,
      "▁промы": 7268,
      "oc.": 7269,
      "▁Михайлов": 7270,
      "кономи": 7271,
      "▁чтобъ": 7272,
      "тар": 7273,
      "ву,": 7274,
      "То": 7275,
      "▁Ц.": 7276,
      "▁любо": 7277,
      "▁жар": 7278,
      "евы": 7279,
      "Ma": 7280,
      "чество": 7281,
      "▁в^": 7282,
      "▁еее": 7283,
      "▁милости": 7284,
      "бре": 7285,
      "▁издан": 7286,
      "?,": 7287,
      "шд": 7288,
      "▁тан": 7289,
      "▁Fl": 7290,
      "kk": 7291,
      "▁вг": 7292,
      "▁гли": 7293,
      "-в": 7294,
      "TE": 7295,
      "▁Кав": 7296,
      "▁117": 7297,
      "ток": 7298,
      "▁(d": 7299,
      "▁сочин": 7300,
      "аться.": 7301,
      "▁сход": 7302,
      "▁Чет": 7303,
      "▁оси": 7304,
      "▁sec": 7305,
      "ated": 7306,
      "довъ,": 7307,
      "nd": 7308,
      "ть;": 7309,
      "▁сты": 7310,
      "ера": 7311,
      "▁Аф": 7312,
      "ІЯ": 7313,
      "и;": 7314,
      "^^^": 7315,
      "точ": 7316,
      "нах": 7317,
      "гре": 7318,
      "мй": 7319,
      "▁качестве": 7320,
      "▁истин": 7321,
      "дий": 7322,
      "15,": 7323,
      "}.": 7324,
      "▁оче": 7325,
      "▁РЕ": 7326,
      "ров,": 7327,
      "твер": 7328,
      "▁пример": 7329,
      "СТВ": 7330,
      "▁прово": 7331,
      "▁Мн": 7332,
      "▁закон": 7333,
      "▁разв": 7334,
      "ця": 7335,
      "▁осво": 7336,
      "“,": 7337,
      "▁АМ": 7338,
      "ту.": 7339,
      "paB": 7340,
      "▁бас": 7341,
      "▁Лев": 7342,
      "▁ТА": 7343,
      "▁йег": 7344,
      "▁IV,": 7345,
      "»)": 7346,
      "▁глубо": 7347,
      "ковъ.": 7348,
      "▁противъ": 7349,
      "▁pr.": 7350,
      "с!": 7351,
      "▁сек": 7352,
      "нье": 7353,
      "▁СМ": 7354,
      "домо": 7355,
      "▁13,": 7356,
      "ου": 7357,
      "▁pers": 7358,
      "▁178": 7359,
      "вб": 7360,
      "▁нуж": 7361,
      "▁человека": 7362,
      "▁жидко": 7363,
      "емых": 7364,
      "▁начала": 7365,
      "▁кладу": 7366,
      "▁зі": 7367,
      "▁26.": 7368,
      "▁(со": 7369,
      "▁116": 7370,
      "▁каса": 7371,
      "тет": 7372,
      "tern": 7373,
      "▁значение": 7374,
      "—1": 7375,
      "анас": 7376,
      "поп": 7377,
      "-В": 7378,
      "цъ.": 7379,
      "▁обеспе": 7380,
      "▁зы": 7381,
      "ana": 7382,
      "жал": 7383,
      "▁ина": 7384,
      "▁назван": 7385,
      "ложить": 7386,
      "а;": 7387,
      "ателей": 7388,
      "ecT": 7389,
      "▁хво": 7390,
      "▁Тво": 7391,
      "▁кал": 7392,
      "▁(з": 7393,
      "DD": 7394,
      "▁сель": 7395,
      "▁Иу": 7396,
      "▁ste": 7397,
      "ност": 7398,
      "▁дека": 7399,
      "▁сф": 7400,
      "бег": 7401,
      "▁ого": 7402,
      "▁Мор.": 7403,
      "ענ": 7404,
      "▁сан": 7405,
      "▁сил": 7406,
      "лим": 7407,
      "зма": 7408,
      "▁вед": 7409,
      "▁королев": 7410,
      "цевъ": 7411,
      "▁веще": 7412,
      "▁своихъ": 7413,
      "графи": 7414,
      "▁князя": 7415,
      "▁Онъ": 7416,
      "▁durch": 7417,
      "▁ств": 7418,
      "▁ка-": 7419,
      "▁холо": 7420,
      "inn": 7421,
      "▁Рог": 7422,
      "▁струк": 7423,
      "кова,": 7424,
      "бы,": 7425,
      "^еп": 7426,
      "▁115": 7427,
      "▁заме": 7428,
      "▁точки": 7429,
      "1$": 7430,
      "мира": 7431,
      "▁18,": 7432,
      "▁паль": 7433,
      "!е,": 7434,
      "фег": 7435,
      "▁саха": 7436,
      "▁———": 7437,
      "юй": 7438,
      "дами": 7439,
      "ъ-": 7440,
      "▁ТУ": 7441,
      "гип": 7442,
      "лён": 7443,
      "▁позд": 7444,
      "KOB": 7445,
      "▁немного": 7446,
      "▁Ней.": 7447,
      "▁закры": 7448,
      "ание,": 7449,
      "▁мё": 7450,
      "ur.": 7451,
      "Hbi": 7452,
      "сом": 7453,
      "сА": 7454,
      "▁Теп": 7455,
      "▁160": 7456,
      "fc": 7457,
      "▁нд": 7458,
      "▁194": 7459,
      "▁set": 7460,
      "▁сама": 7461,
      "▁cou": 7462,
      "йп": 7463,
      "▁іи": 7464,
      "це,": 7465,
      "▁принадлеж": 7466,
      "▁помощью": 7467,
      "ον": 7468,
      "эн": 7469,
      "▁одну": 7470,
      "▁Ы.": 7471,
      "▁памят": 7472,
      "1ап": 7473,
      "дз": 7474,
      "▁(S": 7475,
      "вос": 7476,
      "▁изо": 7477,
      "▁сд.": 7478,
      "▁КО": 7479,
      "▁27.": 7480,
      "ле.": 7481,
      "▁коль": 7482,
      "▁іу": 7483,
      "▁руковод": 7484,
      "//": 7485,
      "НЪ": 7486,
      "ке.": 7487,
      "▁китай": 7488,
      "▁трав": 7489,
      "▁оре": 7490,
      "▁Ьег": 7491,
      "гу.": 7492,
      "атели": 7493,
      "▁mod": 7494,
      "сав": 7495,
      "ер-": 7496,
      "▁ВА": 7497,
      "zy": 7498,
      "мель": 7499,
      "рго": 7500,
      "▁Пан": 7501,
      "вание": 7502,
      "ен-": 7503,
      "ваем": 7504,
      "ческим": 7505,
      "▁однако": 7506,
      "▁еш": 7507,
      "▁жу": 7508,
      "▁Ex": 7509,
      "тит": 7510,
      "uld": 7511,
      "▁дъ": 7512,
      "▁умень": 7513,
      "▁приведен": 7514,
      "bo": 7515,
      "▁ot": 7516,
      "▁off": 7517,
      "▁Высо": 7518,
      "▁аі": 7519,
      "▁пере-": 7520,
      "▁степени": 7521,
      "▁рп": 7522,
      "▁7)": 7523,
      "▁огне": 7524,
      "▁основан": 7525,
      "▁Мор": 7526,
      "▁лич": 7527,
      "жё": 7528,
      "сеп": 7529,
      "▁напо": 7530,
      "▁Сво": 7531,
      "зывать": 7532,
      "Ги": 7533,
      "▁влад": 7534,
      "▁опи": 7535,
      "iy": 7536,
      "м^": 7537,
      "72": 7538,
      "лЬ": 7539,
      "гд": 7540,
      "▁ими": 7541,
      "де-": 7542,
      "▁хозяй": 7543,
      "▁ser": 7544,
      "ня,": 7545,
      "▁бб": 7546,
      "▁tf.": 7547,
      "▁Бѣ": 7548,
      "▁другие": 7549,
      "»-": 7550,
      "стат": 7551,
      "▁-в": 7552,
      "ческую": 7553,
      "ііоп": 7554,
      "▁прибли": 7555,
      "▁вк": 7556,
      "рави": 7557,
      "мец": 7558,
      "▁наблюда": 7559,
      "▁сс": 7560,
      "▁воск": 7561,
      "▁Вилен": 7562,
      "71": 7563,
      "▁занима": 7564,
      "-й": 7565,
      "нику": 7566,
      "iter": 7567,
      "▁пора": 7568,
      "▁прояв": 7569,
      "▁Вол": 7570,
      "00.": 7571,
      "le.": 7572,
      "лень": 7573,
      "ose": 7574,
      "мовъ": 7575,
      "ным,": 7576,
      "anb": 7577,
      "▁«о": 7578,
      "▁ill": 7579,
      "▁на¬": 7580,
      "лами": 7581,
      "inal": 7582,
      "▁1881": 7583,
      "нем": 7584,
      "тоб": 7585,
      "до,": 7586,
      "▁вку": 7587,
      "▁КА": 7588,
      "▁пор.": 7589,
      "arb": 7590,
      "▁препо": 7591,
      "▁dist": 7592,
      "▁реп": 7593,
      "▁вари": 7594,
      "▁товари": 7595,
      "▁побе": 7596,
      "фь": 7597,
      "▁немъ": 7598,
      "разу": 7599,
      "▁ז": 7600,
      "-С": 7601,
      "шку": 7602,
      "лить,": 7603,
      "ЛЛ": 7604,
      "▁ир": 7605,
      "▁рей": 7606,
      "▁войска": 7607,
      "▁СЯ,": 7608,
      "▁ра-": 7609,
      "el,": 7610,
      "▁Алексѣ": 7611,
      "▁mag": 7612,
      "jio": 7613,
      "▁правитель": 7614,
      "▁опас": 7615,
      "▁внутри": 7616,
      "▁зов": 7617,
      "opo": 7618,
      "▁кристал": 7619,
      "▁бит": 7620,
      "▁температу": 7621,
      "▁BIOS": 7622,
      "▁No.": 7623,
      "val": 7624,
      "я:": 7625,
      "▁собира": 7626,
      "▁помощи": 7627,
      "^a": 7628,
      "новь": 7629,
      "^і": 7630,
      "▁(Д": 7631,
      "пой": 7632,
      "▁M.": 7633,
      "▁δ": 7634,
      "▁радо": 7635,
      "▁Тор": 7636,
      "М,": 7637,
      "сей": 7638,
      "cht": 7639,
      "лз": 7640,
      "en-": 7641,
      "▁ОС": 7642,
      "ча.": 7643,
      "м*": 7644,
      "еме": 7645,
      "аров": 7646,
      "тов,": 7647,
      "▁179": 7648,
      "aeT": 7649,
      "▁119": 7650,
      "▁русской": 7651,
      "▁оконч": 7652,
      "▁бь": 7653,
      "▁(Ч": 7654,
      "▁контро": 7655,
      "▁(Ь": 7656,
      "▁раза": 7657,
      "▁специ": 7658,
      "ІА": 7659,
      "▁повре": 7660,
      "..........": 7661,
      "▁слѣду": 7662,
      "▁приве": 7663,
      "▁завод": 7664,
      "хъ;": 7665,
      "▁ox": 7666,
      "вг": 7667,
      "▁запа": 7668,
      "▁круг": 7669,
      "ux,": 7670,
      "▁вере": 7671,
      "▁корпу": 7672,
      "сред": 7673,
      "тек": 7674,
      "urs": 7675,
      "мый": 7676,
      "же.": 7677,
      "из.": 7678,
      "61": 7679,
      "ЕБ": 7680,
      "▁таз": 7681,
      "▁сош": 7682,
      "ника,": 7683,
      "por": 7684,
      "щев": 7685,
      "▁um": 7686,
      "▁такое": 7687,
      "на;": 7688,
      "▁мо-": 7689,
      "▁табли": 7690,
      "сЫ": 7691,
      "▁вро": 7692,
      "ars": 7693,
      "анье": 7694,
      "'b": 7695,
      "▁представлен": 7696,
      "▁карто": 7697,
      "фика": 7698,
      "▁ass": 7699,
      "▁УП": 7700,
      "кови": 7701,
      "—5": 7702,
      "стѣ": 7703,
      "▁(при": 7704,
      "▁vers": 7705,
      "▁использу": 7706,
      "▁mon": 7707,
      "▁Je": 7708,
      "▁же.": 7709,
      "▁печат": 7710,
      "▁Васильевъ": 7711,
      "РУ": 7712,
      "▁запад": 7713,
      "▁Aus": 7714,
      ";||": 7715,
      "▁пяти": 7716,
      "етъ.": 7717,
      "1В": 7718,
      "▁компо": 7719,
      "чаты": 7720,
      "▁Бого": 7721,
      "▁cont": 7722,
      "▁ета": 7723,
      "▁сат": 7724,
      "▁места": 7725,
      "▁нами": 7726,
      "▁соо": 7727,
      "▁[е": 7728,
      "лы.": 7729,
      "еодо": 7730,
      "▁ССС": 7731,
      "▁Bb": 7732,
      "сь.": 7733,
      "▁Ив": 7734,
      "▁изу": 7735,
      "▁have": 7736,
      "дка": 7737,
      "сІ": 7738,
      "тай": 7739,
      "▁pass": 7740,
      "▁My": 7741,
      "▁русского": 7742,
      "▁крат": 7743,
      "▁гид": 7744,
      "дев": 7745,
      "▁еб": 7746,
      "▁adj": 7747,
      "яг": 7748,
      "arg": 7749,
      "Ни": 7750,
      "щій": 7751,
      "▁тй": 7752,
      "▁Бор": 7753,
      "▁при¬": 7754,
      "▁режи": 7755,
      "▁__": 7756,
      "ograph": 7757,
      "▁соглас": 7758,
      "▁one’s": 7759,
      "▁реш": 7760,
      "▁N.": 7761,
      "▁Тол": 7762,
      "▁выз": 7763,
      "▁apa": 7764,
      "▁^е": 7765,
      "Ae": 7766,
      "▁CK": 7767,
      "amm": 7768,
      "▁Ю.": 7769,
      "▁вё": 7770,
      "'К": 7771,
      "▁ἐ": 7772,
      "ег-": 7773,
      "цуз": 7774,
      "шой": 7775,
      "юю": 7776,
      "▁ввер": 7777,
      "▁Еп": 7778,
      "▁организа": 7779,
      "▁ват": 7780,
      "▁«Т": 7781,
      "▁114": 7782,
      "*^": 7783,
      "ime": 7784,
      "fte": 7785,
      "ГГ": 7786,
      "▁гон": 7787,
      "▁Поэтому": 7788,
      "11а": 7789,
      "▁Обо": 7790,
      "▁men": 7791,
      "▁разви": 7792,
      "▁требов": 7793,
      "▁образомъ": 7794,
      "пере": 7795,
      "▁TaK": 7796,
      "ica": 7797,
      "▁годъ": 7798,
      "лось,": 7799,
      "▁рге": 7800,
      "▁НИК": 7801,
      "▁Bc": 7802,
      "—18": 7803,
      "▁оби": 7804,
      "▁Ир": 7805,
      "▁Ник.": 7806,
      "Tb,": 7807,
      "i/i": 7808,
      ":1": 7809,
      "хт": 7810,
      "▁постанов": 7811,
      "ений,": 7812,
      "▁mov": 7813,
      "▁вероят": 7814,
      "1емъ": 7815,
      "ро,": 7816,
      "лго": 7817,
      "▁дья": 7818,
      "▁rem": 7819,
      "°.": 7820,
      "▁104": 7821,
      "▁1^": 7822,
      "упо": 7823,
      "▁от.": 7824,
      "sh": 7825,
      "хб": 7826,
      "!^": 7827,
      "ute": 7828,
      "рно": 7829,
      "▁ві": 7830,
      "▁Же": 7831,
      "▁ово": 7832,
      "▁потер": 7833,
      "іеі": 7834,
      "cul": 7835,
      "чі": 7836,
      "стая": 7837,
      "▁Стан": 7838,
      "хом": 7839,
      "СО": 7840,
      "яб.": 7841,
      "▁указан": 7842,
      "▁дЬ": 7843,
      "ныхъ,": 7844,
      "фі": 7845,
      "▁пре-": 7846,
      "луб": 7847,
      "4а": 7848,
      "▁поэтому": 7849,
      "▁Кры": 7850,
      "▁191": 7851,
      "лета": 7852,
      "цией": 7853,
      "▁АР": 7854,
      "лять,": 7855,
      "▁собран": 7856,
      "▁Григорій": 7857,
      "5;": 7858,
      "▁зас": 7859,
      "'о": 7860,
      "▁Ое": 7861,
      "▁aa": 7862,
      "▁let": 7863,
      "маз": 7864,
      "▁болез": 7865,
      "тиз": 7866,
      "▁невоз": 7867,
      "▁содержа": 7868,
      "▁(Е": 7869,
      "▁Петровъ": 7870,
      "▁епи": 7871,
      "▁Кру": 7872,
      "▁ma": 7873,
      "лоч": 7874,
      "▁превра": 7875,
      "лэ": 7876,
      "шав": 7877,
      "▁время,": 7878,
      "цк.": 7879,
      "пе.": 7880,
      "▁офи": 7881,
      "au,": 7882,
      "ique,": 7883,
      "▁Ad": 7884,
      "▁Эта": 7885,
      "▁соответствую": 7886,
      "▁чь": 7887,
      "▁сор": 7888,
      "ase": 7889,
      "*»": 7890,
      "рои": 7891,
      "▁int": 7892,
      "▁крестьян": 7893,
      "▁АЛЕК": 7894,
      "▁оде": 7895,
      "HTe": 7896,
      "▁говорит": 7897,
      "чемъ": 7898,
      "рян": 7899,
      "▁вел": 7900,
      "13,": 7901,
      "▁1000": 7902,
      "▁солн": 7903,
      "\\ѵ": 7904,
      "вк": 7905,
      "▁нё": 7906,
      "строй": 7907,
      "▁сё": 7908,
      "▁тк": 7909,
      "▁гр.": 7910,
      "рио": 7911,
      "ет-": 7912,
      "против": 7913,
      "▁учре": 7914,
      "▁по.": 7915,
      "ііп": 7916,
      "лато": 7917,
      "▁проз": 7918,
      "ческихъ": 7919,
      "7;": 7920,
      "сомъ": 7921,
      "клон": 7922,
      "▁Тру": 7923,
      "▁полков": 7924,
      "▁функции": 7925,
      "ère": 7926,
      "▁(No": 7927,
      "▁Александръ": 7928,
      "Op": 7929,
      "тека": 7930,
      "▁нимъ": 7931,
      "жай": 7932,
      "1ъ": 7933,
      "▁мг": 7934,
      "▁сим": 7935,
      "▁матер": 7936,
      "']": 7937,
      "▁05": 7938,
      "▁113": 7939,
      "|;": 7940,
      "▁ия": 7941,
      "бп": 7942,
      "▁с,": 7943,
      "▁образом,": 7944,
      "▁sim": 7945,
      "▁Павелъ": 7946,
      "▁еу": 7947,
      "▁ТО": 7948,
      "▁Лаз": 7949,
      "бѣ": 7950,
      "станавлива": 7951,
      "ЕЦ": 7952,
      "▁Oh": 7953,
      "▁sk": 7954,
      "жи,": 7955,
      "▁тит": 7956,
      "валь": 7957,
      "▁са.": 7958,
      "ott": 7959,
      "дите": 7960,
      "рим": 7961,
      "orum": 7962,
      "енной": 7963,
      "▁under": 7964,
      "▁большин": 7965,
      "▁Александров": 7966,
      "OC": 7967,
      "▁непри": 7968,
      "Бе": 7969,
      "чж": 7970,
      "даль": 7971,
      "▁разс": 7972,
      "é-": 7973,
      "▁ол": 7974,
      "▁Май": 7975,
      "▁Наз": 7976,
      "▁пусты": 7977,
      "▁Ph": 7978,
      "▁обычно": 7979,
      "HX": 7980,
      "▁вт": 7981,
      "мо,": 7982,
      "ова,": 7983,
      "▁котораго": 7984,
      "еры": 7985,
      "нъ.": 7986,
      "▁Дуб": 7987,
      "ique": 7988,
      "▁овъ": 7989,
      "даря": 7990,
      "става": 7991,
      "▁р.,": 7992,
      "▁соз": 7993,
      "действ": 7994,
      "▁Нав": 7995,
      "▁передъ": 7996,
      "oph": 7997,
      "вё": 7998,
      "—4": 7999,
      "▁вмѣ": 8000,
      "▁кр.": 8001,
      "02": 8002,
      "роди": 8003,
      "▁((": 8004,
      "▁103": 8005,
      "тыхъ": 8006,
      "дю": 8007,
      "ющихъ": 8008,
      "▁......": 8009,
      "▁коп.": 8010,
      "ubl": 8011,
      "шл": 8012,
      "лением": 8013,
      "mp": 8014,
      "▁СИ": 8015,
      "▁возника": 8016,
      "▁20,": 8017,
      "▁и.,": 8018,
      "▁подроб": 8019,
      "лись,": 8020,
      "▁форм": 8021,
      "▁удов": 8022,
      "▁Наи": 8023,
      "бить": 8024,
      "чие": 8025,
      "шъ,": 8026,
      "▁дополн": 8027,
      "!1": 8028,
      "▁Aju": 8029,
      "шат": 8030,
      "▁рен": 8031,
      "▁Рго": 8032,
      "▁ствен": 8033,
      "▁Кн.": 8034,
      "▁нельзя": 8035,
      "▁נ": 8036,
      "▁2:": 8037,
      "▁On": 8038,
      "▁Бож": 8039,
      "леи": 8040,
      "пом": 8041,
      "Bop": 8042,
      "ВЪ": 8043,
      "▁Тогда": 8044,
      "▁ді": 8045,
      "ange": 8046,
      "▁Ъе": 8047,
      "хг": 8048,
      "ми;": 8049,
      "▁в,": 8050,
      "▁bre": 8051,
      "▁рее": 8052,
      "щем": 8053,
      "▁возник": 8054,
      "°,": 8055,
      "▁Дани": 8056,
      "▁Ген": 8057,
      "▁арти": 8058,
      "▁явля": 8059,
      "▁приход": 8060,
      "▁своим": 8061,
      "gn": 8062,
      "ятъ": 8063,
      "▁Зу": 8064,
      "жав": 8065,
      "апі": 8066,
      "ров.": 8067,
      "ческими": 8068,
      "▁хло": 8069,
      "комъ,": 8070,
      "74": 8071,
      "чени": 8072,
      "'Ь,": 8073,
      "се,": 8074,
      "▁Мен": 8075,
      "шимъ": 8076,
      "▁сй": 8077,
      "▁вал": 8078,
      "▁взять": 8079,
      "мом": 8080,
      "▁аф": 8081,
      "шими": 8082,
      "ичъ,": 8083,
      "▁окр.,": 8084,
      "▁приро": 8085,
      "row": 8086,
      "▁вез": 8087,
      "ato": 8088,
      "сп,": 8089,
      "▁бло": 8090,
      "▁глас": 8091,
      "аь": 8092,
      "рует": 8093,
      "▁иро": 8094,
      "▁тг": 8095,
      "рэ": 8096,
      "▁иу": 8097,
      "аз.": 8098,
      "ленный": 8099,
      "▁аге": 8100,
      "▁учени": 8101,
      "▁кораб": 8102,
      "щя": 8103,
      "ме-": 8104,
      "▁успе": 8105,
      "▁пусто": 8106,
      "▁form": 8107,
      "▁trans": 8108,
      "4о": 8109,
      "▁реа": 8110,
      "▁имеют": 8111,
      "▁княз": 8112,
      "▁Ст.": 8113,
      "aud": 8114,
      "▁нашей": 8115,
      "▁интер": 8116,
      "▁пользу": 8117,
      "ict": 8118,
      "<1": 8119,
      "▁Зна": 8120,
      "▁Основ": 8121,
      "'б": 8122,
      "▁могли": 8123,
      "▁преж": 8124,
      "▁другу": 8125,
      "▁ПОЛ": 8126,
      "За": 8127,
      "Ф.": 8128,
      "вомъ": 8129,
      "та-": 8130,
      "rift": 8131,
      "▁1!": 8132,
      "гие": 8133,
      "гии": 8134,
      "▁130": 8135,
      "Х,": 8136,
      "▁с1": 8137,
      "▁бле": 8138,
      "▁такого": 8139,
      "▁іа": 8140,
      "▁avec": 8141,
      "Ер": 8142,
      "▁зт.": 8143,
      "▁прис": 8144,
      "щихся": 8145,
      "gel": 8146,
      "2у": 8147,
      "за,": 8148,
      "▁вать": 8149,
      "▁мэ": 8150,
      "▁(т.": 8151,
      "▁хот": 8152,
      "54": 8153,
      "▁рб": 8154,
      "▁Шо": 8155,
      "une": 8156,
      "дь.": 8157,
      "▁относительно": 8158,
      "69": 8159,
      "▁тщ": 8160,
      "▁(ф": 8161,
      "oss": 8162,
      "▁своими": 8163,
      "▁праздни": 8164,
      "▁раб": 8165,
      "соп": 8166,
      "▁ваешь": 8167,
      "▁Петро": 8168,
      "»:": 8169,
      "▁отд": 8170,
      "ШН": 8171,
      "▁пі": 8172,
      "▁мнѣ": 8173,
      "(;": 8174,
      "▁М,": 8175,
      "▁меся": 8176,
      "eter": 8177,
      "▁имф": 8178,
      "aw": 8179,
      "ствъ": 8180,
      "vers": 8181,
      "|'": 8182,
      "▁2а": 8183,
      "чата": 8184,
      "▁боле": 8185,
      "ственный": 8186,
      "кы": 8187,
      "▁Император": 8188,
      "▁ули": 8189,
      "▁хро": 8190,
      "▁всё": 8191,
      "▁Кара": 8192,
      "▁Росс": 8193,
      "▁action": 8194,
      "-m": 8195,
      "ЕГ": 8196,
      "ate,": 8197,
      "1Ю": 8198,
      "les": 8199,
      "▁Die": 8200,
      "▁крови": 8201,
      "С,": 8202,
      "повъ": 8203,
      "igt": 8204,
      "гз": 8205,
      "лся,": 8206,
      "▁кром": 8207,
      "je": 8208,
      "▁fer": 8209,
      "▁жить": 8210,
      "▁Вой": 8211,
      "ками.": 8212,
      "p,": 8213,
      "жность": 8214,
      "rb": 8215,
      "▁гес": 8216,
      "▁ито": 8217,
      "icul": 8218,
      "▁дф": 8219,
      "▁мт": 8220,
      "кая,": 8221,
      "rem": 8222,
      "нец": 8223,
      "egen": 8224,
      "в^": 8225,
      "г1": 8226,
      "▁5-": 8227,
      "▁которыя": 8228,
      "камъ": 8229,
      "тр.": 8230,
      "▁Мет": 8231,
      "ЖД": 8232,
      "Ъ-": 8233,
      "ленъ": 8234,
      "HA": 8235,
      "▁осуществ": 8236,
      "▁ny": 8237,
      "ОВА": 8238,
      "79": 8239,
      "ель,": 8240,
      "▁мыс": 8241,
      "▁анти": 8242,
      "там": 8243,
      "▁яа": 8244,
      "лу.": 8245,
      "енье": 8246,
      "▁бїр": 8247,
      "гь,": 8248,
      "лко": 8249,
      "ла;": 8250,
      "▁Гал": 8251,
      "▁публи": 8252,
      "▁дие": 8253,
      "▁спас": 8254,
      "▁\\У": 8255,
      "▁plus": 8256,
      "▁мною": 8257,
      "клад": 8258,
      "обо": 8259,
      "▁усп": 8260,
      "▁еж": 8261,
      "▁подви": 8262,
      "▁с0в.": 8263,
      "ler": 8264,
      "жения": 8265,
      "Мо": 8266,
      "▁Фер": 8267,
      "▁дума": 8268,
      "нимъ": 8269,
      "рь.": 8270,
      "14,": 8271,
      "▁xo": 8272,
      "▁Канце": 8273,
      "▁μ": 8274,
      "ин,": 8275,
      "▁Прав.": 8276,
      "бран": 8277,
      "▁иди": 8278,
      "аръ": 8279,
      "▁112": 8280,
      "▁125": 8281,
      "иы": 8282,
      "ess.": 8283,
      "▁Павлов": 8284,
      "OS": 8285,
      "ld": 8286,
      "▁.1": 8287,
      "▁04": 8288,
      "су,": 8289,
      "▁Зоо": 8290,
      "▁Ma": 8291,
      "лф": 8292,
      "▁пен": 8293,
      "▁оружи": 8294,
      "▁мину": 8295,
      "▁добы": 8296,
      "▁(^": 8297,
      "▁норма": 8298,
      "▁здоров": 8299,
      "or,": 8300,
      "▁дает": 8301,
      "р'Ь": 8302,
      "▁nie": 8303,
      "Ь-": 8304,
      "▁тег": 8305,
      "▁Вес": 8306,
      "тех": 8307,
      "сЬе": 8308,
      "▁жалов": 8309,
      "▁бой": 8310,
      "чныхъ": 8311,
      "▁выполн": 8312,
      "▁Han": 8313,
      "ia.": 8314,
      "▁наиболее": 8315,
      "ское,": 8316,
      "юд": 8317,
      "וו": 8318,
      "▁богат": 8319,
      "манъ": 8320,
      "▁ud": 8321,
      "▁крестья": 8322,
      "▁(=": 8323,
      "▁гі": 8324,
      "▁вода": 8325,
      "isse": 8326,
      "▁一": 8327,
      "коло": 8328,
      "▁возбу": 8329,
      "▁труб": 8330,
      "▁(17": 8331,
      "вый.": 8332,
      "▁ec": 8333,
      "ND": 8334,
      "▁Чере": 8335,
      "que,": 8336,
      "ocT": 8337,
      "▁опредѣ": 8338,
      "me,": 8339,
      "ны;": 8340,
      "▁своем": 8341,
      "▁виду": 8342,
      "▁па-": 8343,
      "▁есте": 8344,
      "8-": 8345,
      "uit": 8346,
      "ческом": 8347,
      "ecTB": 8348,
      "▁Израи": 8349,
      "▁Bep": 8350,
      "▁Ах": 8351,
      "▁хат": 8352,
      "▁като": 8353,
      "▁зад": 8354,
      "▁[|": 8355,
      "▁внеш": 8356,
      "▁über": 8357,
      "цв": 8358,
      "▁cx": 8359,
      "ющими": 8360,
      "ante,": 8361,
      "äl": 8362,
      "▁вис": 8363,
      "▁Ана": 8364,
      "▁Нег": 8365,
      "нибудь": 8366,
      "▁ДЪй": 8367,
      "ahr": 8368,
      "bre": 8369,
      "net": 8370,
      "▁ею": 8371,
      "▁Дан": 8372,
      "▁исправ": 8373,
      "гаи": 8374,
      "▁Is": 8375,
      "ЛИ": 8376,
      "▁корот": 8377,
      "▁Зас": 8378,
      "▁попа": 8379,
      "59": 8380,
      "кя": 8381,
      "МН": 8382,
      "▁sz": 8383,
      "▁скаго": 8384,
      "▁Матвѣ": 8385,
      ".).": 8386,
      "▁ооо": 8387,
      "▁31.": 8388,
      "▁стат": 8389,
      "ЕСК": 8390,
      "іи.": 8391,
      "кав": 8392,
      "сил": 8393,
      "▁стал": 8394,
      "ете,": 8395,
      "щи,": 8396,
      "ko": 8397,
      "Та": 8398,
      "elt": 8399,
      "ражения": 8400,
      "вы.": 8401,
      "▁техни": 8402,
      "▁гл": 8403,
      "лам": 8404,
      "▁Fr": 8405,
      "йтель": 8406,
      "▁гЬ": 8407,
      "▁tout": 8408,
      "▁связан": 8409,
      "▁актив": 8410,
      "HB": 8411,
      "▁снова": 8412,
      "▁послу": 8413,
      "чек": 8414,
      "▁9)": 8415,
      "▁преи": 8416,
      "▁рису": 8417,
      "мян": 8418,
      "СТВО": 8419,
      "62": 8420,
      "k.": 8421,
      "жей": 8422,
      "▁ар.": 8423,
      "▁воо": 8424,
      "»»": 8425,
      "рай": 8426,
      "етеп": 8427,
      "те-": 8428,
      "▁Фу": 8429,
      "▁кп": 8430,
      "анна": 8431,
      "▁заб": 8432,
      "▁Аа": 8433,
      "▁Ль": 8434,
      "▁пред-": 8435,
      "рь,": 8436,
      "чс": 8437,
      "литель": 8438,
      "▁изда": 8439,
      "▁выво": 8440,
      "▁опы": 8441,
      "▁указа": 8442,
      "шеви": 8443,
      "▁мол": 8444,
      "'Г": 8445,
      "▁суть": 8446,
      "ц-": 8447,
      "▁hh": 8448,
      "льныхъ": 8449,
      "port": 8450,
      "въ.": 8451,
      "ѵо": 8452,
      "лах": 8453,
      "аз,": 8454,
      "бу,": 8455,
      "ЛЕН": 8456,
      "лити": 8457,
      "цами": 8458,
      "щается": 8459,
      "стые": 8460,
      "▁Там": 8461,
      "▁слабо": 8462,
      "ype": 8463,
      "▁ПА": 8464,
      "▁путь": 8465,
      "▁руб.,": 8466,
      "hen": 8467,
      "вр": 8468,
      "▁яви": 8469,
      "▁(2)": 8470,
      "▁изд.": 8471,
      "дг": 8472,
      "▁[ср.]": 8473,
      "яи": 8474,
      "ept": 8475,
      "aire,": 8476,
      "i>": 8477,
      "ונ": 8478,
      "пог": 8479,
      "пат": 8480,
      "▁пожа": 8481,
      "▁comm": 8482,
      "▁денеж": 8483,
      "▁информа": 8484,
      "-х": 8485,
      "▁Оль": 8486,
      "onne": 8487,
      "ific": 8488,
      "'&": 8489,
      "ТЕ": 8490,
      "▁прич.": 8491,
      "▁ee": 8492,
      "▁ходи": 8493,
      "▁чемъ": 8494,
      "▁Gra": 8495,
      "▁пру": 8496,
      "▁1ез": 8497,
      "кос": 8498,
      "ue,": 8499,
      "товъ": 8500,
      "▁сж": 8501,
      "▁БА": 8502,
      "▁Воро": 8503,
      "емой": 8504,
      "▁годы": 8505,
      "ковой": 8506,
      "ніе": 8507,
      "▁Мин": 8508,
      "▁разру": 8509,
      "▁быль": 8510,
      "BT": 8511,
      "▁sie": 8512,
      "▁изуч": 8513,
      "▁двумя": 8514,
      "▁тен": 8515,
      "▁солд": 8516,
      "ская.": 8517,
      "▁совет": 8518,
      "▁скры": 8519,
      "(2": 8520,
      "▁приз": 8521,
      "▁возможность": 8522,
      "овь": 8523,
      "▁кл": 8524,
      "лак": 8525,
      "^с": 8526,
      "sc": 8527,
      "еь": 8528,
      "еръ,": 8529,
      "щан": 8530,
      "лии": 8531,
      "▁мель": 8532,
      "▁устро": 8533,
      "щими": 8534,
      "образов": 8535,
      "uv": 8536,
      "▁тп": 8537,
      "ТН": 8538,
      "▁об-": 8539,
      "гиб": 8540,
      "▁желез": 8541,
      "г.,": 8542,
      "▁вит": 8543,
      "дон": 8544,
      "мс": 8545,
      "▁мн.": 8546,
      "▁одина": 8547,
      "ісі": 8548,
      "▁бт": 8549,
      "лоу": 8550,
      "▁nur": 8551,
      "тес": 8552,
      "▁ность": 8553,
      "▁жер": 8554,
      "ющихся": 8555,
      "▁их,": 8556,
      "▁Іе": 8557,
      "▁this": 8558,
      "еву": 8559,
      "мо-": 8560,
      "товъ,": 8561,
      "▁сторон": 8562,
      "▁ката": 8563,
      "лях": 8564,
      "▁наказ": 8565,
      "▁rec": 8566,
      "іге": 8567,
      "▁Пись": 8568,
      "оръ": 8569,
      "▁куда": 8570,
      "αι": 8571,
      "кну": 8572,
      "еніе": 8573,
      "▁шап": 8574,
      "дая": 8575,
      "▁обез": 8576,
      "▁профес": 8577,
      "eit": 8578,
      "зап": 8579,
      "▁пн": 8580,
      "▁тф": 8581,
      "евид": 8582,
      "ственное": 8583,
      "ию": 8584,
      "HOM": 8585,
      "▁экономи": 8586,
      "▁По-": 8587,
      "▁наза": 8588,
      "▁21,": 8589,
      "тел": 8590,
      "ми-": 8591,
      "▁вместе": 8592,
      "ющего": 8593,
      "ё-": 8594,
      "вою": 8595,
      "▁тока": 8596,
      "▁Коз": 8597,
      "лос": 8598,
      "▁лист": 8599,
      "▁свидетель": 8600,
      "▁портре": 8601,
      "pon": 8602,
      "▁mer": 8603,
      "▁стол": 8604,
      "ак,": 8605,
      "▁году,": 8606,
      "(^": 8607,
      "оф": 8608,
      "▁тЬ": 8609,
      "▁двер": 8610,
      "▁8-": 8611,
      "ИНЪ,": 8612,
      "▁(дѣ": 8613,
      "▁речи": 8614,
      "▁Ярос": 8615,
      "мые": 8616,
      "▁qu'": 8617,
      "▁принци": 8618,
      "▁комму": 8619,
      "▁меж": 8620,
      "атора": 8621,
      "▁Жу": 8622,
      "вяз": 8623,
      "▁Вас.": 8624,
      "УБ": 8625,
      "▁всп": 8626,
      "▁АК": 8627,
      "▁ГЛА": 8628,
      "anch": 8629,
      "▁рот": 8630,
      "ы-": 8631,
      "▁гет": 8632,
      "▁р^": 8633,
      "▁102": 8634,
      "s-": 8635,
      "▁Благо": 8636,
      "рые": 8637,
      "▁Com": 8638,
      "▁je": 8639,
      "גע": 8640,
      "▁террито": 8641,
      "6o": 8642,
      "IR": 8643,
      "▁промышлен": 8644,
      "an.": 8645,
      "ста-": 8646,
      "▁фигу": 8647,
      "▁кат": 8648,
      "▁прочи": 8649,
      "▁кото-": 8650,
      "▁взгля": 8651,
      "▁сш": 8652,
      "рие": 8653,
      "пег": 8654,
      "риа": 8655,
      "▁mal": 8656,
      "▁интере": 8657,
      "сия": 8658,
      "▁нан": 8659,
      "жности": 8660,
      "дете": 8661,
      "хя": 8662,
      "іё": 8663,
      "▁(v": 8664,
      "мы.": 8665,
      "▁впере": 8666,
      "▁♦": 8667,
      "▁удоб": 8668,
      "▁гдѣ": 8669,
      "объ": 8670,
      "▁Божи": 8671,
      "▁193": 8672,
      "▁met": 8673,
      "▁мыш": 8674,
      "мана": 8675,
      "ЬЯ": 8676,
      "▁Слу": 8677,
      "▁17,": 8678,
      "дл": 8679,
      "к'": 8680,
      "▁мі": 8681,
      "use": 8682,
      "bt": 8683,
      "▁АЛЕКС": 8684,
      "VII": 8685,
      "дов,": 8686,
      "▁id": 8687,
      "▁ИМ": 8688,
      "шь.": 8689,
      "▁сохрани": 8690,
      "цей": 8691,
      "▁дь": 8692,
      "▁ства": 8693,
      "▁III,": 8694,
      "▁иметь": 8695,
      ")-": 8696,
      "опе": 8697,
      "*'": 8698,
      "бё": 8699,
      "▁учили": 8700,
      "▁охо": 8701,
      "▁ос.": 8702,
      "▁ночь": 8703,
      "Ъа": 8704,
      "▁ъ,": 8705,
      "ными,": 8706,
      "▁Ман": 8707,
      "Ле": 8708,
      "11е": 8709,
      "сор": 8710,
      "ПР": 8711,
      "▁рас-": 8712,
      "uie": 8713,
      "ета,": 8714,
      "▁лежа": 8715,
      "9-": 8716,
      "\\.": 8717,
      "erf": 8718,
      "валъ": 8719,
      "▁^а": 8720,
      "еп-": 8721,
      "никъ.": 8722,
      "▁Какъ": 8723,
      "зво": 8724,
      "▁домъ": 8725,
      "▁Av": 8726,
      "▁19,": 8727,
      "▁видѣ": 8728,
      "УШ": 8729,
      "Ьу": 8730,
      "куда": 8731,
      "aMH": 8732,
      "cy": 8733,
      "▁котором": 8734,
      "▁всѣхъ": 8735,
      "▁тар": 8736,
      "▁ВЕ": 8737,
      "▁досто": 8738,
      "▁has": 8739,
      "лея": 8740,
      "оваго": 8741,
      "7-": 8742,
      "▁чему": 8743,
      "ничен": 8744,
      "/2": 8745,
      "Ky": 8746,
      "жв": 8747,
      "▁вр.": 8748,
      "▁gre": 8749,
      "▁точно": 8750,
      "▁cap": 8751,
      "шеств": 8752,
      "▁tu": 8753,
      "▁сынъ": 8754,
      "▁1>": 8755,
      "роч": 8756,
      "chen": 8757,
      "егь": 8758,
      "▁1—": 8759,
      "ленно": 8760,
      "▁Bl": 8761,
      "▁ХХХ": 8762,
      "▁ry": 8763,
      "рау": 8764,
      "▁(1.": 8765,
      "▁физи": 8766,
      "CTH": 8767,
      "бг": 8768,
      "ови": 8769,
      "▁сынов": 8770,
      "esse": 8771,
      "rop": 8772,
      "▁теат": 8773,
      "щать": 8774,
      "▁х.": 8775,
      "ar,": 8776,
      "▁различных": 8777,
      "▁в'Ь": 8778,
      "ря.": 8779,
      "чес": 8780,
      "▁V,": 8781,
      "ИНА": 8782,
      "нія": 8783,
      "יט": 8784,
      "▁тоу": 8785,
      "ГОР": 8786,
      "▁лом": 8787,
      "шз": 8788,
      "▁плав": 8789,
      "▁вред": 8790,
      "▁кли": 8791,
      "лай": 8792,
      "▁Рим": 8793,
      "▁програм": 8794,
      "▁vol": 8795,
      "де,": 8796,
      "стар": 8797,
      "нам": 8798,
      "▁друж": 8799,
      "шени": 8800,
      "▁достаточно": 8801,
      "жды": 8802,
      "нм": 8803,
      "▁-ся,": 8804,
      "▁cam": 8805,
      "ма-": 8806,
      "Ме": 8807,
      "▁сэ": 8808,
      "▁Сан": 8809,
      "▁журна": 8810,
      "▁прото": 8811,
      "▁910": 8812,
      "▁поступ": 8813,
      "▁фон": 8814,
      "▁течение": 8815,
      "▁марта": 8816,
      "▁показа": 8817,
      "оволь": 8818,
      "стойчи": 8819,
      "«,": 8820,
      "Ор": 8821,
      "евь": 8822,
      "use,": 8823,
      "▁РАЗ": 8824,
      "овари": 8825,
      "▁повто": 8826,
      "▁Петербург": 8827,
      "дали": 8828,
      "▁*.": 8829,
      "вѣст": 8830,
      "▁бед": 8831,
      "▁Зак": 8832,
      "ner": 8833,
      "нымъ,": 8834,
      "ііо": 8835,
      "лъ-": 8836,
      "▁твор": 8837,
      "▁[Ср.": 8838,
      "^ъ": 8839,
      "лга": 8840,
      "▁отра": 8841,
      "▁приш": 8842,
      "ща,": 8843,
      "▁beg": 8844,
      "жъ,": 8845,
      "▁ВАС": 8846,
      "▁Чис": 8847,
      "▁Яковъ": 8848,
      "▁Худо": 8849,
      "уг": 8850,
      "юп": 8851,
      "▁\\Ѵ": 8852,
      "AT": 8853,
      "as,": 8854,
      "▁взаимо": 8855,
      "рица": 8856,
      "▁ука": 8857,
      "▁кот": 8858,
      "▁отца": 8859,
      "▁oth": 8860,
      "ха;": 8861,
      "▁лав": 8862,
      "гоз": 8863,
      "▁Сти": 8864,
      "▁Вто": 8865,
      "▁рос": 8866,
      "СТЬ": 8867,
      "▁этим": 8868,
      "▁Иса": 8869,
      "iet": 8870,
      "▁vo": 8871,
      "▁стек": 8872,
      "▁Кас": 8873,
      "▁mat": 8874,
      "▁Маз": 8875,
      "▁йо": 8876,
      "▁дело": 8877,
      "▁Мол": 8878,
      "дут": 8879,
      "щемъ": 8880,
      "biBa": 8881,
      "▁оказыва": 8882,
      "▁Ср.": 8883,
      "▁КР": 8884,
      "▁машин": 8885,
      "▁рф": 8886,
      "ііс": 8887,
      "▁раствор": 8888,
      "жа,": 8889,
      "к1": 8890,
      "л1": 8891,
      "▁Ита": 8892,
      "ос.": 8893,
      "▁день,": 8894,
      "чя": 8895,
      "▁с^": 8896,
      "▁коми": 8897,
      "▁faire": 8898,
      "овали": 8899,
      "▁дабы": 8900,
      "хэ": 8901,
      "▁м'Ь": 8902,
      "▁str": 8903,
      "J)": 8904,
      "▁дб": 8905,
      "▁наре": 8906,
      "▁Kor": 8907,
      "▁P.": 8908,
      "▁зелен": 8909,
      "▁попере": 8910,
      "ч.,": 8911,
      "▁вв.": 8912,
      "um.": 8913,
      "ES": 8914,
      "евъ.": 8915,
      "▁ca": 8916,
      "спи": 8917,
      "▁опять": 8918,
      "▁егб": 8919,
      "▁пользов": 8920,
      "▁ПЛ": 8921,
      "сед": 8922,
      "▁тур": 8923,
      "илъ": 8924,
      "▁вызыва": 8925,
      "53": 8926,
      "К,": 8927,
      "▁в)": 8928,
      "▁bes": 8929,
      "ютъ,": 8930,
      "нь,": 8931,
      "лец": 8932,
      "▁hv": 8933,
      "▁секре": 8934,
      "▁Ind": 8935,
      "ЦА": 8936,
      "▁Поль": 8937,
      "новремен": 8938,
      "AO": 8939,
      "—,": 8940,
      "▁вновь": 8941,
      "▁иже": 8942,
      "йся": 8943,
      "▁деревян": 8944,
      "▁1П": 8945,
      "▁Глав": 8946,
      "▁цы": 8947,
      "мас": 8948,
      "мена": 8949,
      "▁KO": 8950,
      "▁прі": 8951,
      "▁пош": 8952,
      "чает": 8953,
      "Из": 8954,
      "▁соеди": 8955,
      "ig,": 8956,
      "лению": 8957,
      "▁Але": 8958,
      "▁сеп": 8959,
      "ot.": 8960,
      "▁алт.": 8961,
      "гъ.": 8962,
      "сб": 8963,
      "▁шел": 8964,
      "▁буль": 8965,
      "УЛ": 8966,
      "рал": 8967,
      "еров": 8968,
      "▁чита": 8969,
      "гами": 8970,
      "▁ц.": 8971,
      "▁[.": 8972,
      "▁текста": 8973,
      "▁912": 8974,
      "▁will": 8975,
      "▁плоско": 8976,
      "▁прове": 8977,
      "▁ЕВ": 8978,
      "вать;": 8979,
      "ственных": 8980,
      "одо": 8981,
      "дия": 8982,
      "▁непосред": 8983,
      "▁(of": 8984,
      "▁твои": 8985,
      "”,": 8986,
      "▁пз": 8987,
      "▁-6": 8988,
      "▁cour": 8989,
      "▁Sl": 8990,
      "вом": 8991,
      "▁li": 8992,
      "▁путе": 8993,
      ":00": 8994,
      "▁век": 8995,
      "▁into": 8996,
      "ail": 8997,
      "ІС": 8998,
      "чы": 8999,
      "▁f,": 9000,
      "чала": 9001,
      "ук": 9002,
      "▁другими": 9003,
      "▁находя": 9004,
      "▁Леон": 9005,
      "äp": 9006,
      "рр": 9007,
      "токъ": 9008,
      "▁H.": 9009,
      "▁пё": 9010,
      "ник,": 9011,
      "Ka3": 9012,
      "▁площа": 9013,
      "▁последни": 9014,
      "Ьп": 9015,
      "▁\\ѵ": 9016,
      "▁пропу": 9017,
      "вящен": 9018,
      "▁(С.": 9019,
      "рик": 9020,
      "иться.": 9021,
      "мера": 9022,
      "(,": 9023,
      "▁сал": 9024,
      "ation.": 9025,
      "личие": 9026,
      "УК": 9027,
      "▁нрав": 9028,
      "▁оти": 9029,
      "рост": 9030,
      "ij": 9031,
      "▁напр.": 9032,
      "іь": 9033,
      "aar": 9034,
      "р$": 9035,
      "▁ОО": 9036,
      "▁-e": 9037,
      "▁лп": 9038,
      "endre": 9039,
      "▁ый": 9040,
      "▁ВИ": 9041,
      "▁запи": 9042,
      "▁138": 9043,
      "▁изображен": 9044,
      "тые": 9045,
      "1е.": 9046,
      "▁убе": 9047,
      "сто,": 9048,
      "гать": 9049,
      "даго": 9050,
      "▁[м.": 9051,
      "▁назна": 9052,
      "лаб": 9053,
      "▁hom": 9054,
      "фн": 9055,
      "▁cel": 9056,
      "▁122": 9057,
      "▁добро": 9058,
      "ку;": 9059,
      "городи": 9060,
      "ины": 9061,
      "у;": 9062,
      "▁ара": 9063,
      "ano": 9064,
      "лов,": 9065,
      "▁Академи": 9066,
      "▁людей,": 9067,
      "▁опа": 9068,
      "ence": 9069,
      "▁ДР": 9070,
      ").—": 9071,
      "▁таких": 9072,
      "▁люби": 9073,
      "▁характеристи": 9074,
      "▁НИ": 9075,
      "▁обстоятель": 9076,
      "ваться.": 9077,
      "гег": 9078,
      "ogle": 9079,
      "▁нажмите": 9080,
      "▁tw": 9081,
      "▁pot": 9082,
      "▁Тоже,": 9083,
      "дш": 9084,
      "▁HM": 9085,
      "ипс": 9086,
      "...........": 9087,
      "▁сно": 9088,
      "▁(ра": 9089,
      "{е": 9090,
      "▁Сар": 9091,
      "bI": 9092,
      "▁40.": 9093,
      "▁Тер": 9094,
      "▁Бес": 9095,
      "▁стен": 9096,
      "▁^.": 9097,
      "/4": 9098,
      "йв": 9099,
      "тика": 9100,
      "▁918.": 9101,
      "ely": 9102,
      "тую": 9103,
      "▁Авгу": 9104,
      "НИКЪ": 9105,
      "▁lar": 9106,
      "▁Mbi": 9107,
      "-Б": 9108,
      "▁Раг": 9109,
      "▁דער": 9110,
      "▁(I": 9111,
      "жели": 9112,
      "▁139": 9113,
      "▁Таким": 9114,
      "дм": 9115,
      "▁та,": 9116,
      "▁Нес": 9117,
      "▁губер": 9118,
      "-е": 9119,
      "іап": 9120,
      "▁his": 9121,
      "^1": 9122,
      "ón": 9123,
      "▁идет": 9124,
      "▁таким": 9125,
      "▁силы": 9126,
      "^;": 9127,
      "’,": 9128,
      "▁отве": 9129,
      "▁Кол": 9130,
      "▁сухо": 9131,
      "▁результате": 9132,
      "hl": 9133,
      "▁на,": 9134,
      "коль": 9135,
      "▁fin": 9136,
      "ch,": 9137,
      "▁шесть": 9138,
      "5)": 9139,
      "дри": 9140,
      "▁ses": 9141,
      "▁Іп": 9142,
      "пут": 9143,
      "▁вамъ": 9144,
      "ная.": 9145,
      "\\у": 9146,
      "▁вси": 9147,
      "▁П,": 9148,
      "▁зай": 9149,
      "▁Ce": 9150,
      "::": 9151,
      "▁@е": 9152,
      "min": 9153,
      "гл.": 9154,
      "кё": 9155,
      "нб": 9156,
      "▁БО": 9157,
      "ant.": 9158,
      "▁спис": 9159,
      "чено": 9160,
      "▁d'une": 9161,
      "ствуют": 9162,
      "▁НЪ": 9163,
      "деся": 9164,
      "чнаго": 9165,
      "▁гь": 9166,
      "▁упе": 9167,
      "по,": 9168,
      "фици": 9169,
      "шно": 9170,
      "еть,": 9171,
      "▁отме": 9172,
      "ally": 9173,
      "дб": 9174,
      "пен": 9175,
      "ником": 9176,
      "▁{е": 9177,
      "▁Юрь": 9178,
      "ложение": 9179,
      "▁ed": 9180,
      "▁нп": 9181,
      "▁р1": 9182,
      "ione": 9183,
      "d,": 9184,
      "вз": 9185,
      "▁ПЕТ": 9186,
      "▁у,": 9187,
      "|»": 9188,
      "ух": 9189,
      "НД": 9190,
      "▁нъ,": 9191,
      "▁тез": 9192,
      "▁Гас": 9193,
      "ще.": 9194,
      "▁CM": 9195,
      "▁171": 9196,
      "чены": 9197,
      "вались": 9198,
      "▁wie": 9199,
      "Л,": 9200,
      "▁стру": 9201,
      "Ьс": 9202,
      "анъ,": 9203,
      "сторо": 9204,
      "чч": 9205,
      "▁узна": 9206,
      "дыду": 9207,
      "чь.": 9208,
      "▁ступ": 9209,
      "arn": 9210,
      "▁подтвер": 9211,
      "▁пунк": 9212,
      "able,": 9213,
      "▁диз": 9214,
      "▁біе": 9215,
      "▁ве-": 9216,
      "▁возмож": 9217,
      "▁гако": 9218,
      "▁конце": 9219,
      "пъ,": 9220,
      "▁дез": 9221,
      "льный,": 9222,
      "▁С1": 9223,
      "▁Оо": 9224,
      "000:": 9225,
      "▁At": 9226,
      "-А": 9227,
      "▁гря": 9228,
      "▁Тем": 9229,
      "▁тѣхъ": 9230,
      "acc": 9231,
      "ропей": 9232,
      "енные": 9233,
      "▁34.": 9234,
      "▁פון": 9235,
      "йя": 9236,
      "шег": 9237,
      "▁др": 9238,
      "коу": 9239,
      "ion.": 9240,
      "▁плать": 9241,
      "dr": 9242,
      "go": 9243,
      "1я.": 9244,
      "▁Нет": 9245,
      "доу": 9246,
      "▁Ер": 9247,
      "іаі": 9248,
      "креп": 9249,
      "')": 9250,
      "▁ГА": 9251,
      "▁Bce": 9252,
      "▁ср": 9253,
      "▁реги": 9254,
      "зег": 9255,
      "щую": 9256,
      "ыи": 9257,
      "▁Вв": 9258,
      "▁Kb": 9259,
      "пон": 9260,
      "▁чело": 9261,
      "АНИЕ": 9262,
      "73": 9263,
      "▁Ов": 9264,
      "cher": 9265,
      "▁вече": 9266,
      "▁особы": 9267,
      "скать": 9268,
      "▁аЛ": 9269,
      "▁aber": 9270,
      "дес": 9271,
      "▁перио": 9272,
      "pn": 9273,
      "л'": 9274,
      "▁присо": 9275,
      "▁Ивана": 9276,
      "-—": 9277,
      "Г|": 9278,
      "”.": 9279,
      "м»": 9280,
      "ю:": 9281,
      "▁ОЕ": 9282,
      "ание.": 9283,
      "▁пад": 9284,
      "▁получ": 9285,
      "▁добав": 9286,
      "poc": 9287,
      "▁нс": 9288,
      "▁р*": 9289,
      "Іо": 9290,
      "▁бя": 9291,
      "▁ем.": 9292,
      "▁Лео": 9293,
      "▁стара": 9294,
      "▁объем": 9295,
      "▁Алексѣй": 9296,
      "РО": 9297,
      "▁наде": 9298,
      "▁НЫ": 9299,
      "▁Ря": 9300,
      "ительный": 9301,
      "ован": 9302,
      "ком,": 9303,
      "▁редак": 9304,
      "▁«в": 9305,
      "▁Dé": 9306,
      "▁убо": 9307,
      "по.": 9308,
      "▁Три": 9309,
      "евв": 9310,
      "▁судеб": 9311,
      "▁другъ": 9312,
      "^р": 9313,
      "ТТ": 9314,
      "лий": 9315,
      "inter": 9316,
      "▁Дер": 9317,
      "тъ;": 9318,
      "▁'.": 9319,
      "НК": 9320,
      "▁иб": 9321,
      "ID": 9322,
      "ристо": 9323,
      "▁ТЬ": 9324,
      "▁проро": 9325,
      "▁изготов": 9326,
      "▁тип": 9327,
      "лекс": 9328,
      "▁получить": 9329,
      "лости": 9330,
      "ity": 9331,
      "▁разре": 9332,
      "▁де-": 9333,
      "св.": 9334,
      "▁Н-": 9335,
      "ité": 9336,
      "ления,": 9337,
      "▁церковь": 9338,
      "▁ИВАНЪ": 9339,
      "▁Еф": 9340,
      "▁08": 9341,
      "▁«.": 9342,
      "▁выход": 9343,
      "▁іе": 9344,
      "7)": 9345,
      "kke": 9346,
      "ВВ": 9347,
      "Ноп": 9348,
      "▁(10": 9349,
      "▁сказал:": 9350,
      "aTb": 9351,
      "▁подпис": 9352,
      "mo": 9353,
      "ото": 9354,
      "ider": 9355,
      "zen": 9356,
      "▁пусть": 9357,
      "▁гражд": 9358,
      "▁поне": 9359,
      "▁си.": 9360,
      "▁IV.": 9361,
      "мей": 9362,
      "▁рев": 9363,
      "▁двигатель": 9364,
      "tn": 9365,
      "▁К-": 9366,
      "▁АА": 9367,
      "▁рЪ": 9368,
      "мз": 9369,
      "цеп": 9370,
      "▁хол": 9371,
      "полня": 9372,
      "▁удовлет": 9373,
      "З.": 9374,
      "емого": 9375,
      "АТИСЯ": 9376,
      "стит": 9377,
      "▁оказ": 9378,
      "▁некоторых": 9379,
      "▁Филипп": 9380,
      "Те": 9381,
      "▁оказа": 9382,
      "▁(с.": 9383,
      "▁сосу": 9384,
      "ше-": 9385,
      "▁іт": 9386,
      "иск.": 9387,
      "▁новы": 9388,
      "та;": 9389,
      "емое": 9390,
      "ih": 9391,
      "▁аль": 9392,
      "▁КОН": 9393,
      "▁море": 9394,
      "▁паралле": 9395,
      "▁прв": 9396,
      "▁губерніи": 9397,
      "▁продолжа": 9398,
      "▁болѣе": 9399,
      "ливают": 9400,
      "▁Гр": 9401,
      "мед": 9402,
      "▁Царь": 9403,
      "▁Ud": 9404,
      "▁сохран": 9405,
      "еруса": 9406,
      "AB": 9407,
      "йй": 9408,
      "▁квар": 9409,
      "▁рл": 9410,
      "æn": 9411,
      "рис": 9412,
      "▁числе": 9413,
      "אַר": 9414,
      "лосо": 9415,
      "▁подлин": 9416,
      "iß": 9417,
      "ръ.": 9418,
      "▁Вег": 9419,
      "▁регу": 9420,
      "люб": 9421,
      "ІЕ": 9422,
      "▁=.": 9423,
      "▁тем,": 9424,
      "▁худож": 9425,
      "sp": 9426,
      "▁Оз": 9427,
      "▁«m.": 9428,
      "▁силу": 9429,
      "іп§": 9430,
      "ne,": 9431,
      "▁ошиб": 9432,
      "(>": 9433,
      "м1": 9434,
      "уег": 9435,
      "▁Новгород": 9436,
      "кз": 9437,
      "▁(ка": 9438,
      "ork": 9439,
      "м:": 9440,
      "▁замет": 9441,
      "-ь": 9442,
      "п1": 9443,
      "▁Спас": 9444,
      "овъ;": 9445,
      "▁ныне": 9446,
      "ціи": 9447,
      "▁кои": 9448,
      "ente": 9449,
      "▁X,": 9450,
      "▁самой": 9451,
      "▁зависимо": 9452,
      "юн": 9453,
      "▁прид": 9454,
      "іііг": 9455,
      "▁бого": 9456,
      "▁видъ": 9457,
      "▁Пара": 9458,
      "лово": 9459,
      "▁дета": 9460,
      "▁прил.": 9461,
      "огу": 9462,
      "▁вокру": 9463,
      "етв": 9464,
      "еп)": 9465,
      "▁како": 9466,
      "▁Ред.": 9467,
      "▁Всего": 9468,
      "^н": 9469,
      "НЬ": 9470,
      "▁ува": 9471,
      "леви": 9472,
      "▁Гла": 9473,
      "▁богаты": 9474,
      "▁поса": 9475,
      "eln": 9476,
      "▁чешу": 9477,
      "▁Google": 9478,
      "/і": 9479,
      "fr": 9480,
      "▁Сат": 9481,
      "▁со¬": 9482,
      "▁музы": 9483,
      "шему": 9484,
      "'е": 9485,
      "▁покуп": 9486,
      "▁cro": 9487,
      "bi,": 9488,
      "ительные": 9489,
      "м;": 9490,
      "▁тЪ": 9491,
      "▁жит": 9492,
      "ного,": 9493,
      "сып": 9494,
      "ТУ": 9495,
      "бз": 9496,
      "▁Бра": 9497,
      "па-": 9498,
      "▁101": 9499,
      "сег": 9500,
      "ѵ,": 9501,
      "▁им.": 9502,
      "▁пав": 9503,
      "▁оставля": 9504,
      "▁[ж.": 9505,
      "ющую": 9506,
      "uft": 9507,
      "бат": 9508,
      "чик": 9509,
      "сиз": 9510,
      "▁176": 9511,
      "▁ир.": 9512,
      "▁брю": 9513,
      "▁небо": 9514,
      "ру-": 9515,
      "сили": 9516,
      "▁микро": 9517,
      "Ла": 9518,
      "▁срав": 9519,
      "тз": 9520,
      "▁ב": 9521,
      "▁цель": 9522,
      "▁Co": 9523,
      "ject": 9524,
      "пез": 9525,
      "▁Псп.": 9526,
      "▁несов.": 9527,
      "ser": 9528,
      "▁вй": 9529,
      "▁^и": 9530,
      "^А": 9531,
      "▁Пров": 9532,
      "▁лн": 9533,
      "тых": 9534,
      "▁лекси": 9535,
      "▁пау": 9536,
      "▁152": 9537,
      "ёніе,": 9538,
      "▁могутъ": 9539,
      "▁наконе": 9540,
      "ныя,": 9541,
      "мш": 9542,
      "нокъ": 9543,
      "ade": 9544,
      "▁Семенъ": 9545,
      "▁тал": 9546,
      "▁И.,": 9547,
      "▁41.": 9548,
      "за.": 9549,
      "▁перемен": 9550,
      "ol.": 9551,
      "AR": 9552,
      "▁ק": 9553,
      "ink": 9554,
      "ank": 9555,
      "▁but": 9556,
      "▁(х": 9557,
      "▁Стра": 9558,
      "ражение": 9559,
      "ноу": 9560,
      "▁Ta": 9561,
      "тов.": 9562,
      "^д": 9563,
      "к!": 9564,
      "ііз": 9565,
      "▁128": 9566,
      "▁Ajuiax": 9567,
      "кой.": 9568,
      "▁Оу": 9569,
      "▁провод": 9570,
      "чную": 9571,
      "стй": 9572,
      "енных": 9573,
      "▁роль": 9574,
      "▁рука": 9575,
      "▁небес": 9576,
      "▁(11": 9577,
      "раля": 9578,
      "▁Ne": 9579,
      "▁лин": 9580,
      "▁Ивановъ,": 9581,
      "тере": 9582,
      "ule": 9583,
      "Ро": 9584,
      "ски.": 9585,
      "чав": 9586,
      "▁асс": 9587,
      "▁несо": 9588,
      "▁каждой": 9589,
      "поз": 9590,
      "сё": 9591,
      "▁томъ,": 9592,
      "мл": 9593,
      "▁od": 9594,
      "▁согласно": 9595,
      "че¬": 9596,
      "▁mor": 9597,
      "▁краси": 9598,
      "которые": 9599,
      "▁Вал": 9600,
      "▁великого": 9601,
      "▁принес": 9602,
      "бою": 9603,
      "▁Соло": 9604,
      "▁(9": 9605,
      "со,": 9606,
      "roug": 9607,
      "▁полно": 9608,
      "ели": 9609,
      "і*": 9610,
      "▁33.": 9611,
      "усъ": 9612,
      "▁края": 9613,
      "-Пет": 9614,
      "▁дре": 9615,
      "▁тамо": 9616,
      "пб": 9617,
      "▁КЪ": 9618,
      "миров": 9619,
      "выя": 9620,
      "▁назначен": 9621,
      "▁вопрос": 9622,
      "te.": 9623,
      "▁будутъ": 9624,
      "▁письма": 9625,
      "цес": 9626,
      "иг,": 9627,
      "▁января": 9628,
      "а)": 9629,
      "▁вф": 9630,
      "▁-^": 9631,
      "ari": 9632,
      "ла:": 9633,
      "▁язык": 9634,
      "▁сго": 9635,
      "▁диск": 9636,
      "ès": 9637,
      "сем": 9638,
      "е!": 9639,
      "▁деньги": 9640,
      "▁dies": 9641,
      "БО": 9642,
      "▁(от": 9643,
      "▁Кы": 9644,
      "▁любов": 9645,
      "ен,": 9646,
      "▁применя": 9647,
      "kh": 9648,
      "енія": 9649,
      "▁д-Ь": 9650,
      "▁To": 9651,
      "▁Степанъ": 9652,
      "▁einen": 9653,
      "Со": 9654,
      "тон": 9655,
      "▁ВІ": 9656,
      "дал": 9657,
      "ino": 9658,
      "▁Андреевъ": 9659,
      "▁Ае": 9660,
      "▁Her": 9661,
      "'ё": 9662,
      "▁Sk": 9663,
      "дов.": 9664,
      "▁149": 9665,
      "*;": 9666,
      "▁ога": 9667,
      "▁тей": 9668,
      "лую": 9669,
      "ффек": 9670,
      "пе,": 9671,
      "▁(C": 9672,
      "▁ее,": 9673,
      "▁перен": 9674,
      "▁Що": 9675,
      "▁Такъ": 9676,
      "1).": 9677,
      "▁хлѣ": 9678,
      "ple": 9679,
      "мно": 9680,
      "т^": 9681,
      "тю": 9682,
      "▁Пас": 9683,
      "▁Ьи": 9684,
      "▁por": 9685,
      "▁192": 9686,
      "▁123": 9687,
      "стый,": 9688,
      "алисти": 9689,
      "▁многих": 9690,
      "ück": 9691,
      "Са": 9692,
      "рга": 9693,
      "▁воду": 9694,
      "іп,": 9695,
      "▁self": 9696,
      "ститу": 9697,
      "ва;": 9698,
      "мии": 9699,
      "▁148": 9700,
      "1Т": 9701,
      "yT": 9702,
      "▁пон": 9703,
      "▁чтоб": 9704,
      "▁[о": 9705,
      "ung,": 9706,
      "▁оа": 9707,
      "▁вып": 9708,
      "ковы": 9709,
      "ительной": 9710,
      "!!!": 9711,
      "жс": 9712,
      "▁К*": 9713,
      "▁шер": 9714,
      "ОВЪ.": 9715,
      "epe": 9716,
      "▁выражен": 9717,
      "▁БЪ": 9718,
      "▁оп.": 9719,
      "peM": 9720,
      "rit": 9721,
      "дег": 9722,
      "▁Вл": 9723,
      "ome": 9724,
      "▁самого": 9725,
      "ра;": 9726,
      "ана,": 9727,
      "▁Кал": 9728,
      "▁НС": 9729,
      "▁желу": 9730,
      "мят": 9731,
      "▁„О": 9732,
      "▁царе": 9733,
      "▁Адр.": 9734,
      "▁суда": 9735,
      "▁ота": 9736,
      "ди-": 9737,
      "▁рем": 9738,
      "▁интерес": 9739,
      "▁смѣ": 9740,
      "лес": 9741,
      "▁[К": 9742,
      "▁вместо": 9743,
      "еп;": 9744,
      "▁126": 9745,
      "ІГ": 9746,
      "▁».": 9747,
      "мъ:": 9748,
      "▁преду": 9749,
      "бы.": 9750,
      "▁одному": 9751,
      "oug": 9752,
      "г*": 9753,
      "▁О,": 9754,
      "▁Г,": 9755,
      "▁tre": 9756,
      "скою": 9757,
      "▁6/": 9758,
      "ряжен": 9759,
      "ele": 9760,
      "▁женщи": 9761,
      "▁литератур": 9762,
      "BM": 9763,
      "вон": 9764,
      "▁Mor": 9765,
      "▁(дѣло": 9766,
      "▁rég": 9767,
      "ДО": 9768,
      "▁помѣ": 9769,
      "▁рв": 9770,
      "▁Ля": 9771,
      "▁[и": 9772,
      "ОМЪ": 9773,
      "▁поч.": 9774,
      "▁шей": 9775,
      "ить;": 9776,
      "▁подня": 9777,
      "▁д*": 9778,
      "▁[2": 9779,
      "▁CO": 9780,
      "дай": 9781,
      "чъ.": 9782,
      "▁слиш": 9783,
      "▁молит": 9784,
      "▁г.).": 9785,
      "▁Fig.": 9786,
      "▁тас": 9787,
      "▁4’": 9788,
      "iner": 9789,
      "▁физ": 9790,
      "гы": 9791,
      "▁поми": 9792,
      "ейз": 9793,
      "Це": 9794,
      "л\\": 9795,
      "▁Ср": 9796,
      "▁mot": 9797,
      "▁отношен": 9798,
      "▁Ще": 9799,
      "▁будто": 9800,
      "ничто": 9801,
      "стё": 9802,
      "▁зави": 9803,
      "▁«а": 9804,
      "19,": 9805,
      "▁ипЬ": 9806,
      "keit": 9807,
      "жан": 9808,
      "▁пак": 9809,
      "▁те,": 9810,
      "▁поду": 9811,
      "▁зуб": 9812,
      "▁sam": 9813,
      "▁fac": 9814,
      "raw": 9815,
      "▁geb": 9816,
      "▁день.": 9817,
      "09": 9818,
      "ary": 9819,
      "▁рес": 9820,
      "▁174": 9821,
      "▁Ес": 9822,
      "▁мини": 9823,
      "▁никогда": 9824,
      "іпе": 9825,
      "▁іЬ": 9826,
      "▁освобо": 9827,
      "тою": 9828,
      "▁ДО": 9829,
      "ленной": 9830,
      "iver": 9831,
      "▁группы": 9832,
      "▁Древ": 9833,
      "▁разд": 9834,
      "▁сущ": 9835,
      "▁ét": 9836,
      "▁то.": 9837,
      "▁кроме": 9838,
      "ico": 9839,
      "▁государя": 9840,
      "▁некоторые": 9841,
      "▁ноября": 9842,
      "▁ая": 9843,
      "ЧА": 9844,
      "пло": 9845,
      "▁г-": 9846,
      "▁sem": 9847,
      "ДК": 9848,
      "мини": 9849,
      "ets": 9850,
      "▁васъ": 9851,
      "гну": 9852,
      "уй": 9853,
      "▁Бере": 9854,
      "▁©ф": 9855,
      "▁показыва": 9856,
      "▁рае": 9857,
      "скаго.": 9858,
      "OMy": 9859,
      "ИШ": 9860,
      "ь;": 9861,
      "▁Вен": 9862,
      "ти-": 9863,
      "▁преступ": 9864,
      "imm": 9865,
      "1—": 9866,
      "Ьга": 9867,
      "о;": 9868,
      "шки,": 9869,
      "▁Кни": 9870,
      "▁отсутств": 9871,
      "▁Це": 9872,
      "▁текст": 9873,
      "▁нав": 9874,
      "▁4:": 9875,
      "'Ъ": 9876,
      "ате,": 9877,
      "іга": 9878,
      "▁(из": 9879,
      "ле¬": 9880,
      "▁35.": 9881,
      "▁мѣся": 9882,
      "▁т^": 9883,
      "▁Воп": 9884,
      "▁жена": 9885,
      "▁Хот": 9886,
      "▁pres": 9887,
      "ruct": 9888,
      "▁щен": 9889,
      "рад": 9890,
      "▁ЧА": 9891,
      "▁пребы": 9892,
      "▁смерть": 9893,
      "%-": 9894,
      "ar.": 9895,
      "ве.": 9896,
      "услов": 9897,
      "▁развития": 9898,
      "▁противопо": 9899,
      "▁сдѣ": 9900,
      "▁д^": 9901,
      "sten": 9902,
      "▁.......": 9903,
      "▁1-й": 9904,
      "8)": 9905,
      "tes": 9906,
      "▁еше": 9907,
      "▁Опис": 9908,
      "▁600": 9909,
      "▁Man": 9910,
      "аг,": 9911,
      "ч^": 9912,
      "▁тому,": 9913,
      "▁Христ": 9914,
      "▁(без": 9915,
      "▁Ам": 9916,
      "ité,": 9917,
      "▁предыду": 9918,
      "▁земли,": 9919,
      "];": 9920,
      "жный": 9921,
      "▁VI": 9922,
      "▁>.": 9923,
      "ЫШ": 9924,
      "▁Ефи": 9925,
      "ark": 9926,
      "день": 9927,
      "▁mm": 9928,
      "ственные": 9929,
      "HMH": 9930,
      "▁измер": 9931,
      "▁Э.": 9932,
      "|-": 9933,
      "▁означа": 9934,
      "ственного": 9935,
      "рокъ": 9936,
      "▁кали": 9937,
      "▁повел": 9938,
      ">Ke": 9939,
      "▁происхо": 9940,
      "▁Казан": 9941,
      "вей": 9942,
      "вшие": 9943,
      "▁преимуще": 9944,
      "лоб": 9945,
      "лений": 9946,
      "▁Чтобы": 9947,
      "ny": 9948,
      "ЕА": 9949,
      "ТВ": 9950,
      "▁тн": 9951,
      "▁мере": 9952,
      "кола": 9953,
      "ч1": 9954,
      "гая": 9955,
      "▁val": 9956,
      "▁время.": 9957,
      "ün": 9958,
      "▁о-": 9959,
      "re.": 9960,
      "HHO": 9961,
      "ings": 9962,
      "▁дем": 9963,
      "▁24,": 9964,
      "▁энер": 9965,
      "форм": 9966,
      "▁Дмитрій": 9967,
      "части": 9968,
      "q;": 9969,
      "▁фаз": 9970,
      "▁Ka": 9971,
      "▁ѵег": 9972,
      "▁Соф": 9973,
      "▁Гар": 9974,
      "ме.": 9975,
      "▁государь,": 9976,
      "▁one's": 9977,
      "ør": 9978,
      "▁29,": 9979,
      "рее": 9980,
      "лов.": 9981,
      "aux": 9982,
      "▁комнат": 9983,
      "▁период": 9984,
      "««": 9985,
      "крат": 9986,
      "▁месте": 9987,
      "▁pat": 9988,
      "еза": 9989,
      "▁фар": 9990,
      "ют.": 9991,
      "юг": 9992,
      "▁р,": 9993,
      "ite,": 9994,
      "▁BH": 9995,
      "▁разде": 9996,
      "ajiH": 9997,
      "▁Михайловъ": 9998,
      "аве": 9999,
      "▁специаль": 10000,
      "шив": 10001,
      "▁Слав": 10002,
      "сон": 10003,
      "-нибудь": 10004,
      "▁einem": 10005,
      "/а": 10006,
      "▁с1е": 10007,
      "▁учин": 10008,
      "▁ИИ": 10009,
      "▁види": 10010,
      "▁Господа": 10011,
      "▁которому": 10012,
      "сиг": 10013,
      "▁останов": 10014,
      "▁22,": 10015,
      "фей": 10016,
      "▁русских": 10017,
      "[е": 10018,
      "▁сад": 10019,
      "анных": 10020,
      "▁происходит": 10021,
      "син": 10022,
      "ову": 10023,
      "▁(і": 10024,
      "▁(16": 10025,
      "▁сторону": 10026,
      "▁почему": 10027,
      "▁К1": 10028,
      "▁8е": 10029,
      "▁проме": 10030,
      "▁03": 10031,
      "▁дио": 10032,
      "▁für": 10033,
      "ника.": 10034,
      "▁lang": 10035,
      "▁133": 10036,
      "ановъ,": 10037,
      "врат": 10038,
      "▁вход": 10039,
      "рачи": 10040,
      "▁аЪ": 10041,
      "▁Син": 10042,
      "▁Мщ.": 10043,
      "▁сои": 10044,
      "▁яз": 10045,
      "ровой": 10046,
      "▁einer": 10047,
      "1Й,": 10048,
      "атый": 10049,
      "▁Пат": 10050,
      "▁Гео": 10051,
      "ас.": 10052,
      "▁апа": 10053,
      "▁инди": 10054,
      "СЯ": 10055,
      "Шгес": 10056,
      "▁мф": 10057,
      "▁Ост": 10058,
      "es;": 10059,
      "])": 10060,
      "хй": 10061,
      "яе": 10062,
      "реи": 10063,
      "рядо": 10064,
      "ungen": 10065,
      ",.": 10066,
      "form": 10067,
      "жить": 10068,
      "уголь": 10069,
      "шб": 10070,
      "▁обу": 10071,
      "▁нынѣ": 10072,
      "АТЬ": 10073,
      "▁ряда": 10074,
      "οῦ": 10075,
      "▁3H": 10076,
      "............": 10077,
      "▁октября": 10078,
      "скольку": 10079,
      "ДЪ": 10080,
      "но¬": 10081,
      "▁попу": 10082,
      "▁пози": 10083,
      "скп": 10084,
      "вають": 10085,
      "Ьз": 10086,
      "кк": 10087,
      "▁ОР": 10088,
      "зы,": 10089,
      "▁и:": 10090,
      "ису": 10091,
      "▁BC": 10092,
      "▁тради": 10093,
      "/ь": 10094,
      "▁пошли": 10095,
      "▁Кто": 10096,
      "▁cji": 10097,
      "▁«Б": 10098,
      "▁Mo": 10099,
      "лемъ": 10100,
      "▁ОК": 10101,
      "асо": 10102,
      "▁дуб": 10103,
      "ts": 10104,
      "тѣ": 10105,
      "לי": 10106,
      "▁крѣ": 10107,
      "ным.": 10108,
      "▁Губ": 10109,
      "▁Ac": 10110,
      "▁паро": 10111,
      "днев": 10112,
      "▁народа": 10113,
      "pu": 10114,
      "pan": 10115,
      "хема": 10116,
      "ions": 10117,
      "▁ваз": 10118,
      "▁Вь": 10119,
      "ляю": 10120,
      "шит": 10121,
      "▁ты,": 10122,
      "▁811": 10123,
      "▁5:": 10124,
      "▁fil": 10125,
      "ностей": 10126,
      "▁гал": 10127,
      "дох": 10128,
      "Jio": 10129,
      "ГН": 10130,
      "лева": 10131,
      "емая": 10132,
      "пост": 10133,
      "isk": 10134,
      "▁но-": 10135,
      "вым": 10136,
      "▁ее.": 10137,
      "▁Нар": 10138,
      "▁Между": 10139,
      "▁обозна": 10140,
      "мах": 10141,
      "юр": 10142,
      "енная": 10143,
      "▁(ко": 10144,
      "▁а1": 10145,
      "▁незав": 10146,
      "▁Изд.": 10147,
      "▁самое": 10148,
      "стъ.": 10149,
      "arr": 10150,
      "▁начало": 10151,
      "▁сть": 10152,
      "скі": 10153,
      "▁(оп": 10154,
      "бота": 10155,
      "▁виз": 10156,
      "наго,": 10157,
      "▁РИ": 10158,
      "▁вый": 10159,
      "ча-": 10160,
      "▁vor": 10161,
      "AN": 10162,
      "▁сокра": 10163,
      "гина": 10164,
      "ёг": 10165,
      "етом": 10166,
      "▁(1)": 10167,
      "ми:": 10168,
      "▁сай": 10169,
      "▁136": 10170,
      "/i": 10171,
      "▁бай": 10172,
      "▁ул.": 10173,
      "arm": 10174,
      "▁Кг": 10175,
      "▁вечер": 10176,
      "бет": 10177,
      "▁мп": 10178,
      "▁воспо": 10179,
      "щикъ,": 10180,
      "▁D.": 10181,
      "▁132": 10182,
[...]
