{
  "version": "1.0",
  "truncation": null,
  "padding": null,
  "added_tokens": [
    {
      "id": 0,
      "content": "<pad>",
      "single_word": false,
      "lstrip": false,
      "rstrip": false,
      "normalized": false,
      "special": true
    },
    {
      "id": 1,
      "content": "<unk>",
      "single_word": false,
      "lstrip": false,
      "rstrip": false,
      "normalized": false,
      "special": true
    },
    {
      "id": 2,
      "content": "<bos>",
      "single_word": false,
      "lstrip": false,
      "rstrip": false,
      "normalized": false,
      "special": true
    },
    {
      "id": 3,
      "content": "<eos>",
      "single_word": false,
      "lstrip": false,
      "rstrip": false,
      "normalized": false,
      "special": true
    },
    {
      "id": 4,
      "content": "<user>",
      "single_word": false,
      "lstrip": false,
      "rstrip": false,
      "normalized": false,
      "special": true
    },
    {
      "id": 5,
      "content": "<assistant>",
      "single_word": false,
      "lstrip": false,
      "rstrip": false,
      "normalized": false,
      "special": true
    },
    {
      "id": 6,
      "content": "0",
      "single_word": false,
      "lstrip": false,
      "rstrip": false,
      "normalized": false,
      "special": true
    },
    {
      "id": 7,
      "content": "1",
      "single_word": false,
      "lstrip": false,
      "rstrip": false,
      "normalized": false,
      "special": true
    },
    {
      "id": 8,
      "content": "2",
      "single_word": false,
      "lstrip": false,
      "rstrip": false,
      "normalized": false,
      "special": true
    },
    {
      "id": 9,
      "content": "3",
      "single_word": false,
      "lstrip": false,
      "rstrip": false,
      "normalized": false,
      "special": true
    },
    {
      "id": 10,
      "content": "4",
      "single_word": false,
      "lstrip": false,
      "rstrip": false,
      "normalized": false,
      "special": true
    },
    {
      "id": 11,
      "content": "5",
      "single_word": false,
      "lstrip": false,
      "rstrip": false,
      "normalized": false,
      "special": true
    },
    {
      "id": 12,
      "content": "6",
      "single_word": false,
      "lstrip": false,
      "rstrip": false,
      "normalized": false,
      "special": true
    },
    {
      "id": 13,
      "content": "7",
      "single_word": false,
      "lstrip": false,
      "rstrip": false,
      "normalized": false,
      "special": true
    },
    {
      "id": 14,
      "content": "8",
      "single_word": false,
      "lstrip": false,
      "rstrip": false,
      "normalized": false,
      "special": true
    },
    {
      "id": 15,
      "content": "9",
      "single_word": false,
      "lstrip": false,
      "rstrip": false,
      "normalized": false,
      "special": true
    },
    {
      "id": 50000,
      "content": "<mask>",
      "single_word": false,
      "lstrip": false,
      "rstrip": false,
      "normalized": false,
      "special": true
    }
  ],
  "normalizer": {
    "type": "NFKC"
  },
  "pre_tokenizer": {
    "type": "Metaspace",
    "replacement": "▁",
    "prepend_scheme": "always",
    "split": true
  },
  "post_processor": null,
  "decoder": {
    "type": "Metaspace",
    "replacement": "▁",
    "prepend_scheme": "always",
    "split": true
  },
  "model": {
    "type": "BPE",
    "dropout": null,
    "unk_token": "<unk>",
    "continuing_subword_prefix": null,
    "end_of_word_suffix": null,
    "fuse_unk": false,
    "byte_fallback": false,
    "ignore_merges": false,
    "vocab": {
      "<pad>": 0,
      "<unk>": 1,
      "<bos>": 2,
      "<eos>": 3,
      "<user>": 4,
      "<assistant>": 5,
      "0": 6,
      "1": 7,
      "2": 8,
      "3": 9,
      "4": 10,
      "5": 11,
      "6": 12,
      "7": 13,
      "8": 14,
      "9": 15,
      "\n": 16,
      "!": 17,
      "\"": 18,
      "#": 19,
      "$": 20,
      "%": 21,
      "&": 22,
      "'": 23,
      "(": 24,
      ")": 25,
      "*": 26,
      "+": 27,
      ",": 28,
      "-": 29,
      ".": 30,
      "/": 31,
      ":": 32,
      ";": 33,
      "<": 34,
      "=": 35,
      ">": 36,
      "?": 37,
      "@": 38,
      "A": 39,
      "B": 40,
      "C": 41,
      "D": 42,
      "E": 43,
      "F": 44,
      "G": 45,
      "H": 46,
      "I": 47,
      "J": 48,
      "K": 49,
      "L": 50,
      "M": 51,
      "N": 52,
      "O": 53,
      "P": 54,
      "Q": 55,
      "R": 56,
      "S": 57,
      "T": 58,
      "U": 59,
      "V": 60,
      "W": 61,
      "X": 62,
      "Y": 63,
      "Z": 64,
      "[": 65,
      "\\": 66,
      "]": 67,
      "^": 68,
      "_": 69,
      "`": 70,
      "a": 71,
      "b": 72,
      "c": 73,
      "d": 74,
      "e": 75,
      "f": 76,
      "g": 77,
      "h": 78,
      "i": 79,
      "j": 80,
      "k": 81,
      "l": 82,
      "m": 83,
      "n": 84,
      "o": 85,
      "p": 86,
      "q": 87,
      "r": 88,
      "s": 89,
      "t": 90,
      "u": 91,
      "v": 92,
      "w": 93,
      "x": 94,
      "y": 95,
      "z": 96,
      "{": 97,
      "|": 98,
      "}": 99,
      "~": 100,
      "¡": 101,
      "¢": 102,
      "£": 103,
      "¥": 104,
      "¦": 105,
      "§": 106,
      "©": 107,
      "«": 108,
      "¬": 109,
      "®": 110,
      "°": 111,
      "±": 112,
      "¶": 113,
      "·": 114,
      "»": 115,
      "¿": 116,
      "À": 117,
      "Á": 118,
      "Â": 119,
      "Ä": 120,
      "Å": 121,
      "Æ": 122,
      "Ç": 123,
      "È": 124,
      "É": 125,
      "Ê": 126,
      "Ë": 127,
      "Ì": 128,
      "Í": 129,
      "Î": 130,
      "Ï": 131,
      "Ð": 132,
      "Ñ": 133,
      "Ò": 134,
      "Ó": 135,
      "Ô": 136,
      "Ö": 137,
      "×": 138,
      "Ø": 139,
      "Ù": 140,
      "Ú": 141,
      "Û": 142,
      "Ü": 143,
      "Ý": 144,
      "Þ": 145,
      "ß": 146,
      "à": 147,
      "á": 148,
      "â": 149,
      "ã": 150,
      "ä": 151,
      "å": 152,
      "æ": 153,
      "ç": 154,
      "è": 155,
      "é": 156,
      "ê": 157,
      "ë": 158,
      "í": 159,
      "î": 160,
      "ï": 161,
      "ð": 162,
      "ñ": 163,
      "ò": 164,
      "ó": 165,
      "ô": 166,
      "õ": 167,
      "ö": 168,
      "÷": 169,
      "ø": 170,
      "ù": 171,
      "ú": 172,
      "û": 173,
      "ü": 174,
      "ý": 175,
      "ÿ": 176,
      "Ă": 177,
      "ă": 178,
      "Ą": 179,
      "ą": 180,
      "Ć": 181,
      "ć": 182,
      "ċ": 183,
      "Č": 184,
      "č": 185,
      "Ď": 186,
      "ď": 187,
      "đ": 188,
      "Ę": 189,
      "ę": 190,
      "Ě": 191,
      "ě": 192,
      "ĝ": 193,
      "ğ": 194,
      "Ġ": 195,
      "ġ": 196,
      "ĥ": 197,
      "Ħ": 198,
      "ĩ": 199,
      "ī": 200,
      "į": 201,
      "İ": 202,
      "ı": 203,
      "Ĵ": 204,
      "ĵ": 205,
      "Ł": 206,
      "ł": 207,
      "Ń": 208,
      "ń": 209,
      "Ņ": 210,
      "ņ": 211,
      "Ň": 212,
      "ň": 213,
      "Ő": 214,
      "ő": 215,
      "Œ": 216,
      "œ": 217,
      "Ř": 218,
      "ř": 219,
      "Ś": 220,
      "ś": 221,
      "Ş": 222,
      "ş": 223,
      "Š": 224,
      "š": 225,
      "Ţ": 226,
      "Ť": 227,
      "ť": 228,
      "ũ": 229,
      "Ů": 230,
      "ů": 231,
      "Ű": 232,
      "ű": 233,
      "Ų": 234,
      "ų": 235,
      "Ÿ": 236,
      "Ź": 237,
      "ź": 238,
      "Ż": 239,
      "ż": 240,
      "Ž": 241,
      "ž": 242,
      "Ʒ": 243,
      "ș": 244,
      "Ț": 245,
      "ț": 246,
      "ə": 247,
      "ʒ": 248,
      "ˆ": 249,
      "˖": 250,
      "́": 251,
      "̃": 252,
      "̄": 253,
      "̇": 254,
      "̈": 255,
      "̊": 256,
      "̓": 257,
      "̣": 258,
      "̱": 259,
      "͂": 260,
      "ͤ": 261,
      "ͥ": 262,
      "͵": 263,
      "Ά": 264,
      "Έ": 265,
      "Ή": 266,
      "Ί": 267,
      "Ό": 268,
      "Ύ": 269,
      "Ώ": 270,
      "ΐ": 271,
      "Α": 272,
      "Β": 273,
      "Γ": 274,
      "Δ": 275,
      "Ε": 276,
      "Ζ": 277,
      "Η": 278,
      "Θ": 279,
      "Ι": 280,
      "Κ": 281,
      "Λ": 282,
      "Μ": 283,
      "Ν": 284,
      "Ξ": 285,
      "Ο": 286,
      "Π": 287,
      "Ρ": 288,
      "Σ": 289,
      "Τ": 290,
      "Υ": 291,
      "Φ": 292,
      "Χ": 293,
      "Ψ": 294,
      "Ω": 295,
      "Ϊ": 296,
      "ά": 297,
      "έ": 298,
      "ή": 299,
      "ί": 300,
      "α": 301,
      "β": 302,
      "γ": 303,
      "δ": 304,
      "ε": 305,
      "ζ": 306,
      "η": 307,
      "θ": 308,
      "ι": 309,
      "κ": 310,
      "λ": 311,
      "μ": 312,
      "ν": 313,
      "ξ": 314,
      "ο": 315,
      "π": 316,
      "ρ": 317,
      "ς": 318,
      "σ": 319,
      "τ": 320,
      "υ": 321,
      "φ": 322,
      "χ": 323,
      "ψ": 324,
      "ω": 325,
      "ϊ": 326,
      "ό": 327,
      "ύ": 328,
      "ώ": 329,
      "Ё": 330,
      "Є": 331,
      "І": 332,
      "Ї": 333,
      "Њ": 334,
      "Ў": 335,
      "А": 336,
      "Б": 337,
      "В": 338,
      "Г": 339,
      "Д": 340,
      "Е": 341,
      "Ж": 342,
      "З": 343,
      "И": 344,
      "Й": 345,
      "К": 346,
      "Л": 347,
      "М": 348,
      "Н": 349,
      "О": 350,
      "П": 351,
      "Р": 352,
      "С": 353,
      "Т": 354,
      "У": 355,
      "Ф": 356,
      "Х": 357,
      "Ц": 358,
      "Ч": 359,
      "Ш": 360,
      "Щ": 361,
      "Ъ": 362,
      "Ы": 363,
      "Ь": 364,
      "Э": 365,
      "Ю": 366,
      "Я": 367,
      "а": 368,
      "б": 369,
      "в": 370,
      "г": 371,
      "д": 372,
      "е": 373,
      "ж": 374,
      "з": 375,
      "и": 376,
      "й": 377,
      "к": 378,
      "л": 379,
      "м": 380,
      "н": 381,
      "о": 382,
      "п": 383,
      "р": 384,
      "с": 385,
      "т": 386,
      "у": 387,
      "ф": 388,
      "х": 389,
      "ц": 390,
      "ч": 391,
      "ш": 392,
      "щ": 393,
      "ъ": 394,
      "ы": 395,
      "ь": 396,
      "э": 397,
      "ю": 398,
      "я": 399,
      "ё": 400,
      "ђ": 401,
      "є": 402,
      "ѕ": 403,
      "і": 404,
      "ї": 405,
      "ј": 406,
      "љ": 407,
      "ћ": 408,
      "ќ": 409,
      "ў": 410,
      "џ": 411,
      "Ѣ": 412,
      "ѣ": 413,
      "Ѳ": 414,
      "ѳ": 415,
      "Ѵ": 416,
      "ѵ": 417,
      "Ґ": 418,
      "ґ": 419,
      "ғ": 420,
      "қ": 421,
      "ң": 422,
      "ҳ": 423,
      "ҷ": 424,
      "Ҹ": 425,
      "ҹ": 426,
      "һ": 427,
      "Ә": 428,
      "ә": 429,
      "ӣ": 430,
      "Ө": 431,
      "ө": 432,
      "ӯ": 433,
      "ً": 434,
      "ٍ": 435,
      "َ": 436,
      "ُ": 437,
      "ِ": 438,
      "ّ": 439,
      "ْ": 440,
      "܀": 441,
      "܂": 442,
      "܆": 443,
      "܇": 444,
      "ܐ": 445,
      "ܒ": 446,
      "ܓ": 447,
      "ܔ": 448,
      "ܕ": 449,
      "ܖ": 450,
      "ܗ": 451,
      "ܘ": 452,
      "ܙ": 453,
      "ܚ": 454,
      "ܛ": 455,
      "ܝ": 456,
      "ܟ": 457,
      "ܠ": 458,
      "ܡ": 459,
      "ܢ": 460,
      "ܣ": 461,
      "ܤ": 462,
      "ܥ": 463,
      "ܦ": 464,
      "ܧ": 465,
      "ܨ": 466,
      "ܩ": 467,
      "ܪ": 468,
      "ܫ": 469,
      "ܬ": 470,
      "ܭ": 471,
      "ܮ": 472,
      "ܰ": 473,
      "ܲ": 474,
      "ܳ": 475,
      "ܵ": 476,
      "ܶ": 477,
      "ܸ": 478,
      "ܹ": 479,
      "ܺ": 480,
      "ܼ": 481,
      "ܽ": 482,
      "ܿ": 483,
      "݀": 484,
      "݁": 485,
      "݂": 486,
      "݇": 487,
      "݈": 488,
      "᷑": 489,
      "ᷓ": 490,
      "ᷣ": 491,
      "Ẹ": 492,
      "ẹ": 493,
      "ẽ": 494,
      "Ề": 495,
      "Ọ": 496,
      "ọ": 497,
      "ở": 498,
      "ỹ": 499,
      "ἀ": 500,
      "ἁ": 501,
      "ἂ": 502,
      "ἃ": 503,
      "ἄ": 504,
      "ἅ": 505,
      "Ἀ": 506,
      "Ἁ": 507,
      "Ἂ": 508,
      "Ἃ": 509,
      "Ἄ": 510,
      "Ἅ": 511,
      "ἐ": 512,
      "ἑ": 513,
      "ἔ": 514,
      "ἕ": 515,
      "Ἐ": 516,
      "Ἑ": 517,
      "Ἔ": 518,
      "Ἕ": 519,
      "ἠ": 520,
      "ἡ": 521,
      "ἢ": 522,
      "ἣ": 523,
      "ἤ": 524,
      "ἥ": 525,
      "ἦ": 526,
      "ἧ": 527,
      "Ἠ": 528,
      "Ἡ": 529,
      "Ἢ": 530,
      "Ἤ": 531,
      "Ἥ": 532,
      "ἰ": 533,
      "ἱ": 534,
      "ἴ": 535,
      "ἵ": 536,
      "ἶ": 537,
      "ἷ": 538,
      "Ἰ": 539,
      "Ἱ": 540,
      "Ἴ": 541,
      "Ἵ": 542,
      "Ἶ": 543,
      "Ἷ": 544,
      "ὀ": 545,
      "ὁ": 546,
      "ὃ": 547,
      "ὄ": 548,
      "ὅ": 549,
      "Ὀ": 550,
      "Ὁ": 551,
      "Ὃ": 552,
      "Ὄ": 553,
      "Ὅ": 554,
      "ὐ": 555,
      "ὑ": 556,
      "ὔ": 557,
      "ὕ": 558,
      "ὖ": 559,
      "ὗ": 560,
      "Ὑ": 561,
      "Ὕ": 562,
      "Ὗ": 563,
      "ὠ": 564,
      "ὡ": 565,
      "ὥ": 566,
      "ὦ": 567,
      "ὧ": 568,
      "Ὡ": 569,
      "Ὥ": 570,
      "ὰ": 571,
      "ὲ": 572,
      "ὴ": 573,
      "ὶ": 574,
      "ὸ": 575,
      "ὺ": 576,
      "ὼ": 577,
      "ᾧ": 578,
      "ᾱ": 579,
      "ᾳ": 580,
      "ᾶ": 581,
      "ᾷ": 582,
      "Ὰ": 583,
      "ῃ": 584,
      "ῄ": 585,
      "ῆ": 586,
      "ῇ": 587,
      "Ὲ": 588,
      "Ὴ": 589,
      "ῖ": 590,
      "Ὶ": 591,
      "ῤ": 592,
      "ῥ": 593,
      "ῦ": 594,
      "Ῥ": 595,
      "ῳ": 596,
      "ῴ": 597,
      "ῶ": 598,
      "ῷ": 599,
      "Ὸ": 600,
      "Ὼ": 601,
      "‎": 602,
      "‏": 603,
      "–": 604,
      "—": 605,
      "‘": 606,
      "’": 607,
      "‚": 608,
      "“": 609,
      "”": 610,
      "„": 611,
      "†": 612,
      "•": 613,
      "‪": 614,
      "‫": 615,
      "‰": 616,
      "‹": 617,
      "›": 618,
      "⁄": 619,
      "⁊": 620,
      "€": 621,
      "ↄ": 622,
      "⏑": 623,
      "▁": 624,
      "■": 625,
      "□": 626,
      "▲": 627,
      "►": 628,
      "▼": 629,
      "◄": 630,
      "★": 631,
      "☆": 632,
      "♦": 633,
      "✓": 634,
      "❖": 635,
      "⸗": 636,
      "ꝑ": 637,
      "ꝓ": 638,
      "ꝗ": 639,
      "ꝙ": 640,
      "ꝛ": 641,
      "ꝝ": 642,
      "ꝭ": 643,
      "ꝯ": 644,
      "ꝶ": 645,
      "▁\n": 646,
      "▁\n\n": 647,
      "▁п": 648,
      "▁с": 649,
      "▁в": 650,
      "ст": 651,
      "▁и": 652,
      "ов": 653,
      "ра": 654,
      "на": 655,
      "ен": 656,
      "▁о": 657,
      "го": 658,
      "▁1": 659,
      "ко": 660,
      "но": 661,
      "то": 662,
      "ро": 663,
      "ре": 664,
      "▁\n\n\n": 665,
      "▁д": 666,
      "ка": 667,
      "ли": 668,
      "▁по": 669,
      "ри": 670,
      "ни": 671,
      "ет": 672,
      "▁т": 673,
      "▁м": 674,
      "ла": 675,
      "▁у": 676,
      "▁(": 677,
      "\n\n": 678,
      "ны": 679,
      "ль": 680,
      "не": 681,
      "▁на": 682,
      "ат": 683,
      "▁С": 684,
      "▁б": 685,
      "▁а": 686,
      "▁г": 687,
      "ло": 688,
      "▁з": 689,
      "ер": 690,
      "ит": 691,
      "ва": 692,
      "во": 693,
      "ки": 694,
      "▁2": 695,
      "да": 696,
      "мъ": 697,
      "▁В": 698,
      "▁е": 699,
      "er": 700,
      ".,": 701,
      "▁к": 702,
      "ле": 703,
      "▁К": 704,
      "▁М": 705,
      "▁ч": 706,
      "en": 707,
      "▁П": 708,
      "ся": 709,
      "in": 710,
      "по": 711,
      "▁a": 712,
      "та": 713,
      "▁—": 714,
      "ру": 715,
      "ми": 716,
      "▁А": 717,
      "▁не": 718,
      "га": 719,
      "хъ": 720,
      "es": 721,
      "▁3": 722,
      "▁И": 723,
      "ан": 724,
      "▁ра": 725,
      "▁ко": 726,
      "ти": 727,
      "ля": 728,
      "те": 729,
      "р.": 730,
      "▁О": 731,
      "ени": 732,
      "▁со": 733,
      "▁4": 734,
      "▁въ": 735,
      "ес": 736,
      "▁Н": 737,
      "on": 738,
      "▁Г": 739,
      "ем": 740,
      "▁d": 741,
      "ег": 742,
      "▁за": 743,
      "ск": 744,
      "▁t": 745,
      "ди": 746,
      "an": 747,
      "еп": 748,
      "же": 749,
      "\n\n\n\n": 750,
      "▁p": 751,
      "▁от": 752,
      "▁то": 753,
      "іі": 754,
      "▁s": 755,
      "▁,": 756,
      "ей": 757,
      "ви": 758,
      "▁во": 759,
      "▁при": 760,
      "до": 761,
      "ть": 762,
      "ъ,": 763,
      "▁c": 764,
      "▁Р": 765,
      "is": 766,
      "▁л": 767,
      "▁Т": 768,
      "бо": 769,
      "хо": 770,
      "е,": 771,
      "па": 772,
      "..": 773,
      "ис": 774,
      "мо": 775,
      "or": 776,
      "▁р": 777,
      "▁Б": 778,
      "▁\nс": 779,
      "ова": 780,
      "at": 781,
      "▁n": 782,
      "▁до": 783,
      "за": 784,
      "де": 785,
      "ча": 786,
      "ar": 787,
      "▁об": 788,
      "ше": 789,
      "ско": 790,
      "▁ка": 791,
      "▁9": 792,
      ").": 793,
      "▁.": 794,
      "▁Д": 795,
      "▁\n\n1": 796,
      "ма": 797,
      "ii": 798,
      "▁про": 799,
      "▁5": 800,
      "ста": 801,
      "ры": 802,
      "іе": 803,
      "▁o": 804,
      "му": 805,
      "сти": 806,
      "▁l": 807,
      "▁6": 808,
      "си": 809,
      "▁из": 810,
      "it": 811,
      "ств": 812,
      "ере": 813,
      "ово": 814,
      "ар": 815,
      "ать": 816,
      "ев": 817,
      "▁э": 818,
      "▁b": 819,
      "▁f": 820,
      "▁m": 821,
      "ши": 822,
      "▁-": 823,
      "ду": 824,
      "▁го": 825,
      "ги": 826,
      "ня": 827,
      "лу": 828,
      "чи": 829,
      "сто": 830,
      "▁і": 831,
      "▁8": 832,
      "ic": 833,
      "▁я": 834,
      "al": 835,
      "со": 836,
      "▁бы": 837,
      "et": 838,
      "ну": 839,
      "ез": 840,
      "▁Л": 841,
      "сть": 842,
      "▁Е": 843,
      "ци": 844,
      "▁мо": 845,
      "сп": 846,
      "11": 847,
      "us": 848,
      "re": 849,
      "ку": 850,
      "▁та": 851,
      "се": 852,
      "he": 853,
      "й,": 854,
      "▁У": 855,
      "са": 856,
      "ie": 857,
      "▁вы": 858,
      "▁г.": 859,
      "ве": 860,
      "00": 861,
      "къ": 862,
      "▁18": 863,
      "пе": 864,
      "▁«": 865,
      "19": 866,
      "ге": 867,
      "из": 868,
      "ски": 869,
      "ря": 870,
      "ков": 871,
      "▁|": 872,
      "т.": 873,
      "▁ш": 874,
      "лен": 875,
      "сь": 876,
      "▁ре": 877,
      "▁I": 878,
      "▁н": 879,
      "▁ф": 880,
      "),": 881,
      "▁\nп": 882,
      "un": 883,
      "ной": 884,
      "▁19": 885,
      "ель": 886,
      "лов": 887,
      "ще": 888,
      "лъ": 889,
      "▁пре": 890,
      "▁\nв": 891,
      "ме": 892,
      "▁З": 893,
      "л.": 894,
      "▁что": 895,
      "▁ро": 896,
      "ап": 897,
      "тъ": 898,
      "ска": 899,
      "ro": 900,
      "el": 901,
      "▁ж": 902,
      "▁B": 903,
      "▁\nо": 904,
      "че": 905,
      "▁бо": 906,
      "гу": 907,
      "2.": 908,
      "ить": 909,
      "ров": 910,
      "▁C": 911,
      "1.": 912,
      "▁7": 913,
      "ОВ": 914,
      "▁па": 915,
      "ia": 916,
      "3.": 917,
      "щи": 918,
      "▁раз": 919,
      "ша": 920,
      "д.": 921,
      "нов": 922,
      "il": 923,
      "ный": 924,
      "▁Ч": 925,
      "я,": 926,
      "8.": 927,
      "нъ": 928,
      "▁х": 929,
      "ur": 930,
      "▁І": 931,
      "▁S": 932,
      "мен": 933,
      "▁съ": 934,
      "▁in": 935,
      "▁ли": 936,
      "\n\n\n\n\n\n\n\n": 937,
      "▁Ф": 938,
      "ных": 939,
      "чес": 940,
      "as": 941,
      "ту": 942,
      "оп": 943,
      "лю": 944,
      "ас": 945,
      "ор": 946,
      "ch": 947,
      "ог": 948,
      "0.": 949,
      "▁\nи": 950,
      "в.": 951,
      "м.": 952,
      "▁\n\n2": 953,
      "um": 954,
      "▁же": 955,
      "4.": 956,
      "су": 957,
      "5.": 958,
      "▁да": 959,
      "▁\n1": 960,
      "об": 961,
      "▁^": 962,
      "No": 963,
      "ск.": 964,
      "▁[": 965,
      "▁H": 966,
      "ного": 967,
      "▁под": 968,
      "ты": 969,
      "▁Ь": 970,
      "ется": 971,
      "▁ц": 972,
      "рав": 973,
      "ные": 974,
      "ol": 975,
      "сі": 976,
      "жа": 977,
      "▁v": 978,
      "▁но": 979,
      "7.": 980,
      "ra": 981,
      "▁A": 982,
      "▁e": 983,
      "6.": 984,
      "▁the": 985,
      "к.": 986,
      "ъ.": 987,
      "ent": 988,
      "▁ни": 989,
      "ца": 990,
      "ды": 991,
      "бы": 992,
      "▁ст": 993,
      "▁сво": 994,
      "пи": 995,
      "аз": 996,
      "аг": 997,
      "1е": 998,
      "▁се": 999,
      "▁16": 1000,
      "em": 1001,
      "▁of": 1002,
      "▁По": 1003,
      "ения": 1004,
      "▁Ш": 1005,
      "▁0": 1006,
      "лы": 1007,
      "ха": 1008,
      "▁са": 1009,
      "▁ве": 1010,
      "н.": 1011,
      "раз": 1012,
      "ное": 1013,
      "om": 1014,
      "ч.": 1015,
      "▁h": 1016,
      "ec": 1017,
      "▁\nС": 1018,
      "г.": 1019,
      "qu": 1020,
      "os": 1021,
      "ют": 1022,
      "жи": 1023,
      "ба": 1024,
      "▁Я": 1025,
      "ul": 1026,
      "9.": 1027,
      "▁кото": 1028,
      "▁M": 1029,
      "▁g": 1030,
      "▁T": 1031,
      "▁его": 1032,
      "е.": 1033,
      "би": 1034,
      "▁P": 1035,
      "▁i": 1036,
      "▁те": 1037,
      "▁\n\n\n\n": 1038,
      "зы": 1039,
      "ut": 1040,
      "▁Х": 1041,
      "ion": 1042,
      "ія": 1043,
      "ac": 1044,
      "вы": 1045,
      "▁у.,": 1046,
      "▁это": 1047,
      "іи": 1048,
      "▁\nпо": 1049,
      "▁ру": 1050,
      "18": 1051,
      "▁10": 1052,
      "▁си": 1053,
      "пу": 1054,
      "HH": 1055,
      "▁С.": 1056,
      "▁ме": 1057,
      "▁\n\n3": 1058,
      "мы": 1059,
      "▁an": 1060,
      "жен": 1061,
      "▁17": 1062,
      "ос": 1063,
      "e,": 1064,
      "чен": 1065,
      "став": 1066,
      "▁для": 1067,
      "▁de": 1068,
      "10": 1069,
      "ство": 1070,
      "от": 1071,
      "етъ": 1072,
      "▁с.": 1073,
      "ства": 1074,
      "вя": 1075,
      "▁су": 1076,
      "іа": 1077,
      "▁\n\nС": 1078,
      "ь,": 1079,
      "ная": 1080,
      "бу": 1081,
      "▁пере": 1082,
      "ed": 1083,
      "▁w": 1084,
      "ig": 1085,
      "12": 1086,
      "▁Ко": 1087,
      "ща": 1088,
      "'Ь": 1089,
      "дъ": 1090,
      "и,": 1091,
      "io": 1092,
      "Ъ,": 1093,
      "▁\n(": 1094,
      "▁\nК": 1095,
      "б.": 1096,
      "ir": 1097,
      "▁л.": 1098,
      "am": 1099,
      "▁М.": 1100,
      "im": 1101,
      "▁\nП": 1102,
      "ib": 1103,
      "й.": 1104,
      "ныхъ": 1105,
      "ение": 1106,
      "▁:": 1107,
      "ден": 1108,
      "мъ,": 1109,
      "▁\nВ": 1110,
      "ход": 1111,
      "▁r": 1112,
      "▁д.": 1113,
      "с.": 1114,
      "зи": 1115,
      "гі": 1116,
      "мя": 1117,
      "▁\n\nП": 1118,
      "рь": 1119,
      "▁де": 1120,
      "...": 1121,
      "▁\nна": 1122,
      "пис": 1123,
      "▁No": 1124,
      "a,": 1125,
      "id": 1126,
      "le": 1127,
      "▁или": 1128,
      "▁бу": 1129,
      "▁\n\nВ": 1130,
      "▁'": 1131,
      "▁ма": 1132,
      "▁\n\n4": 1133,
      "▁13": 1134,
      "и.": 1135,
      "итель": 1136,
      "вер": 1137,
      "▁ви": 1138,
      "▁А.": 1139,
      "▁14": 1140,
      "^^": 1141,
      "ской": 1142,
      "▁Ка": 1143,
      "▁\n\n—": 1144,
      "ствен": 1145,
      "▁/": 1146,
      "▁ста": 1147,
      "▁Ц": 1148,
      "ред": 1149,
      "▁&": 1150,
      "▁12": 1151,
      "АН": 1152,
      "▁пред": 1153,
      "род": 1154,
      "фи": 1155,
      "ую": 1156,
      "▁\n\nК": 1157,
      "сп.": 1158,
      "▁(19": 1159,
      "▁\nд": 1160,
      "▁\nу": 1161,
      "▁ча": 1162,
      "▁\nМ": 1163,
      "op": 1164,
      "▁хо": 1165,
      "ран": 1166,
      "м,": 1167,
      "▁*": 1168,
      "ing": 1169,
      "▁\n\n\n\n\n": 1170,
      "▁L": 1171,
      "14": 1172,
      "15": 1173,
      "▁\n2": 1174,
      "кой": 1175,
      "▁сто": 1176,
      "i,": 1177,
      "го,": 1178,
      "▁пе": 1179,
      "тов": 1180,
      "▁15": 1181,
      "▁V": 1182,
      "▁пос": 1183,
      "ета": 1184,
      "▁Во": 1185,
      "▁дру": 1186,
      "▁воз": 1187,
      "бе": 1188,
      "ep": 1189,
      "он": 1190,
      "спо": 1191,
      "▁K": 1192,
      "▁На": 1193,
      "▁=": 1194,
      "ке": 1195,
      "oc": 1196,
      "▁къ": 1197,
      "fl": 1198,
      "▁од": 1199,
      "въ": 1200,
      "▁\\": 1201,
      "жно": 1202,
      "ю,": 1203,
      "1,": 1204,
      "я.": 1205,
      "шо": 1206,
      "▁че": 1207,
      "пі": 1208,
      "ot": 1209,
      "гра": 1210,
      "ш.": 1211,
      "▁Ма": 1212,
      "▁В.": 1213,
      "шь": 1214,
      "▁р.": 1215,
      "ЕВ": 1216,
      "▁Ми": 1217,
      "▁ми": 1218,
      "зна": 1219,
      "▁ва": 1220,
      "це": 1221,
      "▁\nт": 1222,
      "▁„": 1223,
      "дов": 1224,
      "▁ос": 1225,
      "ву": 1226,
      "лько": 1227,
      "ter": 1228,
      "▁\nН": 1229,
      "ате": 1230,
      "лек": 1231,
      "уб": 1232,
      "▁Мо": 1233,
      "ата": 1234,
      "ій": 1235,
      "ap": 1236,
      "Ъ.": 1237,
      "▁\n\n5": 1238,
      "іо": 1239,
      "ка,": 1240,
      "13": 1241,
      "te": 1242,
      "▁90": 1243,
      "17": 1244,
      "▁\n\n6": 1245,
      "▁вс": 1246,
      "ръ": 1247,
      "▁\nО": 1248,
      "▁ѵ": 1249,
      "ек": 1250,
      "нь": 1251,
      "▁O": 1252,
      "au": 1253,
      "0,": 1254,
      "▁К.": 1255,
      "▁;": 1256,
      "▁все": 1257,
      "tr": 1258,
      "▁й": 1259,
      "льно": 1260,
      "▁оп": 1261,
      "▁\n\nО": 1262,
      "сту": 1263,
      "▁ку": 1264,
      "рен": 1265,
      "▁изъ": 1266,
      "иг": 1267,
      "1а": 1268,
      "▁м.": 1269,
      "ния": 1270,
      "наго": 1271,
      "у,": 1272,
      "▁$": 1273,
      "16": 1274,
      "II": 1275,
      "каз": 1276,
      "▁слу": 1277,
      "▁J": 1278,
      "чески": 1279,
      "х.": 1280,
      "\n\n\n\n\n\n\n\n\n\n\n\n\n\n\n\n": 1281,
      "».": 1282,
      "▁y": 1283,
      "▁тю": 1284,
      "▁Бо": 1285,
      "▁\nА": 1286,
      "▁Э": 1287,
      "▁\nа": 1288,
      "п.": 1289,
      "▁зна": 1290,
      "▁and": 1291,
      "ите": 1292,
      "▁20": 1293,
      "▁et": 1294,
      "-Ь": 1295,
      "ита": 1296,
      "▁F": 1297,
      "▁так": 1298,
      "ИН": 1299,
      "ати": 1300,
      "5,": 1301,
      "▁la": 1302,
      "▁j": 1303,
      "▁\n\n7": 1304,
      "▁отъ": 1305,
      "сс": 1306,
      "лся": 1307,
      "ят": 1308,
      "ак": 1309,
      "рг": 1310,
      "▁ок": 1311,
      "ского": 1312,
      "н,": 1313,
      "▁в.,": 1314,
      "▁\nз": 1315,
      "▁\nко": 1316,
      "лав": 1317,
      "▁которы": 1318,
      "▁D": 1319,
      "дь": 1320,
      "t.": 1321,
      "▁пер": 1322,
      "▁вре": 1323,
      "нен": 1324,
      "▁\nР": 1325,
      "лѣ": 1326,
      "ab": 1327,
      "▁©": 1328,
      "20": 1329,
      "4,": 1330,
      "1я": 1331,
      "▁\nк": 1332,
      "if": 1333,
      "▁Ва": 1334,
      "▁R": 1335,
      "гда": 1336,
      "цы": 1337,
      "ности": 1338,
      "про": 1339,
      "х,": 1340,
      "вод": 1341,
      "ский": 1342,
      "▁им": 1343,
      "ются": 1344,
      "▁как": 1345,
      "▁to": 1346,
      "▁\n\n9": 1347,
      "▁\nГ": 1348,
      "▁k": 1349,
      "▁al": 1350,
      "iv": 1351,
      "▁{": 1352,
      "ЕН": 1353,
      "стоя": 1354,
      "ми,": 1355,
      "t,": 1356,
      "▁т.": 1357,
      "6,": 1358,
      "ad": 1359,
      "ус": 1360,
      "▁\nТ": 1361,
      "▁E": 1362,
      "а,": 1363,
      "атель": 1364,
      "»,": 1365,
      "ным": 1366,
      "▁Со": 1367,
      "ние": 1368,
      "шен": 1369,
      "▁пра": 1370,
      "▁\n\nН": 1371,
      "тя": 1372,
      "на,": 1373,
      "e.": 1374,
      "▁qu": 1375,
      "▁\nто": 1376,
      "зя": 1377,
      "▁Ж": 1378,
      "ник": 1379,
      "ин": 1380,
      "ич": 1381,
      "▁\nИ": 1382,
      "ав": 1383,
      "▁\n\nМ": 1384,
      "лись": 1385,
      ");": 1386,
      "▁Исп.": 1387,
      "▁ле": 1388,
      "вать": 1389,
      "овъ": 1390,
      "сты": 1391,
      "его": 1392,
      "ІІ": 1393,
      "▁сов": 1394,
      "▁И.": 1395,
      "но,": 1396,
      "▁ап": 1397,
      "▁re": 1398,
      "▁ди": 1399,
      "▁G": 1400,
      "▁лю": 1401,
      "зе": 1402,
      "▁кон": 1403,
      "ть,": 1404,
      "каза": 1405,
      "іп": 1406,
      "8,": 1407,
      "ки,": 1408,
      "ень": 1409,
      "▁<": 1410,
      "and": 1411,
      "▁ты": 1412,
      "▁\n\n8": 1413,
      "▁пов": 1414,
      "▁Ни": 1415,
      "ОР": 1416,
      "ур": 1417,
      "ag": 1418,
      "▁un": 1419,
      "мер": 1420,
      "ность": 1421,
      "▁\nне": 1422,
      "▁\n3": 1423,
      "стан": 1424,
      "хи": 1425,
      "to": 1426,
      "ae": 1427,
      "▁\n\n\n\n\n\n": 1428,
      "сЬ": 1429,
      "▁За": 1430,
      "▁\nг": 1431,
      "▁рабо": 1432,
      "ip": 1433,
      "▁\nч": 1434,
      "▁N": 1435,
      "ман": 1436,
      "зо": 1437,
      "▁X": 1438,
      "скаго": 1439,
      "СТ": 1440,
      "ЕР": 1441,
      "▁тюр.": 1442,
      "ную": 1443,
      "▁‘": 1444,
      "▁пу": 1445,
      "ющи": 1446,
      "58": 1447,
      "59": 1448,
      "▁no": 1449,
      "a.": 1450,
      "▁1.": 1451,
      "▁сл": 1452,
      "ными": 1453,
      "СК": 1454,
      "▁Н.": 1455,
      "т,": 1456,
      "▁11": 1457,
      "ип": 1458,
      "ед": 1459,
      "е-": 1460,
      "2,": 1461,
      "щен": 1462,
      "ции": 1463,
      "▁ри": 1464,
      "▁Го": 1465,
      "▁\n\nТ": 1466,
      "рой": 1467,
      "od": 1468,
      "сы": 1469,
      "▁\nво": 1470,
      "▁мы": 1471,
      "▁пр": 1472,
      "▁Са": 1473,
      "60": 1474,
      "сли": 1475,
      "eg": 1476,
      "▁\n\nР": 1477,
      "хъ,": 1478,
      "дѣ": 1479,
      "▁ad": 1480,
      "3,": 1481,
      "▁II": 1482,
      "▁му": 1483,
      "en,": 1484,
      "ие": 1485,
      "▁\nД": 1486,
      "тель": 1487,
      "о,": 1488,
      "iH": 1489,
      "ou": 1490,
      "7,": 1491,
      "1-": 1492,
      "ван": 1493,
      "9,": 1494,
      "o,": 1495,
      "дер": 1496,
      "▁\nБ": 1497,
      "ation": 1498,
      "зыва": 1499,
      "▁без": 1500,
      "▁га": 1501,
      "1)": 1502,
      "з.": 1503,
      "ant": 1504,
      "40": 1505,
      "st": 1506,
      "▁\"": 1507,
      "i.": 1508,
      "тив": 1509,
      "ИЧ": 1510,
      "▁ю": 1511,
      "▁ин": 1512,
      "прав": 1513,
      "пы": 1514,
      "▁боль": 1515,
      "▁дол": 1516,
      "ст.": 1517,
      "▁\nни": 1518,
      "▁\np": 1519,
      "мѣ": 1520,
      "овы": 1521,
      "ныя": 1522,
      "▁‚": 1523,
      "еть": 1524,
      "▁п.": 1525,
      "▁какъ": 1526,
      "25": 1527,
      "▁\n\nИ": 1528,
      "ео": 1529,
      "лаго": 1530,
      "▁и.": 1531,
      "est": 1532,
      "▁было": 1533,
      "сг": 1534,
      "ном": 1535,
      "▁ло": 1536,
      "▁25": 1537,
      "им": 1538,
      "зу": 1539,
      "иі": 1540,
      "▁в.": 1541,
      "▁ар": 1542,
      "l.": 1543,
      "ся,": 1544,
      "▁М.,": 1545,
      "▁30": 1546,
      "ему": 1547,
      "ская": 1548,
      "▁\n\nЗ": 1549,
      "og": 1550,
      "▁u": 1551,
      "r.": 1552,
      "лось": 1553,
      "▁\n\nГ": 1554,
      "▁кра": 1555,
      "▁Ра": 1556,
      "нд": 1557,
      "30": 1558,
      "▁Г.": 1559,
      "▁уч.": 1560,
      "ней": 1561,
      "к,": 1562,
      "la": 1563,
      "▁О.": 1564,
      "▁on": 1565,
      "▁>": 1566,
      "ете": 1567,
      "од": 1568,
      "кого": 1569,
      "съ": 1570,
      "АР": 1571,
      "▁ор": 1572,
      "С.": 1573,
      "бра": 1574,
      "▁\nза": 1575,
      "▁\nc": 1576,
      "▁\nра": 1577,
      "ли,": 1578,
      "▁жи": 1579,
      "▁24": 1580,
      "ich": 1581,
      "еш": 1582,
      "▁пол": 1583,
      "дар": 1584,
      "ром": 1585,
      "pe": 1586,
      "▁іп": 1587,
      "но-": 1588,
      "▁Ю": 1589,
      "ника": 1590,
      "▁Но": 1591,
      "чь": 1592,
      "▁\n4": 1593,
      "▁Пет": 1594,
      "з,": 1595,
      "лож": 1596,
      "▁\nt": 1597,
      "▁\n\nА": 1598,
      "тор": 1599,
      "▁л.;": 1600,
      "▁\ns": 1601,
      "▁»": 1602,
      "фе": 1603,
      "▁образ": 1604,
      "pa": 1605,
      "▁Та": 1606,
      "іг": 1607,
      "ft": 1608,
      "тре": 1609,
      "▁23": 1610,
      "▁\nn": 1611,
      "ут": 1612,
      "л,": 1613,
      "▁свя": 1614,
      "▁\nd": 1615,
      "50": 1616,
      "▁le": 1617,
      "▁гра": 1618,
      "▁ду": 1619,
      "ла,": 1620,
      "вѣ": 1621,
      "▁\n\n\n2": 1622,
      "ce": 1623,
      "▁\nка": 1624,
      "вет": 1625,
      "ИК": 1626,
      "▁зем": 1627,
      "ио": 1628,
      "▁\n\nД": 1629,
      "нымъ": 1630,
      "▁\nЗ": 1631,
      "s.": 1632,
      "ОЛ": 1633,
      "▁22": 1634,
      "иа": 1635,
      "▁p.": 1636,
      "ю.": 1637,
      "рі": 1638,
      "стра": 1639,
      "зъ": 1640,
      "лей": 1641,
      "пол": 1642,
      "▁только": 1643,
      "ов.": 1644,
      "А.": 1645,
      "-2": 1646,
      "CT": 1647,
      "▁\nб": 1648,
      "ine": 1649,
      "ене": 1650,
      "▁пи": 1651,
      "▁тре": 1652,
      "▁\nго": 1653,
      "▁28": 1654,
      "▁рг": 1655,
      "рова": 1656,
      "ct": 1657,
      "ком": 1658,
      "рос": 1659,
      "ай": 1660,
      "іс": 1661,
      "s,": 1662,
      "дан": 1663,
      "▁То": 1664,
      "ходи": 1665,
      "соб": 1666,
      "да,": 1667,
      "при": 1668,
      "ит.": 1669,
      "▁188": 1670,
      "на.": 1671,
      "▁ч.": 1672,
      "i-": 1673,
      "▁29": 1674,
      "ub": 1675,
      "▁полу": 1676,
      "кра": 1677,
      "▁\nта": 1678,
      "▁ее": 1679,
      "рѣ": 1680,
      "у.": 1681,
      "АТ": 1682,
      "▁\nм": 1683,
      "▁169": 1684,
      "жъ": 1685,
      "зь": 1686,
      "1о": 1687,
      "is,": 1688,
      "ge": 1689,
      "▁Ы": 1690,
      "лени": 1691,
      "стро": 1692,
      "▁\nУ": 1693,
      "сте": 1694,
      "▁\nе": 1695,
      "ютъ": 1696,
      "end": 1697,
      "▁ге": 1698,
      "▁\nре": 1699,
      "▁Ве": 1700,
      "po": 1701,
      "ті": 1702,
      "▁\nЛ": 1703,
      "▁П.": 1704,
      "нѣ": 1705,
      "▁кни": 1706,
      "▁des": 1707,
      "вши": 1708,
      "аты": 1709,
      "57": 1710,
      "еге": 1711,
      "▁\nдо": 1712,
      "▁27": 1713,
      "▁произ": 1714,
      "▁\nли": 1715,
      "▁\nпри": 1716,
      "ей,": 1717,
      "▁W": 1718,
      "ный,": 1719,
      "1и": 1720,
      "ies": 1721,
      "▁\nm": 1722,
      "ети": 1723,
      "▁•": 1724,
      "шя": 1725,
      "iu": 1726,
      "і.": 1727,
      "▁уч": 1728,
      "ow": 1729,
      "фа": 1730,
      "▁их": 1731,
      "▁При": 1732,
      "▁26": 1733,
      "ne": 1734,
      "55": 1735,
      "▁pl": 1736,
      "лъ,": 1737,
      "ать,": 1738,
      "OB": 1739,
      "se": 1740,
      "ой": 1741,
      "▁пла": 1742,
      "ун": 1743,
      "33": 1744,
      "ber": 1745,
      "А,": 1746,
      "▁он": 1747,
      "▁ти": 1748,
      "уч": 1749,
      "▁Об": 1750,
      "▁Ива": 1751,
      "Ье": 1752,
      "гово": 1753,
      "▁Па": 1754,
      "▁ки": 1755,
      "мъ.": 1756,
      "ans": 1757,
      "▁Ро": 1758,
      "▁С.,": 1759,
      "ми.": 1760,
      "▁\nро": 1761,
      "▁\n\n\n\n\n\n\n": 1762,
      "▁ла": 1763,
      "01": 1764,
      "▁л.,": 1765,
      "жду": 1766,
      "▁]": 1767,
      "▁ба": 1768,
      "вля": 1769,
      "en.": 1770,
      "82": 1771,
      "▁кре": 1772,
      "▁\nте": 1773,
      "лась": 1774,
      "ии": 1775,
      "▁вели": 1776,
      "дет": 1777,
      "....": 1778,
      "▁z": 1779,
      "ov": 1780,
      "▁con": 1781,
      "ОН": 1782,
      "пра": 1783,
      "▁того": 1784,
      "▁ше": 1785,
      "▁эти": 1786,
      "▁\nва": 1787,
      "▁th": 1788,
      "▁У.": 1789,
      "▁фор": 1790,
      "▁ы": 1791,
      "th": 1792,
      "▁\n\nБ": 1793,
      "ж.": 1794,
      "▁вер": 1795,
      "гь": 1796,
      "▁be": 1797,
      "▁объ": 1798,
      "▁\n«": 1799,
      "рев": 1800,
      "ом": 1801,
      "вой": 1802,
      "кон": 1803,
      "▁\n\n\nП": 1804,
      "чно": 1805,
      "дин": 1806,
      "▁\nB": 1807,
      "^о": 1808,
      "емы": 1809,
      "▁Вы": 1810,
      "их": 1811,
      "иб": 1812,
      "кры": 1813,
      "▁\n\n\n—": 1814,
      "▁\nр": 1815,
      "▁пис": 1816,
      "із": 1817,
      "ления": 1818,
      "▁чис": 1819,
      "кое": 1820,
      "дя": 1821,
      "вич": 1822,
      "▁92": 1823,
      "aa": 1824,
      "тер": 1825,
      "▁\n\n\nС": 1826,
      "ол": 1827,
      "цъ": 1828,
      "тр": 1829,
      "▁Не": 1830,
      "44": 1831,
      "ere": 1832,
      "тро": 1833,
      "▁они": 1834,
      "къ,": 1835,
      "ка.": 1836,
      "ИЛ": 1837,
      "шей": 1838,
      "▁были": 1839,
      "88": 1840,
      "ud": 1841,
      "тра": 1842,
      "ff": 1843,
      "▁к.": 1844,
      "▁сы": 1845,
      "▁у.": 1846,
      "▁Ъ": 1847,
      "лед": 1848,
      "▁Въ": 1849,
      "▁+": 1850,
      "р.,": 1851,
      "кі": 1852,
      "ковъ": 1853,
      "▁\n|": 1854,
      "а.": 1855,
      "-3": 1856,
      "ара": 1857,
      "▁for": 1858,
      "АВ": 1859,
      "лас": 1860,
      "Ь.": 1861,
      "ставля": 1862,
      "▁дей": 1863,
      "ья": 1864,
      "ell": 1865,
      "ѵѵ": 1866,
      "▁\nb": 1867,
      "торы": 1868,
      "жд": 1869,
      "оло": 1870,
      "up": 1871,
      "▁\nЧ": 1872,
      "▁par": 1873,
      "гъ": 1874,
      "▁соп": 1875,
      "нова": 1876,
      "▁мно": 1877,
      "ских": 1878,
      "▁Из": 1879,
      "07": 1880,
      "▁les": 1881,
      "г,": 1882,
      "том": 1883,
      "сл": 1884,
      "руп": 1885,
      "▁Ок": 1886,
      "Tb": 1887,
      "СР": 1888,
      "хов": 1889,
      "ц.": 1890,
      "стви": 1891,
      "▁\nвъ": 1892,
      "▁есть": 1893,
      "ung": 1894,
      "щ.": 1895,
      "нима": 1896,
      "▁вой": 1897,
      "/.": 1898,
      "▁Се": 1899,
      "есь": 1900,
      "22": 1901,
      "сла": 1902,
      "▁онъ": 1903,
      "номъ": 1904,
      "ist": 1905,
      "es,": 1906,
      "▁рго": 1907,
      "ЕТ": 1908,
      "▁\nмо": 1909,
      "▁ав": 1910,
      "▁au": 1911,
      "▁От": 1912,
      "ai": 1913,
      "станов": 1914,
      "кая": 1915,
      "▁\nC": 1916,
      "▁также": 1917,
      "▁\n\n(": 1918,
      "▁\nя": 1919,
      "▁мѣ": 1920,
      "та,": 1921,
      "▁■": 1922,
      "уз": 1923,
      "хе": 1924,
      "47": 1925,
      "Ь,": 1926,
      "▁3.": 1927,
      "три": 1928,
      "08": 1929,
      "ers": 1930,
      "▁ro": 1931,
      "▁se": 1932,
      "с-": 1933,
      "ству": 1934,
      ".)": 1935,
      "▁908.": 1936,
      "1;": 1937,
      "▁ь": 1938,
      "▁сторо": 1939,
      "ки.": 1940,
      "▁\n\n\n3": 1941,
      "лет": 1942,
      "ится": 1943,
      "кла": 1944,
      "▁челов": 1945,
      "аль": 1946,
      "▁\nЕ": 1947,
      "09": 1948,
      "ху": 1949,
      "ному": 1950,
      "ложен": 1951,
      "оз": 1952,
      "▁нача": 1953,
      "ill": 1954,
      "▁мен": 1955,
      "лекс": 1956,
      "03": 1957,
      "ал": 1958,
      "ИЧ,": 1959,
      "▁время": 1960,
      "бря": 1961,
      "▁ихъ": 1962,
      "сш": 1963,
      "▁\n\n«": 1964,
      "▁ско": 1965,
      "бя": 1966,
      "▁187": 1967,
      "о-": 1968,
      "▁\nш": 1969,
      "мет": 1970,
      "ні": 1971,
      "▁быть": 1972,
      "ция": 1973,
      "▁бра": 1974,
      "▁года": 1975,
      "24": 1976,
      "▁or": 1977,
      "26": 1978,
      "ЕЛ": 1979,
      "овой": 1980,
      "ly": 1981,
      "н-": 1982,
      "▁\nпа": 1983,
      "▁Ви": 1984,
      "▁\nS": 1985,
      "eu": 1986,
      "—19": 1987,
      "▁ему": 1988,
      "▁ту": 1989,
      "▁pr": 1990,
      "▁Су": 1991,
      "▁Де": 1992,
      "——": 1993,
      "▁У.,": 1994,
      "каго": 1995,
      "ИТ": 1996,
      "▁\nf": 1997,
      "ющ": 1998,
      "▁стр.": 1999,
      "аі": 2000,
      "▁а.": 2001,
      "АС": 2002,
      "▁само": 2003,
      "▁2.": 2004,
      "29": 2005,
      "27": 2006,
      "▁60": 2007,
      "▁име": 2008,
      "▁1,": 2009,
      "сов": 2010,
      "▁гово": 2011,
      "▁Ар": 2012,
      "d.": 2013,
      "слов": 2014,
      "▁по-": 2015,
      "53": 2016,
      "емъ": 2017,
      "▁обо": 2018,
      "▁4е": 2019,
      "пре": 2020,
      "▁\nвы": 2021,
      "▁st": 2022,
      "▁еще": 2023,
      "ел": 2024,
      "▁40": 2025,
      "▁\nпро": 2026,
      "-4": 2027,
      "ak": 2028,
      "▁is": 2029,
      "▁\n\n\nВ": 2030,
      "жда": 2031,
      "ens": 2032,
      "▁Моск": 2033,
      "23": 2034,
      "тора": 2035,
      ",,": 2036,
      "аи": 2037,
      "eb": 2038,
      "54": 2039,
      "▁случа": 2040,
      "▁\nда": 2041,
      "▁co": 2042,
      "мЪ": 2043,
      "TB": 2044,
      "ний": 2045,
      "ji": 2046,
      "▁1е": 2047,
      "ны,": 2048,
      "69": 2049,
      "ен.": 2050,
      "▁отно": 2051,
      "68": 2052,
      "▁поч": 2053,
      "ении": 2054,
      "И.": 2055,
      "▁\nно": 2056,
      "▁\nH": 2057,
      "▁50": 2058,
      "▁\nот": 2059,
      "еди": 2060,
      "▁en": 2061,
      "\n\n\n\n\n\n\n\n\n\n\n\n\n\n\n\n\n\n\n\n\n\n\n\n\n\n\n\n\n\n\n\n": 2062,
      "лин": 2063,
      "вед": 2064,
      "ступ": 2065,
      "пера": 2066,
      "▁ком": 2067,
      "▁@": 2068,
      "еі": 2069,
      "ва,": 2070,
      "▁\nсо": 2071,
      "в,": 2072,
      "ет,": 2073,
      "▁тру": 2074,
      "ОВЪ,": 2075,
      "а-": 2076,
      "▁\n\n\nО": 2077,
      "ити": 2078,
      "лич": 2079,
      "▁ип": 2080,
      "р-": 2081,
      "л-": 2082,
      "28": 2083,
      "▁\nA": 2084,
      "▁33": 2085,
      "TH": 2086,
      "▁pro": 2087,
      "▁\n\nУ": 2088,
      "▁\n\nЛ": 2089,
      "▁г.,": 2090,
      "▁ex": 2091,
      "ех": 2092,
      "▁\nl": 2093,
      "▁ех": 2094,
      "ish": 2095,
      "п,": 2096,
      "ян": 2097,
      "▁Ев": 2098,
      "ить,": 2099,
      "і,": 2100,
      "▁21": 2101,
      "нии": 2102,
      "av": 2103,
      "▁\nбо": 2104,
      "▁Си": 2105,
      "лее": 2106,
      "уа": 2107,
      "▁пар": 2108,
      "си.": 2109,
      "▁рас": 2110,
      "нт": 2111,
      "зд": 2112,
      "о.": 2113,
      "▁такъ": 2114,
      "ЕК": 2115,
      "▁кня": 2116,
      "доб": 2117,
      "▁вла": 2118,
      "▁основ": 2119,
      "ess": 2120,
      "und": 2121,
      "▁\nн": 2122,
      "ph": 2123,
      "▁U": 2124,
      "▁Л.": 2125,
      "▁вЪ": 2126,
      "▁стра": 2127,
      "▁ши": 2128,
      "жден": 2129,
      "▁\n8": 2130,
      "▁Ба": 2131,
      "кола": 2132,
      "BH": 2133,
      "дей": 2134,
      "▁іі": 2135,
      "АЛ": 2136,
      "▁(с": 2137,
      "теп": 2138,
      "▁мож": 2139,
      "lan": 2140,
      "итъ": 2141,
      "64": 2142,
      "▁зе": 2143,
      "ов,": 2144,
      "тому": 2145,
      "▁sp": 2146,
      "ир": 2147,
      "га,": 2148,
      "04": 2149,
      "▁когда": 2150,
      "▁\nэ": 2151,
      "uc": 2152,
      "клю": 2153,
      "▁други": 2154,
      "шу": 2155,
      "▁_": 2156,
      "▁св": 2157,
      "ь.": 2158,
      "мени": 2159,
      "▁\n\nI": 2160,
      "▁Фе": 2161,
      "▁der": 2162,
      "és": 2163,
      "вор": 2164,
      "лі": 2165,
      "скихъ": 2166,
      "▁уже": 2167,
      "KH": 2168,
      "▁\n9": 2169,
      "▁ст.": 2170,
      "▁Про": 2171,
      "▁Т.": 2172,
      "жу": 2173,
      "ta": 2174,
      "рат": 2175,
      "05": 2176,
      "ован": 2177,
      "ого": 2178,
      "стя": 2179,
      "Іі": 2180,
      "▁du": 2181,
      "me": 2182,
      "89": 2183,
      "▁СО": 2184,
      "▁чтобы": 2185,
      "ob": 2186,
      "▁(18": 2187,
      "▁Бе": 2188,
      "лова": 2189,
      "кова": 2190,
      "67": 2191,
      "лп": 2192,
      "комъ": 2193,
      "▁\n\n\nР": 2194,
      "▁спо": 2195,
      "ников": 2196,
      "ш,": 2197,
      "▁Cic": 2198,
      "ть.": 2199,
      "лн": 2200,
      "▁np": 2201,
      "▁исто": 2202,
      "o-": 2203,
      "▁Ме": 2204,
      "рест": 2205,
      "▁св.": 2206,
      "ра,": 2207,
      "анд": 2208,
      "гг": 2209,
      "евъ": 2210,
      "▁\nиз": 2211,
      "она": 2212,
      "▁между": 2213,
      "ление": 2214,
      "ea": 2215,
      "37": 2216,
      "▁свои": 2217,
      "▁“": 2218,
      "▁\nM": 2219,
      "▁\nбы": 2220,
      "ид": 2221,
      "▁\nT": 2222,
      "судар": 2223,
      "▁\n.": 2224,
      "вш": 2225,
      "кло": 2226,
      "ществ": 2227,
      "▁рус": 2228,
      "рей": 2229,
      "▁I.": 2230,
      "зі": 2231,
      "ее": 2232,
      "▁тем": 2233,
      "▁ii": 2234,
      "▁был": 2235,
      "66": 2236,
      "▁com": 2237,
      "ong": 2238,
      "убер": 2239,
      "▁37": 2240,
      "▁Мар": 2241,
      "na": 2242,
      "▁\nоб": 2243,
      "с,": 2244,
      "▁#": 2245,
      "39": 2246,
      "лд": 2247,
      "es.": 2248,
      "ont": 2249,
      "us,": 2250,
      "ы,": 2251,
      "О,": 2252,
      "▁Окт.": 2253,
      "▁\n—": 2254,
      "▁рег": 2255,
      "▁91": 2256,
      "ское": 2257,
      "вая": 2258,
      "02": 2259,
      "ny": 2260,
      "▁)": 2261,
      "1^": 2262,
      "ково": 2263,
      "our": 2264,
      "▁\n\n\n4": 2265,
      "На": 2266,
      "нг": 2267,
      "-то": 2268,
      "▁Ста": 2269,
      "▁цер": 2270,
      "яс": 2271,
      "li": 2272,
      "▁если": 2273,
      "▁34": 2274,
      "▁язы": 2275,
      "▁\n\n\nК": 2276,
      "bi": 2277,
      "Й,": 2278,
      "ит,": 2279,
      "ро-": 2280,
      "ііі": 2281,
      "▁бе": 2282,
      "▁4.": 2283,
      "▁Алекс": 2284,
      "▁ог": 2285,
      "ся.": 2286,
      "▁Да": 2287,
      "мь": 2288,
      "▁чи": 2289,
      "▁іе": 2290,
      "▁До": 2291,
      "o.": 2292,
      "цу": 2293,
      "▁n.": 2294,
      "логи": 2295,
      "нн": 2296,
      "ИМ": 2297,
      "▁Ѵ": 2298,
      "aH": 2299,
      "пп": 2300,
      "▁Й": 2301,
      "▁§": 2302,
      "▁гу": 2303,
      "OM": 2304,
      "ay": 2305,
      "▁\n\n-": 2306,
      "▁дѣ": 2307,
      "ure": 2308,
      "▁р-": 2309,
      "▁Рос": 2310,
      "▁сле": 2311,
      "чень": 2312,
      "уш": 2313,
      "▁1а": 2314,
      "▁Ав": 2315,
      "ет.": 2316,
      "ове": 2317,
      "писа": 2318,
      "ect": 2319,
      "св": 2320,
      "ли.": 2321,
      "▁\n5": 2322,
      "▁\nІ": 2323,
      "▁er": 2324,
      "all": 2325,
      "яв": 2326,
      "▁день": 2327,
      "лт": 2328,
      "84": 2329,
      "▁еп": 2330,
      "▁\nP": 2331,
      "▁испо": 2332,
      "РО": 2333,
      "▁Бу": 2334,
      "▁ат": 2335,
      "^.": 2336,
      "▁\nф": 2337,
      "▁39": 2338,
      "▁чу": 2339,
      "▁!": 2340,
      "оо": 2341,
      "еп,": 2342,
      "▁Ку": 2343,
      "ér": 2344,
      "нъ,": 2345,
      "ца,": 2346,
      "▁подъ": 2347,
      "sk": 2348,
      "34": 2349,
      "▁Ц.": 2350,
      "▁прав": 2351,
      "ои": 2352,
      "▁Васи": 2353,
      "В.": 2354,
      "ci": 2355,
      "cr": 2356,
      "que": 2357,
      "a-": 2358,
      "▁два": 2359,
      "ia,": 2360,
      "▁была": 2361,
      "ких": 2362,
      "000": 2363,
      "ерь": 2364,
      "▁6.": 2365,
      "▁над": 2366,
      "77": 2367,
      "n.": 2368,
      "іт": 2369,
      "зан": 2370,
      "▁\nж": 2371,
      "▁ne": 2372,
      "▁ИВ": 2373,
      "▁ab": 2374,
      "▁дву": 2375,
      "▁\n\n\n1": 2376,
      "▁которо": 2377,
      "▁\nст": 2378,
      "65": 2379,
      "▁эк": 2380,
      "ian": 2381,
      "▁f.": 2382,
      "▁друго": 2383,
      "щее": 2384,
      "▁оста": 2385,
      "▁этого": 2386,
      "▁орга": 2387,
      "▁1)": 2388,
      "▁ein": 2389,
      "▁Е.": 2390,
      ".;": 2391,
      "21": 2392,
      "зва": 2393,
      "чу": 2394,
      "oB": 2395,
      "бли": 2396,
      "iss": 2397,
      "▁её": 2398,
      "чат": 2399,
      "▁\n\nЧ": 2400,
      "▁рав": 2401,
      "▁соб": 2402,
      "(1": 2403,
      "яб.": 2404,
      "▁\nФ": 2405,
      "ith": 2406,
      "▁пло": 2407,
      "▁лиш.": 2408,
      "рода": 2409,
      "▁ша": 2410,
      "ДР": 2411,
      "▁буду": 2412,
      "ла.": 2413,
      "ять": 2414,
      "ЕМ": 2415,
      "er,": 2416,
      "▁сот": 2417,
      "дно": 2418,
      "▁уча": 2419,
      "▁Д.": 2420,
      "▁\nти": 2421,
      "▁38": 2422,
      "▁\nви": 2423,
      "ва.": 2424,
      "ку,": 2425,
      "*.": 2426,
      "енно": 2427,
      "того": 2428,
      "и-": 2429,
      "дол": 2430,
      "▁\n19": 2431,
      "▁à": 2432,
      "▁сп": 2433,
      "лев": 2434,
      "той": 2435,
      "ОМ": 2436,
      "be": 2437,
      "▁знач": 2438,
      "жде": 2439,
      "63": 2440,
      "OH": 2441,
      "▁сог": 2442,
      "ni": 2443,
      "▁189": 2444,
      "▁много": 2445,
      "▁теп": 2446,
      "уе": 2447,
      "гап": 2448,
      "▁Га": 2449,
      "рт": 2450,
      "▁\nЯ": 2451,
      "$.": 2452,
      "ll": 2453,
      "д-": 2454,
      "вв": 2455,
      "▁Миха": 2456,
      "▁35": 2457,
      "д,": 2458,
      "▁коро": 2459,
      "ass": 2460,
      "▁гла": 2461,
      "▁ря": 2462,
      "ко,": 2463,
      "▁\n7": 2464,
      "бор": 2465,
      "▁\nI": 2466,
      "рас": 2467,
      "▁можно": 2468,
      "▁моло": 2469,
      "ti": 2470,
      "no": 2471,
      "▁она": 2472,
      "▁sur": 2473,
      "ей.": 2474,
      "▁упо": 2475,
      "▁it": 2476,
      "▁слова": 2477,
      "ue": 2478,
      "АК": 2479,
      "ческой": 2480,
      "87": 2481,
      "v.": 2482,
      "чер": 2483,
      "▁\n\nПо": 2484,
      "ex": 2485,
      "lin": 2486,
      "▁na": 2487,
      "овъ,": 2488,
      "▁`": 2489,
      "реде": 2490,
      "1й": 2491,
      "▁\nма": 2492,
      "рово": 2493,
      "▁(С": 2494,
      "рш": 2495,
      "торо": 2496,
      "лЪ": 2497,
      "▁ег": 2498,
      "▁\nШ": 2499,
      "▁\n-": 2500,
      "ко-": 2501,
      "сіі": 2502,
      "▁0,": 2503,
      "анъ": 2504,
      "eH": 2505,
      "ug": 2506,
      "обра": 2507,
      "стре": 2508,
      "▁чере": 2509,
      "45": 2510,
      "і^": 2511,
      "▁вра": 2512,
      "ае": 2513,
      "▁три": 2514,
      "томъ": 2515,
      "per": 2516,
      "ЕД": 2517,
      "б,": 2518,
      "▁пор.": 2519,
      "▁чет": 2520,
      "фо": 2521,
      "хь": 2522,
      "рон": 2523,
      "▁Вла": 2524,
      "aj": 2525,
      "▁части": 2526,
      "тен": 2527,
      "ковы": 2528,
      "ф.": 2529,
      "▁благо": 2530,
      "y,": 2531,
      "юля": 2532,
      "тъ,": 2533,
      "▁ну": 2534,
      "▁стро": 2535,
      "ло-": 2536,
      "▁\nц": 2537,
      "06": 2538,
      "▁которые": 2539,
      "▁вся": 2540,
      "▁as": 2541,
      "ОД": 2542,
      "▁иск": 2543,
      "рес": 2544,
      "▁ак": 2545,
      "▁\nча": 2546,
      "рия": 2547,
      "ряд": 2548,
      "▁und": 2549,
      "11.": 2550,
      "шъ": 2551,
      "38": 2552,
      "35": 2553,
      "над": 2554,
      "ое": 2555,
      "ходя": 2556,
      "▁Р.": 2557,
      "ад": 2558,
      "▁жиз": 2559,
      "хъ.": 2560,
      "▁буд": 2561,
      "лан": 2562,
      "▁ё": 2563,
      "▁\nі": 2564,
      "▁обы": 2565,
      "▁каж": 2566,
      "▁Щ": 2567,
      "▁говори": 2568,
      "▁дво": 2569,
      "▁году": 2570,
      "аться": 2571,
      "▁чер": 2572,
      "атери": 2573,
      "т-": 2574,
      "▁\n\n\nГ": 2575,
      "▁m.": 2576,
      "▁im": 2577,
      "cc": 2578,
      "волю": 2579,
      "іе,": 2580,
      "р,": 2581,
      "▁tr": 2582,
      "▁\n\nЕ": 2583,
      "ег,": 2584,
      "▁дня": 2585,
      "ок": 2586,
      "▁ar": 2587,
      "▁\nло": 2588,
      "ond": 2589,
      "▁сред": 2590,
      "ord": 2591,
      "▁\n\n19": 2592,
      "аб": 2593,
      "▁аи": 2594,
      "1Я": 2595,
      "еу": 2596,
      "чка": 2597,
      "ений": 2598,
      "▁поп": 2599,
      "ium": 2600,
      "▁ИВАН": 2601,
      "▁аг": 2602,
      "MH": 2603,
      "n,": 2604,
      "▁\nри": 2605,
      "▁5.": 2606,
      "▁обла": 2607,
      "▁\n\n1.": 2608,
      "кий": 2609,
      "ax": 2610,
      "ема": 2611,
      "81": 2612,
      "oe": 2613,
      "49": 2614,
      "ль-": 2615,
      "▁v.": 2616,
      "П.": 2617,
      "▁сч": 2618,
      "ten": 2619,
      "▁2)": 2620,
      "▁Кар": 2621,
      "▁кор": 2622,
      "▁\n^": 2623,
      "▁Ст.": 2624,
      ".-": 2625,
      "цев": 2626,
      "▁часть": 2627,
      "ОВЪ.": 2628,
      "▁Ру": 2629,
      "▁(1959": 2630,
      "▁1-": 2631,
      "▁di": 2632,
      "\\ѵ": 2633,
      "ним": 2634,
      "ствую": 2635,
      "▁ей": 2636,
      "ил": 2637,
      "▁Че": 2638,
      "▁явля": 2639,
      "▁\nде": 2640,
      "лага": 2641,
      "▁Ге": 2642,
      "▁обра": 2643,
      "pl": 2644,
      "▁ch": 2645,
      "ло,": 2646,
      "▁at": 2647,
      "бъ": 2648,
      "кре": 2649,
      "/9": 2650,
      "та.": 2651,
      "▁вопро": 2652,
      "▁кол": 2653,
      "мит": 2654,
      "ibus": 2655,
      "шка": 2656,
      "▁имен": 2657,
      "▁сем": 2658,
      "▁2,": 2659,
      "▁\nве": 2660,
      "дом": 2661,
      "▁l’": 2662,
      "тельно": 2663,
      "▁лу": 2664,
      "фор": 2665,
      "ort": 2666,
      "стер": 2667,
      "che": 2668,
      "▁fl": 2669,
      "ия": 2670,
      "ef": 2671,
      "сло": 2672,
      "▁›": 2673,
      "▁пр.": 2674,
      "али": 2675,
      "▁44": 2676,
      "▁\nr": 2677,
      "вое": 2678,
      "▁\n\n17": 2679,
      "▁указ": 2680,
      "▁31": 2681,
      "▁нап": 2682,
      "огда": 2683,
      "ставлен": 2684,
      "казыва": 2685,
      "ови": 2686,
      "▁\n6": 2687,
      "ства,": 2688,
      "▁меня": 2689,
      "гЬ": 2690,
      "▁A.": 2691,
      "▁\n\n.": 2692,
      "АМ": 2693,
      "].": 2694,
      "▁помо": 2695,
      "aT": 2696,
      "▁\nХ": 2697,
      "▁\n\nЯ": 2698,
      "80": 2699,
      "мот": 2700,
      "▁который": 2701,
      "▁дви": 2702,
      "▁дере": 2703,
      "▁него": 2704,
      "▁}": 2705,
      "▁\n\n^": 2706,
      "▁\n\n\n\n\n\n\n\n\n": 2707,
      "да.": 2708,
      "85": 2709,
      "▁\n11": 2710,
      "▁дан": 2711,
      "тери": 2712,
      "іш": 2713,
      "j.": 2714,
      "▁сер": 2715,
      "▁\nми": 2716,
      "ны.": 2717,
      "▁расп": 2718,
      "rom": 2719,
      "99": 2720,
      "▁36": 2721,
      "▁\nраз": 2722,
      "!е": 2723,
      "▁2-": 2724,
      "рю": 2725,
      "▁мило": 2726,
      "ИХ": 2727,
      "никъ": 2728,
      "):": 2729,
      "▁ци": 2730,
      "но.": 2731,
      "аа": 2732,
      "▁ас": 2733,
      "щая": 2734,
      "▁род": 2735,
      "▁Z": 2736,
      "are": 2737,
      "▁Гри": 2738,
      ";—": 2739,
      "▁32": 2740,
      "руж": 2741,
      "▁\ng": 2742,
      "ater": 2743,
      "іЬ": 2744,
      "омъ": 2745,
      "ОС": 2746,
      "нее": 2747,
      "гс": 2748,
      "▁(1959)": 2749,
      "▁\n\n\nТ": 2750,
      "▁Ки": 2751,
      "веден": 2752,
      "ію": 2753,
      "▁обще": 2754,
      "▁?": 2755,
      "ье": 2756,
      "▁ры": 2757,
      "ert": 2758,
      "▁\n\n*": 2759,
      "рату": 2760,
      "▁свое": 2761,
      "of": 2762,
      "НЫ": 2763,
      "ОВИЧ,": 2764,
      "▁вид": 2765,
      "▁сла": 2766,
      "скому": 2767,
      "▁\n\nНа": 2768,
      "p.": 2769,
      "▁нас": 2770,
      "▁щ": 2771,
      "рии": 2772,
      "ремен": 2773,
      "▁мар": 2774,
      "лом": 2775,
      "сти,": 2776,
      "ost": 2777,
      "▁доб": 2778,
      "▁зат": 2779,
      "▁жен": 2780,
      "83": 2781,
      "▁Анд": 2782,
      "ys": 2783,
      "Г.": 2784,
      "епі": 2785,
      "▁(1958": 2786,
      "▁Сов": 2787,
      "▁\n\n\n\n\n\n\n\n\n\n\n": 2788,
      "ый": 2789,
      "^е": 2790,
      "ительно": 2791,
      "^а": 2792,
      "Н.": 2793,
      "рга": 2794,
      "сн": 2795,
      "образ": 2796,
      "РИ": 2797,
      "▁высо": 2798,
      "I.": 2799,
      "стья": 2800,
      "ach": 2801,
      "▁зо": 2802,
      "льз": 2803,
      "▁совер": 2804,
      "па,": 2805,
      "-1": 2806,
      "с1": 2807,
      "▁сре": 2808,
      "ские": 2809,
      "ий": 2810,
      "ники": 2811,
      "▁губер": 2812,
      "ению": 2813,
      "iB": 2814,
      "ale": 2815,
      "шего": 2816,
      "ement": 2817,
      "▁служ": 2818,
      "iz": 2819,
      "▁c.": 2820,
      "рё": 2821,
      "▁р-н,": 2822,
      "▁ra": 2823,
      "вра": 2824,
      "▁содер": 2825,
      "треб": 2826,
      "▁\n\nа": 2827,
      "ск,": 2828,
      "▁Александ": 2829,
      "ском": 2830,
      "▁\nЬ": 2831,
      "▁особ": 2832,
      "▁кри": 2833,
      "▁ут": 2834,
      "бург": 2835,
      "▁долж": 2836,
      "m.": 2837,
      "ОГ": 2838,
      "чки": 2839,
      "лё": 2840,
      "▁после": 2841,
      "▁состоя": 2842,
      "шт": 2843,
      "▁\n\n\nМ": 2844,
      "можно": 2845,
      "ard": 2846,
      "▁\n\nо": 2847,
      "▁\n\n\nM": 2848,
      "▁\nчто": 2849,
      "пов": 2850,
      "▁Ре": 2851,
      "пас": 2852,
      "к-": 2853,
      "▁вѣ": 2854,
      "▁ж.": 2855,
      "стей": 2856,
      "▁\nх": 2857,
      "АЯ": 2858,
      "▁per": 2859,
      "ѵі": 2860,
      "▁АЛ": 2861,
      "▁очень": 2862,
      "▁\nга": 2863,
      "▁рд.": 2864,
      "▁Ан": 2865,
      "56": 2866,
      "▁Пер": 2867,
      "зда": 2868,
      "^,": 2869,
      "слу": 2870,
      "КОВ": 2871,
      "CK": 2872,
      "▁49": 2873,
      "1>": 2874,
      "или": 2875,
      "ій,": 2876,
      "m,": 2877,
      "42": 2878,
      "дова": 2879,
      "ik": 2880,
      "▁Б.": 2881,
      "ма,": 2882,
      "ум": 2883,
      "щих": 2884,
      "нец": 2885,
      "ang": 2886,
      "▁це": 2887,
      "рс": 2888,
      "ui": 2889,
      "ра.": 2890,
      "ok": 2891,
      "ore": 2892,
      "▁ио": 2893,
      "▁тер": 2894,
      "tre": 2895,
      "▁\n\n\n7": 2896,
      "▁ob": 2897,
      "огра": 2898,
      "йств": 2899,
      "▁Ча": 2900,
      "роп": 2901,
      "▁a.": 2902,
      "▁распо": 2903,
      "▁die": 2904,
      "▁сти": 2905,
      "41": 2906,
      "ровъ": 2907,
      "▁\n\n2.": 2908,
      "▁170": 2909,
      "стъ": 2910,
      "▁ск": 2911,
      "▁ис": 2912,
      "▁Ти": 2913,
      "pr": 2914,
      "ные,": 2915,
      "▁61-": 2916,
      "ью": 2917,
      "ЕЙ": 2918,
      "▁gr": 2919,
      "▁яко": 2920,
      "▁\nПо": 2921,
      "▁вз": 2922,
      "нич": 2923,
      "▁ПО": 2924,
      "▁dans": 2925,
      "▁мас": 2926,
      "▁собо": 2927,
      "рн": 2928,
      "▁ху": 2929,
      "иться": 2930,
      "36": 2931,
      "кую": 2932,
      "ками": 2933,
      "▁II.": 2934,
      "ical": 2935,
      "b,": 2936,
      "еи": 2937,
      "ческих": 2938,
      "чай": 2939,
      "▁исп": 2940,
      "▁0.": 2941,
      "▁взя": 2942,
      "um,": 2943,
      "▁гро": 2944,
      "▁рга": 2945,
      "Б.": 2946,
      "▁соот": 2947,
      "ною": 2948,
      "вается": 2949,
      "са,": 2950,
      "''": 2951,
      "▁(К": 2952,
      "те,": 2953,
      "ИЙ": 2954,
      "▁100": 2955,
      "тв": 2956,
      "кви": 2957,
      "ню": 2958,
      "▁бли": 2959,
      "еа": 2960,
      "сть,": 2961,
      "▁\nНа": 2962,
      "▁Сп": 2963,
      "оі": 2964,
      "ѣ,": 2965,
      "eHH": 2966,
      "ых": 2967,
      "▁\nди": 2968,
      "▁923.": 2969,
      "нос": 2970,
      "й-": 2971,
      "уп": 2972,
      "▁(8": 2973,
      "мп": 2974,
      "рп": 2975,
      "▁\n[": 2976,
      "ать.": 2977,
      "▁with": 2978,
      "1Й": 2979,
      "▁могу": 2980,
      "b.": 2981,
      "то-": 2982,
      "▁и,": 2983,
      "▁своего": 2984,
      "ться": 2985,
      "йо": 2986,
      "▁кг": 2987,
      "▁(1958)": 2988,
      "▁уг": 2989,
      "▁фи": 2990,
      "гов": 2991,
      "▁\nже": 2992,
      "ким": 2993,
      "e-": 2994,
      "рая": 2995,
      "▁прави": 2996,
      "▁пря": 2997,
      "▁Ле": 2998,
      "щей": 2999,
      "ment": 3000,
      "вар": 3001,
      "▁\n\n\nИ": 3002,
      "вЪ": 3003,
      "▁°": 3004,
      "▁кар": 3005,
      "мат": 3006,
      "43": 3007,
      "▁il": 3008,
      "яти": 3009,
      "ie,": 3010,
      "Ьа": 3011,
      "го.": 3012,
      "у-": 3013,
      "ід": 3014,
      "hr": 3015,
      "ше,": 3016,
      "юня": 3017,
      "рег": 3018,
      "▁Это": 3019,
      "▁былъ": 3020,
      "▁Никола": 3021,
      "▁бере": 3022,
      "ни,": 3023,
      "▁(В": 3024,
      "▁200": 3025,
      "▁47": 3026,
      "ением": 3027,
      "стран": 3028,
      "▁br": 3029,
      "цен": 3030,
      "▁8.": 3031,
      "вали": 3032,
      "51": 3033,
      "лЬ": 3034,
      "nt": 3035,
      "▁поло": 3036,
      "HT": 3037,
      "ier": 3038,
      "га.": 3039,
      "nd": 3040,
      "--": 3041,
      "▁ал": 3042,
      "▁уда": 3043,
      "пъ": 3044,
      "вид": 3045,
      "которы": 3046,
      "ствова": 3047,
      "▁гру": 3048,
      "кт": 3049,
      "▁Чер": 3050,
      "▁Ьу": 3051,
      "▁цар": 3052,
      "52": 3053,
      "▁\n\n\nА": 3054,
      "▁\n‚": 3055,
      "oj": 3056,
      "реб": 3057,
      "86": 3058,
      "ые": 3059,
      "скую": 3060,
      "сю": 3061,
      "▁о.": 3062,
      "▁поз": 3063,
      "▁che": 3064,
      "uss": 3065,
      "▁are": 3066,
      "точ": 3067,
      "шки": 3068,
      "▁St": 3069,
      "оро": 3070,
      "▁est": 3071,
      "▁Ли": 3072,
      ".:": 3073,
      "кихъ": 3074,
      "▁этой": 3075,
      "▁вну": 3076,
      "цк.": 3077,
      "▁J.": 3078,
      "▁\n\nс": 3079,
      "▁еі": 3080,
      "ші": 3081,
      "ben": 3082,
      "▁час": 3083,
      "py": 3084,
      "АЙ": 3085,
      "еп.": 3086,
      "▁времени": 3087,
      "▁ет": 3088,
      "▁более": 3089,
      "кан": 3090,
      "ге,": 3091,
      "▁\n_": 3092,
      "▁АН": 3093,
      "▁ино": 3094,
      "готов": 3095,
      "▁\n\n10": 3096,
      "город": 3097,
      "И,": 3098,
      "рован": 3099,
      "арак": 3100,
      "льск.": 3101,
      "▁дер": 3102,
      "▁зд": 3103,
      "▁мне": 3104,
      "ОК": 3105,
      "в-": 3106,
      "кіе": 3107,
      "▁\n\n„": 3108,
      "▁\nса": 3109,
      "ior": 3110,
      "му,": 3111,
      "йе": 3112,
      "▁Ап": 3113,
      "▁поли": 3114,
      "70": 3115,
      "рез": 3116,
      "хра": 3117,
      "!,": 3118,
      "ein": 3119,
      "▁необ": 3120,
      "р1": 3121,
      "▁\nру": 3122,
      "▁той": 3123,
      "ern": 3124,
      "▁\n\nК.": 3125,
      "▁зи": 3126,
      "шь,": 3127,
      "ССР": 3128,
      "▁мог": 3129,
      "▁сего": 3130,
      "aK": 3131,
      "▁древ": 3132,
      "іф": 3133,
      "▁plus": 3134,
      "чет": 3135,
      "скомъ": 3136,
      "▁доро": 3137,
      "▁..": 3138,
      "ej": 3139,
      "*,": 3140,
      "дела": 3141,
      "▁\n\n'": 3142,
      "стов": 3143,
      "▁\n\nФ": 3144,
      "▁осо": 3145,
      "▁государ": 3146,
      "АД": 3147,
      "▁против": 3148,
      "ев.": 3149,
      "▁зако": 3150,
      "TO": 3151,
      "евъ.": 3152,
      "▁на-": 3153,
      "ля,": 3154,
      "▁43": 3155,
      "...»": 3156,
      "▁(см.": 3157,
      "▁x": 3158,
      "▁\nме": 3159,
      "ниц": 3160,
      "▁ея": 3161,
      "ат.": 3162,
      "iii": 3163,
      "▁право": 3164,
      "'ь": 3165,
      "цион": 3166,
      "М.": 3167,
      "ды,": 3168,
      "дн": 3169,
      "ym": 3170,
      "oll": 3171,
      "унк": 3172,
      "▁ap": 3173,
      "▁(о": 3174,
      "вест": 3175,
      "▁первы": 3176,
      "-19": 3177,
      "▁el": 3178,
      "суда": 3179,
      "▁госпо": 3180,
      "кие": 3181,
      "ca": 3182,
      "▁\nла": 3183,
      "art": 3184,
      "пс": 3185,
      "шая": 3186,
      "▁сказа": 3187,
      "▁Дек.": 3188,
      "nn": 3189,
      "▁42": 3190,
      "▁\n„": 3191,
      "oro": 3192,
      "ien": 3193,
      "▁\n\nS": 3194,
      "▁биб": 3195,
      "▁so": 3196,
      "▁\nK": 3197,
      "ль,": 3198,
      "скій": 3199,
      "▁by": 3200,
      "сен": 3201,
      "ОТ": 3202,
      "вян": 3203,
      "▁фа": 3204,
      "Ьо": 3205,
      "▁Кня": 3206,
      "руг": 3207,
      "61": 3208,
      "▁%": 3209,
      "рб": 3210,
      "▁3-": 3211,
      "!.": 3212,
      "ега": 3213,
      "лия": 3214,
      "▁производ": 3215,
      "60)": 3216,
      "го-": 3217,
      "▁око": 3218,
      "▁41": 3219,
      "BO": 3220,
      "раж": 3221,
      "er.": 3222,
      "мина": 3223,
      "97": 3224,
      "▁Кон": 3225,
      "▁отд.": 3226,
      "'^": 3227,
      "евич": 3228,
      "цо": 3229,
      "▁Ив.": 3230,
      "дна": 3231,
      "▁сист": 3232,
      "ы.": 3233,
      "▁ие": 3234,
      "ись": 3235,
      "eit": 3236,
      "CH": 3237,
      "ова,": 3238,
      "▁\nv": 3239,
      "ты,": 3240,
      "гп": 3241,
      "шп": 3242,
      "чина": 3243,
      "лез": 3244,
      "личе": 3245,
      "pH": 3246,
      "▁\nЦ": 3247,
      "Е.": 3248,
      "is.": 3249,
      "▁жа": 3250,
      "90": 3251,
      "сколько": 3252,
      "▁СТ": 3253,
      "▁d’": 3254,
      "▁тра": 3255,
      "▁Иванов": 3256,
      "О.": 3257,
      "ших": 3258,
      "СС": 3259,
      "блю": 3260,
      "▁органи": 3261,
      "льной": 3262,
      "▁Іа": 3263,
      "▁id.": 3264,
      "▁приня": 3265,
      "иъ": 3266,
      "▁am": 3267,
      "оу": 3268,
      "▁арест": 3269,
      "ht": 3270,
      "ваю": 3271,
      "▁ден": 3272,
      "▁\n\nв": 3273,
      "▁сі": 3274,
      "▁СО).": 3275,
      "32": 3276,
      "чы": 3277,
      "▁\n\n\n|": 3278,
      "ры,": 3279,
      "тей": 3280,
      "▁опреде": 3281,
      "нъ.": 3282,
      "olog": 3283,
      "ss": 3284,
      "▁того,": 3285,
      "\\у": 3286,
      "ei": 3287,
      "Ьег": 3288,
      "int": 3289,
      "▁(«": 3290,
      "▁зъ": 3291,
      "мф": 3292,
      "мов": 3293,
      "▁\n\n\nЗ": 3294,
      "ЕКС": 3295,
      "УР": 3296,
      "y.": 3297,
      "вен": 3298,
      "48": 3299,
      "чис": 3300,
      "erm": 3301,
      "оспо": 3302,
      "есе": 3303,
      "▁Каза": 3304,
      "31": 3305,
      "▁Псп.": 3306,
      "не,": 3307,
      "кти": 3308,
      "стве": 3309,
      "▁слов": 3310,
      "▁\n\n•": 3311,
      "ош": 3312,
      "ства.": 3313,
      "▁больше": 3314,
      "Ка": 3315,
      "▁безъ": 3316,
      "рин": 3317,
      "▁см.": 3318,
      "▁груп": 3319,
      "▁Ф.": 3320,
      "лг": 3321,
      "і-": 3322,
      "$,": 3323,
      "▁весь": 3324,
      "ство,": 3325,
      "ственно": 3326,
      "**": 3327,
      "▁томъ": 3328,
      "бер": 3329,
      "щаго": 3330,
      "▁где": 3331,
      "▁сло": 3332,
      "▁аз": 3333,
      "▁всего": 3334,
      "▁Му": 3335,
      "'.": 3336,
      "▁\n\nШ": 3337,
      "▁называ": 3338,
      "▁\nL": 3339,
      "лови": 3340,
      "c.": 3341,
      "▁Ha": 3342,
      "▁своей": 3343,
      "ческие": 3344,
      "▁ев": 3345,
      "▁эта": 3346,
      "дина": 3347,
      "▁харак": 3348,
      "▁(2": 3349,
      "кому": 3350,
      "▁тех": 3351,
      "▁ны": 3352,
      "ux": 3353,
      "етъ,": 3354,
      "л.,": 3355,
      "▁даже": 3356,
      "▁аа": 3357,
      "льту": 3358,
      "46": 3359,
      "Л.": 3360,
      "гор": 3361,
      "дЪ": 3362,
      "▁45": 3363,
      "сков": 3364,
      "ho": 3365,
      "res": 3366,
      "▁\n\nB": 3367,
      "▁б.": 3368,
      "▁\n\n■": 3369,
      "роб": 3370,
      "льные": 3371,
      "хЪ": 3372,
      "лли": 3373,
      "ется,": 3374,
      "▁тогда": 3375,
      "▁48": 3376,
      "▁тво": 3377,
      "тс": 3378,
      "то,": 3379,
      "▁е.": 3380,
      "▁мат": 3381,
      "кси": 3382,
      "▁себя": 3383,
      "▁тѣ": 3384,
      "95": 3385,
      "yn": 3386,
      "^Ь": 3387,
      "гат": 3388,
      "▁po": 3389,
      "▁Раз": 3390,
      "▁\n\n3.": 3391,
      "▁\n\nПри": 3392,
      "▁проти": 3393,
      "ind": 3394,
      "ata": 3395,
      "ast": 3396,
      "-.": 3397,
      "ire": 3398,
      "▁Ту": 3399,
      "дня": 3400,
      "▁Пе": 3401,
      "▁ес": 3402,
      "тся": 3403,
      "ate": 3404,
      "▁(1960)": 3405,
      "▁\n\n\nУ": 3406,
      "▁ов": 3407,
      "ran": 3408,
      "▁M.": 3409,
      "▁\nNo": 3410,
      "\".": 3411,
      "▁пись": 3412,
      "▁Сер": 3413,
      "▁мона": 3414,
      "шли": 3415,
      "стру": 3416,
      "▁раг": 3417,
      "1с": 3418,
      "нк": 3419,
      "▁пров": 3420,
      "▁я.": 3421,
      "II.": 3422,
      "▁sub": 3423,
      "▁\na": 3424,
      "▁(П": 3425,
      "▁услов": 3426,
      "нить": 3427,
      "бира": 3428,
      "▁глав": 3429,
      "сер": 3430,
      "-7": 3431,
      "▁ад": 3432,
      "▁ош": 3433,
      "пад": 3434,
      "ИЕ": 3435,
      "▁имѣ": 3436,
      "стави": 3437,
      "62": 3438,
      "лъ.": 3439,
      "▁He": 3440,
      "▁учи": 3441,
      "Ba": 3442,
      "п-": 3443,
      "▁\n\nи": 3444,
      "АЗ": 3445,
      "мень": 3446,
      "erv": 3447,
      "▁mo": 3448,
      "раб": 3449,
      "ау": 3450,
      "▁(по": 3451,
      "▁НИК": 3452,
      "енера": 3453,
      "рв": 3454,
      "къ.": 3455,
      "sch": 3456,
      "ЬЕВ": 3457,
      "▁а,": 3458,
      "пер": 3459,
      "ён": 3460,
      "вал": 3461,
      "ck": 3462,
      "▁народ": 3463,
      "▁\n\n\n(": 3464,
      "льный": 3465,
      "▁заклю": 3466,
      "▁цен": 3467,
      "▁Ше": 3468,
      "▁\n\n\n*": 3469,
      "▁сте": 3470,
      "ИС": 3471,
      "fer": 3472,
      "▁одна": 3473,
      "пя": 3474,
      "▁\n\n\nН": 3475,
      "▁челове": 3476,
      "▁\n\nЗа": 3477,
      "▁(1": 3478,
      "▁при-": 3479,
      "▁себ": 3480,
      "▁\n\n\nД": 3481,
      "▁тя": 3482,
      "▁чем": 3483,
      "воз": 3484,
      "▁\nсъ": 3485,
      "м-": 3486,
      "ено": 3487,
      "лог": 3488,
      "▁роди": 3489,
      "льт": 3490,
      "▁es": 3491,
      "ить.": 3492,
      "ле-": 3493,
      "▁слово": 3494,
      "▁46": 3495,
      "мента": 3496,
      "▁\nD": 3497,
      "▁XV": 3498,
      "стой": 3499,
      "▁одно": 3500,
      "▁Пере": 3501,
      "g.": 3502,
      "-5": 3503,
      "ющих": 3504,
      "▁\n\nІ": 3505,
      "▁пана": 3506,
      "▁мн": 3507,
      "▁Каз": 3508,
      "кс": 3509,
      "▁назва": 3510,
      "▁руко": 3511,
      "▁Влади": 3512,
      "овать": 3513,
      "ерх": 3514,
      "▁\nле": 3515,
      "f.": 3516,
      "▁шо": 3517,
      "пуска": 3518,
      "ins": 3519,
      "▁9.": 3520,
      "▁ска": 3521,
      "▁изда": 3522,
      "▁перво": 3523,
      "▁элек": 3524,
      "г^": 3525,
      "▁\n\nC": 3526,
      "▁B.": 3527,
      "▁H.": 3528,
      "ць": 3529,
      "ij": 3530,
      "сит": 3531,
      "еги": 3532,
      "▁Ла": 3533,
      "ций": 3534,
      "▁\n\nХ": 3535,
      "ult": 3536,
      "°;": 3537,
      "ги,": 3538,
      "шее": 3539,
      "▁АЛЕКС": 3540,
      "иты": 3541,
      "▁In": 3542,
      "▁имъ": 3543,
      "▁выше": 3544,
      "кимъ": 3545,
      "л:": 3546,
      "bl": 3547,
      "▁ср.": 3548,
      "яя": 3549,
      "▁é": 3550,
      "▁лите": 3551,
      "▁следу": 3552,
      "горо": 3553,
      "in,": 3554,
      "▁The": 3555,
      "▁\nси": 3556,
      "ти,": 3557,
      "uf": 3558,
      "ского,": 3559,
      "лены": 3560,
      "▁продол": 3561,
      "▁me": 3562,
      "▁парти": 3563,
      "▁гор": 3564,
      "▁adj.": 3565,
      "іѵ": 3566,
      "▁\nпе": 3567,
      "▁еди": 3568,
      "ото": 3569,
      "шаго": 3570,
      "йте": 3571,
      "▁будет": 3572,
      "▁’": 3573,
      "▁ъ": 3574,
      "▁Ин": 3575,
      "▁58": 3576,
      "▁про-": 3577,
      "▁\nл": 3578,
      "▁хоро": 3579,
      "арь": 3580,
      "тт": 3581,
      "▁ан": 3582,
      "-го": 3583,
      "▁dis": 3584,
      "▁\n\nA": 3585,
      "▁иг": 3586,
      "94": 3587,
      "льных": 3588,
      "стоян": 3589,
      "▁ac": 3590,
      "ons": 3591,
      "\\У": 3592,
      "неч": 3593,
      "чего": 3594,
      "▁них": 3595,
      "▁\n\nб": 3596,
      "Ш.": 3597,
      "а1": 3598,
      "ръ,": 3599,
      "▁wh": 3600,
      "нев": 3601,
      "▁хозя": 3602,
      "ража": 3603,
      "▁этом": 3604,
      "чъ": 3605,
      "▁V.": 3606,
      "▁Q": 3607,
      "▁би": 3608,
      "▁\n\nT": 3609,
      "жан": 3610,
      "ew": 3611,
      "▁окр.,": 3612,
      "геп": 3613,
      "Ко": 3614,
      "дви": 3615,
      "▁\n\nH": 3616,
      "▁\nКа": 3617,
      "▁\nw": 3618,
      "мб": 3619,
      "чо": 3620,
      "йа": 3621,
      "кѣ": 3622,
      "ена": 3623,
      "▁——": 3624,
      "іез": 3625,
      "сти.": 3626,
      "▁каза": 3627,
      "ИР": 3628,
      "рЪ": 3629,
      "са.": 3630,
      "дни": 3631,
      "▁кла": 3632,
      "▁свой": 3633,
      "▁ІІ": 3634,
      "лена": 3635,
      "іе.": 3636,
      "дой": 3637,
      "іІ": 3638,
      "ii,": 3639,
      "19.": 3640,
      "ковъ,": 3641,
      "кто": 3642,
      "сле": 3643,
      "▁\nхо": 3644,
      "▁\nR": 3645,
      "▁111": 3646,
      "co": 3647,
      "хан": 3648,
      "▁ост": 3649,
      "▁спе": 3650,
      "▁\n\n\n5": 3651,
      "ri": 3652,
      "▁(3": 3653,
      "▁\n$": 3654,
      "сут": 3655,
      "▁сви": 3656,
      "▁Все": 3657,
      "2е": 3658,
      "ܘܼ": 3659,
      "шин": 3660,
      "▁Те": 3661,
      "НО": 3662,
      "ем,": 3663,
      "▁тюрь": 3664,
      "▁80": 3665,
      "▁\n\n\n-": 3666,
      "▁fish": 3667,
      "▁Вас": 3668,
      "▁свою": 3669,
      "ііа": 3670,
      "ua": 3671,
      "егда": 3672,
      "▁новы": 3673,
      "▁Ду": 3674,
      "чин": 3675,
      "ace": 3676,
      "тин": 3677,
      "ііе": 3678,
      "ari": 3679,
      "рот": 3680,
      "ват": 3681,
      "▁уе": 3682,
      "жо": 3683,
      "пз": 3684,
      "ну,": 3685,
      "гна": 3686,
      "ный.": 3687,
      "▁іа": 3688,
      "▁проис": 3689,
      "▁луч": 3690,
      "▁Ьа": 3691,
      "||": 3692,
      "Ka": 3693,
      "ку.": 3694,
      "▁матери": 3695,
      "ц,": 3696,
      "▁(Р": 3697,
      "▁Сем": 3698,
      "новъ": 3699,
      "or.": 3700,
      "▁®": 3701,
      "▁сЪ": 3702,
      "нача": 3703,
      "▁отде": 3704,
      "▁функ": 3705,
      "▁часто": 3706,
      "▁кто": 3707,
      "▁\n\n\nF": 3708,
      "▁револю": 3709,
      "▁L.": 3710,
      "▁\nпод": 3711,
      "▁Обще": 3712,
      "жь": 3713,
      "▁blan": 3714,
      "ise": 3715,
      "▁н.": 3716,
      "ё,": 3717,
      "▁\n\n14": 3718,
      "▁190": 3719,
      "HO": 3720,
      "▁город": 3721,
      "▁3,": 3722,
      "г-": 3723,
      "▁разв": 3724,
      "▁необходи": 3725,
      "Ji": 3726,
      "ive": 3727,
      "▁Пра": 3728,
      "▁\nсто": 3729,
      "доров": 3730,
      "▁направ": 3731,
      "енъ": 3732,
      "жения": 3733,
      "▁Михай": 3734,
      "гла": 3735,
      "▁Cic.": 3736,
      "ev": 3737,
      "епз": 3738,
      "▁\nсу": 3739,
      "тября": 3740,
      "ент.": 3741,
      "us.": 3742,
      "пд": 3743,
      "ia.": 3744,
      "боль": 3745,
      "▁прово": 3746,
      "гез": 3747,
      "гит": 3748,
      "▁может": 3749,
      "вь": 3750,
      "Е,": 3751,
      "ОП": 3752,
      "93": 3753,
      "▁лет": 3754,
      "▁окр.": 3755,
      "▁\nE": 3756,
      "▁\n‘": 3757,
      "▁потому": 3758,
      "tt": 3759,
      "▁00": 3760,
      "▁оу": 3761,
      "ду,": 3762,
      "тъ.": 3763,
      "▁дела": 3764,
      "есі": 3765,
      "гл": 3766,
      "▁гап": 3767,
      "вает": 3768,
      "▁Спб.": 3769,
      "лежа": 3770,
      "▁\n\n13": 3771,
      "\n\n\n\n\n\n\n\n\n\n\n\n\n\n\n\n\n\n\n\n\n\n\n\n\n\n\n\n\n\n\n\n\n\n\n\n\n\n\n\n\n\n\n\n\n\n\n\n\n\n\n\n\n\n\n\n\n\n\n\n\n\n\n\n": 3772,
      "ения,": 3773,
      "at.": 3774,
      "▁\nку": 3775,
      "▁sup": 3776,
      "▁from": 3777,
      "▁mar": 3778,
      "АГ": 3779,
      "вать,": 3780,
      "▁вос": 3781,
      "oh": 3782,
      "ности,": 3783,
      "▁\nV": 3784,
      "лено": 3785,
      "▁которой": 3786,
      "сси": 3787,
      "▁роз": 3788,
      "ES": 3789,
      "▁\nше": 3790,
      "▁Пре": 3791,
      "оте": 3792,
      "ница": 3793,
      "▁ВАС": 3794,
      "▁\nF": 3795,
      "ова.": 3796,
      "▁(М": 3797,
      "к1": 3798,
      "мн": 3799,
      "▁sz": 3800,
      "▁\n\n18": 3801,
      "иш": 3802,
      "▁Если": 3803,
      "▁Сена": 3804,
      "74": 3805,
      "ках": 3806,
      "omm": 3807,
      "75": 3808,
      "▁должно": 3809,
      "ires": 3810,
      "▁Лу": 3811,
      "строй": 3812,
      "яз": 3813,
      "бот": 3814,
      "ig.": 3815,
      "▁всех": 3816,
      "рЬ": 3817,
      "іемъ": 3818,
      "▁пес": 3819,
      "▁\n*": 3820,
      "лит": 3821,
      "▁907.": 3822,
      "▁\n\nЭ": 3823,
      "тан": 3824,
      "ческого": 3825,
      "▁См.": 3826,
      "ial": 3827,
      "▁запис": 3828,
      "ann": 3829,
      "▁сх": 3830,
      "▁др.": 3831,
      "br": 3832,
      "щего": 3833,
      "▁нау": 3834,
      "цы,": 3835,
      "лк": 3836,
      "▁глаго": 3837,
      "98": 3838,
      "няя": 3839,
      "СІ": 3840,
      "▁922.": 3841,
      "▁\nста": 3842,
      "слав": 3843,
      "пла": 3844,
      "▁к-": 3845,
      "▁сит": 3846,
      "▁сва": 3847,
      "▁7.": 3848,
      "них": 3849,
      "ев,": 3850,
      "▁\\У": 3851,
      "▁лишь": 3852,
      "▁призна": 3853,
      "▁...": 3854,
      "сточ": 3855,
      "▁ги": 3856,
      "▁\nбу": 3857,
      "ust": 3858,
      "убли": 3859,
      "ма.": 3860,
      "▁\n\n\nI": 3861,
      "▁мя": 3862,
      "▁\nh": 3863,
      "ков,": 3864,
      "ail": 3865,
      "Не": 3866,
      "▁хотя": 3867,
      "▁возможно": 3868,
      "sz": 3869,
      "▁(в": 3870,
      "▁Иси.": 3871,
      "ичъ": 3872,
      "96": 3873,
      "ées": 3874,
      "!»": 3875,
      "ча,": 3876,
      "▁тол": 3877,
      "ску": 3878,
      "ис.": 3879,
      "епа": 3880,
      "▁получи": 3881,
      "▁mit": 3882,
      "▁пригово": 3883,
      "▁ха": 3884,
      "ования": 3885,
      "▁\nсе": 3886,
      "▁іо": 3887,
      "▁живо": 3888,
      "▁сіе": 3889,
      "епе": 3890,
      "ни.": 3891,
      "іег": 3892,
      "▁\nпре": 3893,
      "▁Ье": 3894,
      "ющие": 3895,
      "▁\nin": 3896,
      "▁....": 3897,
      "ыхъ": 3898,
      "▁наход": 3899,
      "тн": 3900,
      "зем": 3901,
      "▁912": 3902,
      "ж-": 3903,
      "▁sec": 3904,
      "ни-": 3905,
      "▁\nду": 3906,
      "▁бол": 3907,
      "ég": 3908,
      "^и": 3909,
      "ева": 3910,
      "▁вто": 3911,
      "▁то,": 3912,
      "▁\nЗа": 3913,
      "▁Plin": 3914,
      "ш-": 3915,
      "▁Рус": 3916,
      "ческая": 3917,
      "▁\n{": 3918,
      "▁\nче": 3919,
      "▁недо": 3920,
      "▁СССР": 3921,
      "ческий": 3922,
      "▁\nки": 3923,
      "▁\nнов": 3924,
      "▁окон": 3925,
      "ра-": 3926,
      "▁Ё": 3927,
      "рую": 3928,
      "ol.": 3929,
      "▁газ": 3930,
      "!я": 3931,
      "▁почти": 3932,
      "▁do": 3933,
      "▁тотъ": 3934,
      "▁Гр.": 3935,
      "▁\n\n\nи": 3936,
      "овъ.": 3937,
      "емо": 3938,
      "▁cor": 3939,
      "▁ВАСИЛ": 3940,
      "af": 3941,
      "▁гг.": 3942,
      "JI": 3943,
      "cn": 3944,
      "▁сей": 3945,
      "▁Ри": 3946,
      "▁Пи": 3947,
      "▁литерату": 3948,
      "▁яв": 3949,
      "HHH": 3950,
      "▁люб": 3951,
      "▁\n\n|": 3952,
      "^'": 3953,
      "товъ": 3954,
      "▁\nO": 3955,
      "ѵа": 3956,
      "▁\n\n12": 3957,
      "Т.": 3958,
      "▁\n\n15": 3959,
      "▁81": 3960,
      "▁Вар": 3961,
      "▁\n\nВъ": 3962,
      "▁Liv": 3963,
      "▁зада": 3964,
      "▁\n\n\nЕ": 3965,
      "▁полож": 3966,
      "▁мало": 3967,
      "▁Василь": 3968,
      "▁крестья": 3969,
      "ня,": 3970,
      "▁\n'": 3971,
      "тно": 3972,
      "▁\n\nNo": 3973,
      "▁зан": 3974,
      "дц": 3975,
      "▁\n\n\nо": 3976,
      "рф": 3977,
      "▁представля": 3978,
      "▁\n0": 3979,
      "▁\nпере": 3980,
      "нию": 3981,
      "ve": 3982,
      "▁he": 3983,
      "лл": 3984,
      "ографи": 3985,
      "▁культу": 3986,
      "кою": 3987,
      "▁ber": 3988,
      "et,": 3989,
      "▁\nсво": 3990,
      "ёз": 3991,
      "епи": 3992,
      "'B": 3993,
      "▁коло": 3994,
      "ди,": 3995,
      "▁spec": 3996,
      "▁Съ": 3997,
      "92": 3998,
      "нием": 3999,
      "Іе": 4000,
      "▁ся": 4001,
      "▁смер": 4002,
      "феп": 4003,
      "▁\nКо": 4004,
      "▁сказ": 4005,
      "▁гре": 4006,
      "личи": 4007,
      "Ше": 4008,
      "▁пода": 4009,
      "рий": 4010,
      "▁най": 4011,
      "▁Им": 4012,
      "▁шко": 4013,
      "▁голов": 4014,
      "ІЙ": 4015,
      "▁све": 4016,
      "мой": 4017,
      "▁\n\n^^": 4018,
      "▁же,": 4019,
      "cl": 4020,
      "дф": 4021,
      "▁pa": 4022,
      "еве": 4023,
      "▁ус": 4024,
      "-П": 4025,
      "У.": 4026,
      "чан": 4027,
      "тп": 4028,
      "▁172": 4029,
      "▁глу": 4030,
      "цъ,": 4031,
      "91": 4032,
      "▁сере": 4033,
      "▁вь": 4034,
      "Р.": 4035,
      "вф": 4036,
      "уо": 4037,
      "чается": 4038,
      "▁виде": 4039,
      "▁совершен": 4040,
      "yp": 4041,
      "hh": 4042,
      "▁I,": 4043,
      "ступа": 4044,
      "▁Вели": 4045,
      "ѵо": 4046,
      "1ю": 4047,
      "ія,": 4048,
      "▁Ново": 4049,
      "▁тому": 4050,
      "▁\nши": 4051,
      "▁man": 4052,
      "1|": 4053,
      "СП": 4054,
      "▁мене": 4055,
      "трен": 4056,
      "▁Тро": 4057,
      "лый": 4058,
      "▁имя": 4059,
      "значен": 4060,
      "ée": 4061,
      "к.,": 4062,
      "льзу": 4063,
      "▁part": 4064,
      "▁\n\n»": 4065,
      "▁Пав": 4066,
      "▁\nты": 4067,
      "пр": 4068,
      "рем": 4069,
      "▁является": 4070,
      "шой": 4071,
      "ver": 4072,
      "on,": 4073,
      "▁que": 4074,
      "2у": 4075,
      "▁това": 4076,
      "▁дет": 4077,
      "ств.": 4078,
      "▁тек": 4079,
      "▁воло": 4080,
      "72": 4081,
      "СН": 4082,
      "пере": 4083,
      "orm": 4084,
      "▁многи": 4085,
      "▁\n\n\nБ": 4086,
      "▁Я.": 4087,
      "▁non": 4088,
      "ческое": 4089,
      "іу": 4090,
      "▁«С": 4091,
      "▁\nего": 4092,
      "шемъ": 4093,
      "з-": 4094,
      "▁Его": 4095,
      "▁лег": 4096,
      "евъ,": 4097,
      "▁за-": 4098,
      "▁\nчи": 4099,
      "ег.": 4100,
      "ied": 4101,
      "ER": 4102,
      "▁Мен": 4103,
      "4е": 4104,
      "лка": 4105,
      "ях": 4106,
      "▁\nся": 4107,
      "▁пор": 4108,
      "▁ой": 4109,
      "▁утвер": 4110,
      "ная,": 4111,
      "ИЯ": 4112,
      "▁откры": 4113,
      "▁Под": 4114,
      "▁рабочи": 4115,
      "чать": 4116,
      "1'": 4117,
      "▁(у": 4118,
      "▁\n\nі": 4119,
      "ett": 4120,
      "▁поэ": 4121,
      "▁Ьег": 4122,
      "ѣ.": 4123,
      "▁пы": 4124,
      "V.": 4125,
      "]е": 4126,
      "скій,": 4127,
      "дать": 4128,
      "▁со-": 4129,
      "жать": 4130,
      "лово": 4131,
      "я-": 4132,
      "целя": 4133,
      "▁55": 4134,
      "▁Евре": 4135,
      "ге.": 4136,
      "че-": 4137,
      "лв": 4138,
      "▁\n\n\n6": 4139,
      "аго": 4140,
      "ружи": 4141,
      "ету": 4142,
      "▁нѣ": 4143,
      "▁\n\n4.": 4144,
      "it,": 4145,
      "▁крас": 4146,
      "шю": 4147,
      "▁del": 4148,
      "érie": 4149,
      "▁дово": 4150,
      "▁Мат": 4151,
      "H,": 4152,
      "1п": 4153,
      "rt": 4154,
      "▁лѣ": 4155,
      "▁основа": 4156,
      "▁\n\n\nA": 4157,
      "▁ВЪ": 4158,
      "ition": 4159,
      "pos": 4160,
      "▁su": 4161,
      "коно": 4162,
      "▁установ": 4163,
      "▁«П": 4164,
      "мыш": 4165,
      "▁пог": 4166,
      "сй": 4167,
      "дес": 4168,
      "▁восп": 4169,
      "▁гл.": 4170,
      "▁бес": 4171,
      "▁коман": 4172,
      "ловъ": 4173,
      "▁912.": 4174,
      "1г": 4175,
      "▁одной": 4176,
      "▁auf": 4177,
      "71": 4178,
      "▁4,": 4179,
      "▁Изд.": 4180,
      "▁ver": 4181,
      "ля.": 4182,
      "ч-": 4183,
      "▁различ": 4184,
      "ющий": 4185,
      "78": 4186,
      "▁(1957": 4187,
      "шй": 4188,
      "▁\nN": 4189,
      "tern": 4190,
      "ив": 4191,
      "ари": 4192,
      "▁настоя": 4193,
      "\",": 4194,
      "▁аб": 4195,
      "▁\nJ": 4196,
      "ским": 4197,
      "см": 4198,
      "itt": 4199,
      "age": 4200,
      "чеб": 4201,
      "ст,": 4202,
      "дъ,": 4203,
      "ёт": 4204,
      "▁res": 4205,
      "▁3)": 4206,
      "▁\n\n16": 4207,
      "▁руб.": 4208,
      "▁Іюля": 4209,
      "▁через": 4210,
      "цию": 4211,
      "ЕВЪ,": 4212,
      "-,": 4213,
      "ческ": 4214,
      "ЕНК": 4215,
      "ам": 4216,
      "ѵе": 4217,
      "▁Он": 4218,
      "▁ново": 4219,
      "▁d’un": 4220,
      "cT": 4221,
      ";,": 4222,
      "“.": 4223,
      "▁Ор": 4224,
      "▁ана": 4225,
      "▁Хри": 4226,
      "ре-": 4227,
      "▁тюрьму": 4228,
      "бой": 4229,
      "тг": 4230,
      "▁вас": 4231,
      "зов": 4232,
      "щие": 4233,
      "▁Ch": 4234,
      "ato": 4235,
      "▁людей": 4236,
      "▁воен": 4237,
      "ции,": 4238,
      "▁\nЭ": 4239,
      "▁\n10": 4240,
      "нц": 4241,
      "стью": 4242,
      "іи,": 4243,
      "▁Кор": 4244,
      "▁непо": 4245,
      "нуть": 4246,
      "рус": 4247,
      "▁you": 4248,
      "ieg": 4249,
      "▁not": 4250,
      "▁вод": 4251,
      "▁\n\nM": 4252,
      "▁руб": 4253,
      "OT": 4254,
      "▁сту": 4255,
      "К.": 4256,
      "▁дев": 4257,
      "▁управ": 4258,
      "пор": 4259,
      "▁Ч.": 4260,
      "▁Мини": 4261,
      "▁представ": 4262,
      "мм": 4263,
      "▁милости": 4264,
      "ат,": 4265,
      "▁Нико": 4266,
      "eT": 4267,
      "out": 4268,
      "▁рай": 4269,
      "^-": 4270,
      "▁(7": 4271,
      "сѣ": 4272,
      "етер": 4273,
      "ган": 4274,
      "лива": 4275,
      "▁Пу": 4276,
      "▁числа": 4277,
      "▁Ио": 4278,
      "▁N.": 4279,
      "Ьі": 4280,
      "▁\nги": 4281,
      "▁оно": 4282,
      "▁што": 4283,
      "▁оди": 4284,
      "B,": 4285,
      "io,": 4286,
      "иц": 4287,
      "НИК": 4288,
      "▁von": 4289,
      "чения": 4290,
      "ИВ": 4291,
      "▁пери": 4292,
      "uct": 4293,
      "шения": 4294,
      "иса": 4295,
      "год": 4296,
      "равн": 4297,
      "ит.:": 4298,
      "4-": 4299,
      "ix": 4300,
      "графи": 4301,
      "▁всѣ": 4302,
      "aii": 4303,
      "зер": 4304,
      "кЪ": 4305,
      "ܵܐ": 4306,
      "1:": 4307,
      "чи,": 4308,
      "inn": 4309,
      "▁стать": 4310,
      "яі": 4311,
      "скимъ": 4312,
      "ели": 4313,
      "▁инте": 4314,
      "▁стороны": 4315,
      "▁книги": 4316,
      "enn": 4317,
      "S.": 4318,
      "▁посл": 4319,
      "▁другой": 4320,
      "домъ": 4321,
      "▁горо": 4322,
      "пт": 4323,
      "ффи": 4324,
      "▁4-": 4325,
      "ations": 4326,
      "▁Росси": 4327,
      "▁арест,": 4328,
      "▁число": 4329,
      "ляется": 4330,
      "ходит": 4331,
      "▁\nG": 4332,
      "▁\nj": 4333,
      "▁Лю": 4334,
      "сІ": 4335,
      "▁\nЖ": 4336,
      "гай": 4337,
      "▁ѣ": 4338,
      "иту": 4339,
      "ромъ": 4340,
      "▁нихъ": 4341,
      "EN": 4342,
      "▁одного": 4343,
      "aun": 4344,
      "▁наи": 4345,
      "Д.": 4346,
      "лоти": 4347,
      "шы": 4348,
      "муще": 4349,
      "▁спра": 4350,
      "▁окру": 4351,
      "▁самы": 4352,
      "76": 4353,
      "▁посла": 4354,
      "ica": 4355,
      "шев": 4356,
      "ek": 4357,
      "atur": 4358,
      "вый": 4359,
      "ков.": 4360,
      "▁\n\nP": 4361,
      "нами": 4362,
      "хот": 4363,
      "▁тот": 4364,
      "▁ко-": 4365,
      "▁us": 4366,
      "ity": 4367,
      "\\\\": 4368,
      "isch": 4369,
      "ковод": 4370,
      "ero": 4371,
      "ренъ": 4372,
      "▁послед": 4373,
      "ца.": 4374,
      "▁Vir": 4375,
      "ань": 4376,
      "▁70": 4377,
      "▁хра": 4378,
      "ІІІІ": 4379,
      "l,": 4380,
      "▁brun": 4381,
      "▁\n\n\nNo": 4382,
      "▁созда": 4383,
      "ши,": 4384,
      "fi": 4385,
      "▁кру": 4386,
      "сь,": 4387,
      "жит": 4388,
      "▁Ѳ": 4389,
      "▁церков": 4390,
      "аш": 4391,
      "Tb,": 4392,
      "тур": 4393,
      "жение": 4394,
      "ими": 4395,
      "79": 4396,
      "льное": 4397,
      "чить": 4398,
      "▁пл": 4399,
      "▁109": 4400,
      "▁Ст": 4401,
      "ice": 4402,
      "▁134,": 4403,
      "ite": 4404,
      "▁II,": 4405,
      "▁наро": 4406,
      "▁Іо": 4407,
      "ходить": 4408,
      "5-": 4409,
      "него": 4410,
      "▁ай": 4411,
      "▁рі": 4412,
      "▁180": 4413,
      "▁Госпо": 4414,
      "73": 4415,
      "нит": 4416,
      "▁оте": 4417,
      "руд": 4418,
      "▁состав": 4419,
      "▁церкви": 4420,
      "лки": 4421,
      "бод": 4422,
      "лии": 4423,
      "▁мест": 4424,
      "ЕП": 4425,
      "ско-": 4426,
      "▁част": 4427,
      "▁(Б": 4428,
      "1Ь": 4429,
      "▁опред": 4430,
      "юш": 4431,
      "▁aut": 4432,
      "▁kö": 4433,
      "ія.": 4434,
      "ский,": 4435,
      "риз": 4436,
      "куп": 4437,
      "▁ау": 4438,
      "ИЦ": 4439,
      "дко": 4440,
      "ula": 4441,
      "▁(а": 4442,
      "▁извест": 4443,
      "щий": 4444,
      "▁перед": 4445,
      "rn": 4446,
      "▁точ": 4447,
      "▁Чл.": 4448,
      "],": 4449,
      "we": 4450,
      "ая": 4451,
      "iam": 4452,
      "▁]е": 4453,
      "ср": 4454,
      "▁сооб": 4455,
      "▁худо": 4456,
      "ОВА": 4457,
      "▁\n\nНе": 4458,
      "лле": 4459,
      "▁зу": 4460,
      "▁Авг.": 4461,
      "▁\nму": 4462,
      "реп": 4463,
      "гег": 4464,
      "ЕС": 4465,
      "ОЙ": 4466,
      "из,": 4467,
      "оп.": 4468,
      "ф,": 4469,
      "▁способ": 4470,
      "▁\nры": 4471,
      "▁1917": 4472,
      "голь": 4473,
      "▁должны": 4474,
      "СТВ": 4475,
      "▁Фран": 4476,
      "ево": 4477,
      "рит": 4478,
      "▁будетъ": 4479,
      "гу,": 4480,
      "▁около": 4481,
      "▁собра": 4482,
      "Ьи": 4483,
      "▁мая": 4484,
      "▁Высо": 4485,
      "▁(д.": 4486,
      "за,": 4487,
      "▁(1957)": 4488,
      "par": 4489,
      "ГОР": 4490,
      "▁Чи": 4491,
      "▁кисло": 4492,
      "ец": 4493,
      "▁монасты": 4494,
      "▁м.л.": 4495,
      "ЯН": 4496,
      "▁Свя": 4497,
      "▁Кан": 4498,
      "ЕТР": 4499,
      "▁опу": 4500,
      "h.": 4501,
      "ез,": 4502,
      "so": 4503,
      "ыре": 4504,
      "овая": 4505,
      "▁\nпред": 4506,
      "ступи": 4507,
      "лой": 4508,
      "▁чего": 4509,
      "gen": 4510,
      "▁работ": 4511,
      "нем": 4512,
      "▁спи": 4513,
      "▁Воло": 4514,
      "▁\n\n\n.": 4515,
      ">.": 4516,
      "ёр": 4517,
      "дв": 4518,
      "▁уб": 4519,
      "▁существ": 4520,
      "лы,": 4521,
      "▁Для": 4522,
      "нЪ": 4523,
      "▁ата": 4524,
      "▁всегда": 4525,
      "дав": 4526,
      "ez": 4527,
      "ября": 4528,
      "aB": 4529,
      "шь.": 4530,
      "ателя": 4531,
      "шихъ": 4532,
      "опа": 4533,
      "▁Что": 4534,
      "▁по¬": 4535,
      "шш": 4536,
      "00;": 4537,
      "▁работа": 4538,
      "▁that": 4539,
      "урна": 4540,
      "▁кап": 4541,
      "▁54": 4542,
      "▁которая": 4543,
      "▁Андре": 4544,
      "^1": 4545,
      "лаг": 4546,
      "unt": 4547,
      "!!": 4548,
      "▁gro": 4549,
      "fe": 4550,
      "ение,": 4551,
      "▁\n\nг": 4552,
      "era": 4553,
      "▁bie": 4554,
      "ах": 4555,
      "ителей": 4556,
      "лб": 4557,
      "/,": 4558,
      "▁пара": 4559,
      "▁\nмен": 4560,
      "▁ХУ": 4561,
      "rop": 4562,
      "▁один": 4563,
      "ста,": 4564,
      "ды.": 4565,
      "зс": 4566,
      "00.": 4567,
      "Ве": 4568,
      "▁long": 4569,
      "рок": 4570,
      "ломъ": 4571,
      "евра": 4572,
      "шие": 4573,
      "▁том": 4574,
      "▁отда": 4575,
      "i'": 4576,
      "▁соответ": 4577,
      "ір": 4578,
      "ложи": 4579,
      "лад": 4580,
      "▁истори": 4581,
      "жива": 4582,
      "довъ": 4583,
      "еръ": 4584,
      "жествен": 4585,
      "▁\n\n20": 4586,
      "▁\nдля": 4587,
      "▁нем": 4588,
      "▁ео": 4589,
      "▁ія": 4590,
      "▁скоро": 4591,
      "▁d.": 4592,
      "варя": 4593,
      "▁которое": 4594,
      "4)": 4595,
      ";.": 4596,
      "вле": 4597,
      "АШ": 4598,
      "▁наблю": 4599,
      "нять": 4600,
      "▁принад": 4601,
      "▁lar": 4602,
      "л^": 4603,
      "ре,": 4604,
      "111": 4605,
      "▁\n\n\nЛ": 4606,
      "нихъ": 4607,
      "iiii": 4608,
      "HM": 4609,
      "▁\n\n\nЧ": 4610,
      "суд.": 4611,
      "ителя": 4612,
      "u,": 4613,
      "▁Губ": 4614,
      "цес": 4615,
      "РУ": 4616,
      "▁МИХ": 4617,
      "▁bas": 4618,
      "▁Нов": 4619,
      "ской,": 4620,
      "▁резу": 4621,
      "▁борь": 4622,
      "▁смо": 4623,
      "▁вода": 4624,
      "ату": 4625,
      "▁\n=": 4626,
      "▁192": 4627,
      "▁пой": 4628,
      "▁уси": 4629,
      "▁золо": 4630,
      "ан.": 4631,
      "ятся": 4632,
      "фі": 4633,
      "▁98.": 4634,
      "▁bet": 4635,
      "▁Лит.:": 4636,
      "▁участ": 4637,
      "гіе": 4638,
      "с^": 4639,
      "▁мой": 4640,
      "нуты": 4641,
      "гар": 4642,
      "А-": 4643,
      "ша,": 4644,
      "лить": 4645,
      "▁не-": 4646,
      "ностью": 4647,
      "гля": 4648,
      "чей": 4649,
      "▁иа": 4650,
      "ло.": 4651,
      "▁\n18": 4652,
      "▁C.": 4653,
      "▁\n`": 4654,
      "▁186": 4655,
      "de": 4656,
      "лина": 4657,
      "▁показа": 4658,
      "ry": 4659,
      "Ьеп": 4660,
      "▁Сте": 4661,
      "нп": 4662,
      "ОВЪ": 4663,
      "▁Фа": 4664,
      "дово": 4665,
      "снов": 4666,
      "▁боя": 4667,
      "щу": 4668,
      "▁Гу": 4669,
      "▁выпол": 4670,
      "нер": 4671,
      "▁ид": 4672,
      "ап.": 4673,
      "ЕЛЬ": 4674,
      "▁str": 4675,
      "▁ЦК": 4676,
      "▁марта": 4677,
      "мЬ": 4678,
      "шед": 4679,
      "ея": 4680,
      "▁Іі": 4681,
      "▁\nтель": 4682,
      "▁si": 4683,
      "]а": 4684,
      "▁ней": 4685,
      "▁\n\n\n10": 4686,
      "кими": 4687,
      "ле,": 4688,
      "▁\n<": 4689,
      "▁Фи": 4690,
      "вших": 4691,
      "ina": 4692,
      "ОЗ": 4693,
      "▁пле": 4694,
      "чев": 4695,
      "▁испол": 4696,
      "eM": 4697,
      "▁указа": 4698,
      "▁r.": 4699,
      "▁\n\\": 4700,
      "ихъ": 4701,
      "enc": 4702,
      "▁ФЕД": 4703,
      "чение": 4704,
      "▁59": 4705,
      "▁НИКОЛ": 4706,
      "АХ": 4707,
      "ana": 4708,
      "att": 4709,
      "ер.": 4710,
      "ür": 4711,
      "▁ma": 4712,
      "▁употреб": 4713,
      "част": 4714,
      "▁вЬ": 4715,
      "▁пока": 4716,
      "ик": 4717,
      "▁вол": 4718,
      "1$": 4719,
      "ливо": 4720,
      "лья": 4721,
      "ющей": 4722,
      "хі": 4723,
      "Ые": 4724,
      "▁\n\n\nа": 4725,
      "▁Прав": 4726,
      "▁q": 4727,
      "HB": 4728,
      "▁осу": 4729,
      "▁переда": 4730,
      "▁npo": 4731,
      "▁An": 4732,
      "▁gen": 4733,
      "ю-": 4734,
      "щения": 4735,
      "чной": 4736,
      "рить": 4737,
      "ius": 4738,
      "ен,": 4739,
      "▁раст": 4740,
      "▁Дмит": 4741,
      "▁Мир.": 4742,
      "УЛ": 4743,
      "Во": 4744,
      "▁форму": 4745,
      "▁количе": 4746,
      "мена": 4747,
      "ють": 4748,
      "▁\nной": 4749,
      "▁11.": 4750,
      "мир": 4751,
      "датель": 4752,
      "III": 4753,
      "низ": 4754,
      "по-": 4755,
      "|.": 4756,
      "▁ит": 4757,
      "▁СП": 4758,
      "▁теб": 4759,
      "▁alq": 4760,
      "▁теперь": 4761,
      "▁ben": 4762,
      "▁началь": 4763,
      "ps": 4764,
      "▁подоб": 4765,
      "ича": 4766,
      "ной,": 4767,
      "▁60-": 4768,
      "▁еже": 4769,
      "ific": 4770,
      "апз": 4771,
      "▁\n\nКа": 4772,
      "ли-": 4773,
      "▁уве": 4774,
      "▁Bo": 4775,
      "гё": 4776,
      "пет": 4777,
      "ііо": 4778,
      "▁^^": 4779,
      "▁вне": 4780,
      "стр": 4781,
      "П(": 4782,
      "▁две": 4783,
      "CTB": 4784,
      "▁рѣ": 4785,
      "▁широ": 4786,
      "aro": 4787,
      "мі": 4788,
      "61)": 4789,
      "▁Пси.": 4790,
      "роз": 4791,
      "▁соглас": 4792,
      "дователь": 4793,
      "ИП": 4794,
      "▁относ": 4795,
      "▁\nля": 4796,
      "▁\nжи": 4797,
      "▁\n\nт": 4798,
      "▁пат": 4799,
      "▁памя": 4800,
      "',": 4801,
      "раго": 4802,
      "▁den": 4803,
      "éd": 4804,
      "▁ради": 4805,
      "▁ниж": 4806,
      "▁распро": 4807,
      "▁пп": 4808,
      "▁56": 4809,
      "яви": 4810,
      "▁\n\n\n17": 4811,
      "▁Москов": 4812,
      "▁\nту": 4813,
      "фер": 4814,
      "ЕЕВ": 4815,
      "▁пан": 4816,
      "▁89.": 4817,
      "ль.": 4818,
      "вича": 4819,
      "во-": 4820,
      "▁гар": 4821,
      "▁\nМо": 4822,
      "Го": 4823,
      "іі,": 4824,
      "▁изобра": 4825,
      "ці": 4826,
      "рет": 4827,
      "▁степ": 4828,
      "▁дея": 4829,
      "І.": 4830,
      "iel": 4831,
      "▁действи": 4832,
      "кру": 4833,
      "те.": 4834,
      "нск.": 4835,
      "вы,": 4836,
      "ке,": 4837,
      "ха,": 4838,
      "▁зам": 4839,
      "▁195": 4840,
      "▁Крас": 4841,
      "▁организа": 4842,
      "▁tra": 4843,
      "О-": 4844,
      "лс": 4845,
      "▁\nис": 4846,
      "▁год": 4847,
      "1еп": 4848,
      "▁903.": 4849,
      "§о": 4850,
      "▁Мщ.": 4851,
      "лий": 4852,
      "ient": 4853,
      "▁ян": 4854,
      "▁\n\n\n‚": 4855,
      "▁Так": 4856,
      "чива": 4857,
      "pt": 4858,
      "ницы": 4859,
      "п^": 4860,
      "▁уз": 4861,
      "ством": 4862,
      "▁поме": 4863,
      "12.": 4864,
      "▁53": 4865,
      "ст-": 4866,
      "▁av": 4867,
      "▁даль": 4868,
      "ИНЪ,": 4869,
      "ісі": 4870,
      "егз": 4871,
      "▁вме": 4872,
      "ры.": 4873,
      "деся": 4874,
      "▁\nre": 4875,
      "▁гер": 4876,
      "ance": 4877,
      "▁une": 4878,
      "іі.": 4879,
      "▁двух": 4880,
      "▁\nско": 4881,
      "▁az": 4882,
      "▁Бы": 4883,
      "УТ": 4884,
      "ао": 4885,
      "рк": 4886,
      "ár": 4887,
      "▁\n\n25": 4888,
      "-6": 4889,
      "юз": 4890,
      "▁6,": 4891,
      "▁зави": 4892,
      "▁себе": 4893,
      "Ш,": 4894,
      "▁ум": 4895,
      "▁Хо": 4896,
      "▁5,": 4897,
      "ИЗ": 4898,
      "▁Ьо": 4899,
      "АБ": 4900,
      "ем.": 4901,
      "▁разъ": 4902,
      "▁зі": 4903,
      "фт": 4904,
      "льзова": 4905,
      "ваго": 4906,
      "▁дерев": 4907,
      "▁ті": 4908,
      "рог": 4909,
      "ствомъ": 4910,
      "▁находи": 4911,
      "▁весьма": 4912,
      "▁Y": 4913,
      "▁встре": 4914,
      "ign": 4915,
      "▁сов.": 4916,
      "▁города": 4917,
      "▁сЬ": 4918,
      "▁Бере": 4919,
      "ции.": 4920,
      "нш": 4921,
      "▁(и": 4922,
      "▁мѣс.": 4923,
      "▁кры": 4924,
      "▁составля": 4925,
      "▁ото": 4926,
      "▁52": 4927,
      "/а": 4928,
      "aM": 4929,
      "▁духов": 4930,
      "▁оо": 4931,
      "ііоп": 4932,
      "▁Иванъ": 4933,
      "скаго,": 4934,
      "▁Мы": 4935,
      "▁\nНе": 4936,
      "гес": 4937,
      "лем": 4938,
      "▁nep": 4939,
      "вые": 4940,
      "▁\\ѵ": 4941,
      "▁особенно": 4942,
      "ния,": 4943,
      "▁нам": 4944,
      "▁іи": 4945,
      "не.": 4946,
      "Ъ-": 4947,
      "erb": 4948,
      "шение": 4949,
      "▁75": 4950,
      "▁жела": 4951,
      "▁\n\"": 4952,
      "▁уго": 4953,
      "не-": 4954,
      "▁i,": 4955,
      "зз": 4956,
      "▁слѣ": 4957,
      "▁\nжа": 4958,
      "▁исклю": 4959,
      "-9": 4960,
      "АНДР": 4961,
      "гт": 4962,
      "▁Сы": 4963,
      "land": 4964,
      "ХХ": 4965,
      "▁\n\n\n9": 4966,
      "aw": 4967,
      "▁Вер": 4968,
      "▁\n©": 4969,
      "▁кр.": 4970,
      "▁om": 4971,
      "ка-": 4972,
      "in.": 4973,
      "лень": 4974,
      "▁\nсти": 4975,
      "inc": 4976,
      "▁id": 4977,
      "Ъе": 4978,
      "ide": 4979,
      "▁усп": 4980,
      "▁оЁ": 4981,
      "▁мл": 4982,
      "ОВСК": 4983,
      "ora": 4984,
      "▁счита": 4985,
      "yc": 4986,
      "▁ль": 4987,
      "▁\nмы": 4988,
      "▁пово": 4989,
      "▁\nй": 4990,
      "pro": 4991,
      "▁\nМи": 4992,
      "▁край": 4993,
      "KO": 4994,
      "▁прямо": 4995,
      "▁уста": 4996,
      "обще": 4997,
      "▁которых": 4998,
      "▁прода": 4999,
      "15.": 5000,
      "▁см": 5001,
      "▁напря": 5002,
      "ропо": 5003,
      "▁ПЕТР": 5004,
      "▁Бог": 5005,
      "▁\n\nЖ": 5006,
      "▁1о": 5007,
      "▁\nВо": 5008,
      "іаі": 5009,
      "нитель": 5010,
      "▁этих": 5011,
      "еб": 5012,
      "▁\nлю": 5013,
      "писан": 5014,
      "▁ent": 5015,
      "коп": 5016,
      "lich": 5017,
      "▁cr": 5018,
      "^і": 5019,
      "фу": 5020,
      "alt": 5021,
      "k.": 5022,
      "▁верх": 5023,
      "1е,": 5024,
      "будь": 5025,
      "▁вет": 5026,
      ".—": 5027,
      "▁библи": 5028,
      "▁ind": 5029,
      "нс": 5030,
      "atis": 5031,
      "▁зву": 5032,
      "▁bi": 5033,
      "▁предпо": 5034,
      "▁жизни": 5035,
      "▁sc": 5036,
      "act": 5037,
      "▁57": 5038,
      "▁\nге": 5039,
      "▁sh": 5040,
      "▁G.": 5041,
      "тап": 5042,
      "лении": 5043,
      "Я.": 5044,
      "▁сна": 5045,
      "рыв": 5046,
      "луч": 5047,
      "▁\nных": 5048,
      "onc": 5049,
      "▁его,": 5050,
      "14.": 5051,
      "▁rec": 5052,
      "▁года.": 5053,
      "oi": 5054,
      "едо": 5055,
      "гот": 5056,
      "лей,": 5057,
      "▁pos": 5058,
      "▁fr": 5059,
      "ear": 5060,
      "▁бро": 5061,
      "▁\nСо": 5062,
      "▁кого": 5063,
      "▁\n\n\"": 5064,
      "▁эле": 5065,
      "▁inter": 5066,
      "▁Sea": 5067,
      "▁Пред": 5068,
      "вести": 5069,
      "▁соци": 5070,
      "ОБ": 5071,
      "сколь": 5072,
      "ток": 5073,
      "▁\n\nКо": 5074,
      "ерт": 5075,
      "▁кро": 5076,
      "хх": 5077,
      "▁Федо": 5078,
      "ів": 5079,
      "▁ut": 5080,
      "ри-": 5081,
      "мож": 5082,
      "ла-": 5083,
      "ma": 5084,
      "at,": 5085,
      "▁рггу": 5086,
      "▁88": 5087,
      "▁мнѣ": 5088,
      "сив": 5089,
      "mer": 5090,
      "вин": 5091,
      "▁\n\nL": 5092,
      "▁зав": 5093,
      "▁положен": 5094,
      "▁\nня": 5095,
      "uch": 5096,
      "ight": 5097,
      "▁\nthe": 5098,
      "клад": 5099,
      "▁полити": 5100,
      "шк": 5101,
      "мости": 5102,
      "▁работы": 5103,
      "циона": 5104,
      "ution": 5105,
      "дук": 5106,
      "▁пове": 5107,
      "шеп": 5108,
      "▁Mar": 5109,
      "der": 5110,
      "б-": 5111,
      "р^": 5112,
      "▁\nвоз": 5113,
      "▁(5": 5114,
      "▁кн.": 5115,
      "▁результ": 5116,
      "▁\n\n\n_": 5117,
      "▁\nзна": 5118,
      "err": 5119,
      "▁Гра": 5120,
      "▁собствен": 5121,
      "немъ": 5122,
      "▁\n\n5.": 5123,
      "пл": 5124,
      "▁дости": 5125,
      "что": 5126,
      "«.": 5127,
      "TM": 5128,
      "апи": 5129,
      "нія": 5130,
      "▁66": 5131,
      "▁\n\n,": 5132,
      "води": 5133,
      "▁Иван": 5134,
      "▁Sch": 5135,
      "▁[а": 5136,
      "▁Нояб.": 5137,
      "рго": 5138,
      "▁(1961)": 5139,
      "▁гд": 5140,
      "гя": 5141,
      "▁\n\n\nв": 5142,
      "льная": 5143,
      "▁круп": 5144,
      "▁нес": 5145,
      "et.": 5146,
      "▁\nтю": 5147,
      "пада": 5148,
      "лиз": 5149,
      "▁te": 5150,
      "▁Пол": 5151,
      "ент": 5152,
      "▁\n\n\n8": 5153,
      "▁этомъ": 5154,
      "▁тео": 5155,
      "vel": 5156,
      "▁bord": 5157,
      "▁должен": 5158,
      "ква": 5159,
      "▁торг": 5160,
      "▁4ег": 5161,
      "▁\n\n0": 5162,
      "▁дав": 5163,
      "▁10.": 5164,
      "топ": 5165,
      "▁бѣ": 5166,
      "tric": 5167,
      "gr": 5168,
      "kt": 5169,
      "▁ое": 5170,
      "▁\n\nе": 5171,
      "pec": 5172,
      "рый": 5173,
      "скими": 5174,
      "']": 5175,
      "▁XX": 5176,
      "ыт": 5177,
      "▁\nск": 5178,
      "▁\nша": 5179,
      "▁расс": 5180,
      "1у": 5181,
      "▁\nМа": 5182,
      "хода": 5183,
      "Ha": 5184,
      "ческаго": 5185,
      "▁клас": 5186,
      "▁Князь": 5187,
      "^с": 5188,
      "▁pas": 5189,
      "бро": 5190,
      "10,": 5191,
      "кар": 5192,
      "▁оть": 5193,
      "явля": 5194,
      "чата": 5195,
      "кор": 5196,
      "кахъ": 5197,
      "▁\n■": 5198,
      "▁эксп": 5199,
      "▁\n\n\n11": 5200,
      "▁дЪ": 5201,
      "ute": 5202,
      "▁114": 5203,
      "▁Сент.": 5204,
      "▁каче": 5205,
      "▁\n\n24": 5206,
      "▁вес": 5207,
      "▁доста": 5208,
      "▁65": 5209,
      "▁\n\nЦ": 5210,
      "▁член": 5211,
      "ленія": 5212,
      "стин": 5213,
      "дить": 5214,
      "нивер": 5215,
      "23.": 5216,
      "П(б": 5217,
      "én": 5218,
      "ИИ": 5219,
      "зю": 5220,
      "▁огра": 5221,
      "▁(А": 5222,
      "ражен": 5223,
      "▁Гор": 5224,
      "еге,": 5225,
      "lt": 5226,
      "хя": 5227,
      "▁Аг": 5228,
      "▁\n\nВы": 5229,
      "▁ижъ": 5230,
      "▁Гер": 5231,
      "За": 5232,
      "▁Казах": 5233,
      "роч": 5234,
      "▁P.": 5235,
      "T.": 5236,
      "Но": 5237,
      "катери": 5238,
      "щихъ": 5239,
      "ту,": 5240,
      "▁\nили": 5241,
      "▁предо": 5242,
      "yd": 5243,
      "ба,": 5244,
      "▁важ": 5245,
      "кров": 5246,
      "нЬ": 5247,
      "гет": 5248,
      "▁фак": 5249,
      "▁Ar": 5250,
      "▁можетъ": 5251,
      "▁содержа": 5252,
      "▁cons": 5253,
      "1я,": 5254,
      "▁Мая": 5255,
      "ым": 5256,
      "▁старо": 5257,
      "ОЕ": 5258,
      "▁ü": 5259,
      "стри": 5260,
      "смо": 5261,
      "raph": 5262,
      "горь": 5263,
      "льного": 5264,
      "ёе": 5265,
      "ющее": 5266,
      "▁коп": 5267,
      "▁inf": 5268,
      "17.": 5269,
      "-в": 5270,
      "▁oc": 5271,
      "▁надъ": 5272,
      "▁место": 5273,
      "/912": 5274,
      "▁суще": 5275,
      "деп": 5276,
      "ás": 5277,
      "▁Алд": 5278,
      "▁pre": 5279,
      "bre": 5280,
      "yr": 5281,
      "▁послѣ": 5282,
      "аг.": 5283,
      "жды": 5284,
      "ja": 5285,
      "рами": 5286,
      "▁вы-": 5287,
      "гой": 5288,
      "▁E.": 5289,
      "▁піе": 5290,
      "1в": 5291,
      "▁\n\nII": 5292,
      "▁(6": 5293,
      "ями": 5294,
      "По": 5295,
      "▁\nОт": 5296,
      "▁\n/": 5297,
      "▁сохра": 5298,
      "▁\nщ": 5299,
      "▁Алек": 5300,
      "▁all": 5301,
      "▁Ша": 5302,
      "22.": 5303,
      "▁поряд": 5304,
      "апі": 5305,
      "ze": 5306,
      "ляр": 5307,
      "лять": 5308,
      "able": 5309,
      "лович": 5310,
      "▁\nден": 5311,
      "шла": 5312,
      "▁права": 5313,
      "дат": 5314,
      "▁Соп": 5315,
      "▁\\у": 5316,
      "án": 5317,
      "кнов": 5318,
      "▁XI": 5319,
      "▁постанов": 5320,
      "▁стоя": 5321,
      "хв": 5322,
      "▁ph": 5323,
      "▁і.": 5324,
      "▁колхо": 5325,
      "▁пору": 5326,
      "▁помощ": 5327,
      "▁bot": 5328,
      "то.": 5329,
      "▁постоян": 5330,
      "Бо": 5331,
      "сть.": 5332,
      "шко": 5333,
      "ile": 5334,
      "рек": 5335,
      "as,": 5336,
      "▁Th": 5337,
      "▁соеди": 5338,
      "▁именно": 5339,
      "▁ии": 5340,
      "▁ника": 5341,
      "men": 5342,
      "▁Тур": 5343,
      "іеп": 5344,
      "▁дома": 5345,
      "▁обя": 5346,
      "шн": 5347,
      "▁треб": 5348,
      "▁\n\n©": 5349,
      "\"\"": 5350,
      "▁\n\n\nB": 5351,
      "▁\n\n\n«": 5352,
      "емь": 5353,
      "ack": 5354,
      "вори": 5355,
      "10.": 5356,
      "▁\n\n\nC": 5357,
      "▁пры": 5358,
      "-8": 5359,
      "▁подо": 5360,
      "usc": 5361,
      "▁\nл.": 5362,
      "▁дли": 5363,
      "▁Plin.": 5364,
      "▁уп": 5365,
      "ave": 5366,
      "газ": 5367,
      "граф": 5368,
      "▁\nW": 5369,
      "▁солд": 5370,
      "▁деся": 5371,
      "лѵ": 5372,
      "ih": 5373,
      "▁\n\nD": 5374,
      "РА": 5375,
      "ah": 5376,
      "▁исс": 5377,
      "u-": 5378,
      "icul": 5379,
      "▁тро": 5380,
      "▁госуда": 5381,
      "разд": 5382,
      "УК": 5383,
      "▁мета": 5384,
      "ешь": 5385,
      "▁множе": 5386,
      "▁пом": 5387,
      "▁Qu": 5388,
      "▁\n\n\n12": 5389,
      "УМ": 5390,
      "one": 5391,
      "▁1881": 5392,
      "▁(Т": 5393,
      "▁82": 5394,
      "въ,": 5395,
      "гй": 5396,
      "вода": 5397,
      "ali": 5398,
      "les": 5399,
      "▁сѣ": 5400,
      "▁Гре": 5401,
      "um.": 5402,
      "пар": 5403,
      "°),": 5404,
      "ска,": 5405,
      "цк": 5406,
      "11,": 5407,
      "Ь-": 5408,
      "▁обрат": 5409,
      "|1": 5410,
      "▁gl": 5411,
      "▁\n\n\n^": 5412,
      "▁En": 5413,
      "чный": 5414,
      "▁npe": 5415,
      "знача": 5416,
      "ти.": 5417,
      "▁насъ": 5418,
      "▁-а": 5419,
      "on.": 5420,
      "▁\nслу": 5421,
      "▁\nкоторы": 5422,
      "lic": 5423,
      "▁\n\n\nS": 5424,
      "▁муж": 5425,
      "же,": 5426,
      "▁64": 5427,
      "ственной": 5428,
      "▁КП": 5429,
      "▁маг": 5430,
      "▁és": 5431,
      "▁других": 5432,
      "▁Импера": 5433,
      "▁свет": 5434,
      "пй": 5435,
      "пред": 5436,
      "▁\n•": 5437,
      "▁года,": 5438,
      "/і": 5439,
      "▁\nный": 5440,
      "прави": 5441,
      "▁mt": 5442,
      "ОВ,": 5443,
      "15,": 5444,
      "▁(I": 5445,
      "іа,": 5446,
      "ное,": 5447,
      "▁(въ": 5448,
      "▁рукопис": 5449,
      "агі": 5450,
      "▁\n\nСо": 5451,
      "ions": 5452,
      "х-": 5453,
      "▁тет": 5454,
      "▁каз": 5455,
      "▁\n\n_": 5456,
      "лые": 5457,
      "▁свер": 5458,
      "▁этот": 5459,
      "▁четыре": 5460,
      "▁‹": 5461,
      "▁мое": 5462,
      "-й": 5463,
      "ііз": 5464,
      "▁второ": 5465,
      "печат": 5466,
      "ome": 5467,
      "бур": 5468,
      "нет": 5469,
      "▁своих": 5470,
      "ИД": 5471,
      "▁S.": 5472,
      "▁тебя": 5473,
      "▁\n\nВо": 5474,
      "лити": 5475,
      "▁сель": 5476,
      "▁ос.": 5477,
      "▁возду": 5478,
      "исе": 5479,
      "▁нов": 5480,
      "леніе": 5481,
      "▁искус": 5482,
      "ЕЗ": 5483,
      "▁col": 5484,
      "T,": 5485,
      "▁созна": 5486,
      "▁чув": 5487,
      "-11": 5488,
      "ЕБ": 5489,
      "▁\nпу": 5490,
      "▁всей": 5491,
      "▁люди": 5492,
      "!а": 5493,
      "▁учени": 5494,
      "стьян": 5495,
      "ous": 5496,
      "▁ибо": 5497,
      "▁мень": 5498,
      "▁tro": 5499,
      "▁T.": 5500,
      "▁\nба": 5501,
      "рива": 5502,
      "дак": 5503,
      "зин": 5504,
      "▁\nТа": 5505,
      "▁(S": 5506,
      "▁голо": 5507,
      "gy": 5508,
      "Іа": 5509,
      "▁смы": 5510,
      "ie.": 5511,
      "▁\n\n22": 5512,
      "ствует": 5513,
      "ство.": 5514,
      "▁ge": 5515,
      "бѣ": 5516,
      "атъ": 5517,
      "чаты": 5518,
      "ря,": 5519,
      "▁\nгу": 5520,
      "▁аі": 5521,
      "▁Ло": 5522,
      "▁Іе": 5523,
      "▁\nРа": 5524,
      "ены": 5525,
      "▁\n\n\nс": 5526,
      "▁85": 5527,
      "▁поня": 5528,
      "вн": 5529,
      "тар": 5530,
      "anc": 5531,
      "▁Ди": 5532,
      "▁среди": 5533,
      "▁\n\n§": 5534,
      "▁\nПри": 5535,
      "▁\n\n\n'": 5536,
      "лиза": 5537,
      "ence": 5538,
      "▁Петров": 5539,
      "згу": 5540,
      "▁водо": 5541,
      "▁\n\n23": 5542,
      "▁\nжен": 5543,
      "▁тор": 5544,
      "}.": 5545,
      "бр": 5546,
      "лать": 5547,
      "idae": 5548,
      "icht": 5549,
      "есо": 5550,
      "▁\n13": 5551,
      "ns": 5552,
      "роят": 5553,
      "▁мини": 5554,
      "док": 5555,
      "▁обл.": 5556,
      "▁прош": 5557,
      "іи.": 5558,
      "▁\n\nя": 5559,
      "▁\nю": 5560,
      "▁Soc": 5561,
      "сад": 5562,
      "▁Петро": 5563,
      "▁основан": 5564,
      "пг": 5565,
      "след": 5566,
      "▁мор": 5567,
      "▁фо": 5568,
      "▁Ак": 5569,
      "▁Cic,": 5570,
      "▁неу": 5571,
      "▁\n\n\n1.": 5572,
      "em,": 5573,
      "Ва": 5574,
      "ске": 5575,
      "▁Кур": 5576,
      "леб": 5577,
      "евер": 5578,
      "кин": 5579,
      "▁мн.": 5580,
      "ждения": 5581,
      "▁князь": 5582,
      "▁1;": 5583,
      "казан": 5584,
      "▁68": 5585,
      "▁сен": 5586,
      "ри,": 5587,
      "раг": 5588,
      "ors": 5589,
      "рина": 5590,
      "ложе": 5591,
      "▁(О": 5592,
      "ность,": 5593,
      "aud": 5594,
      "▁\n\n\nD": 5595,
      "ary": 5596,
      "▁хозяй": 5597,
      "▁йе": 5598,
      "сд": 5599,
      "чных": 5600,
      "▁написа": 5601,
      "▁«О": 5602,
      "▁Петер": 5603,
      "ше.": 5604,
      "▁op": 5605,
      "▁14.": 5606,
      "1И": 5607,
      "▁РС": 5608,
      "ета,": 5609,
      "▁Государ": 5610,
      "▁ФЕДОР": 5611,
      "▁12.": 5612,
      "▁надо": 5613,
      "▁\n\n\nт": 5614,
      "itat": 5615,
      "ровъ,": 5616,
      "▁тат": 5617,
      "па.": 5618,
      "▁выда": 5619,
      "ВД": 5620,
      "лава": 5621,
      "▁Кр": 5622,
      "▁земли": 5623,
      "▁Они": 5624,
      "▁АЛЕКСАНДР": 5625,
      "под": 5626,
      "піе": 5627,
      "▁\nk": 5628,
      "ович": 5629,
      "▁sa": 5630,
      "лю,": 5631,
      "▁куп": 5632,
      "егу": 5633,
      "▁том,": 5634,
      "▁Ал": 5635,
      "▁четвер": 5636,
      "ère": 5637,
      "лся,": 5638,
      "iis": 5639,
      "іб": 5640,
      "▁ѵ.": 5641,
      "▁\nния": 5642,
      "ono": 5643,
      "дие": 5644,
      "▁τ": 5645,
      "▁qui": 5646,
      "читель": 5647,
      "чит": 5648,
      "фес": 5649,
      "▁рода": 5650,
      "▁губ.": 5651,
      "шим": 5652,
      "18.": 5653,
      "сіа": 5654,
      "бир": 5655,
      "-^": 5656,
      "▁(на": 5657,
      "H.": 5658,
      "▁аЬ": 5659,
      "ставить": 5660,
      "▁кула": 5661,
      "йт": 5662,
      "▁тыс.": 5663,
      "Ба": 5664,
      "рож": 5665,
      "▁(т": 5666,
      "az": 5667,
      "▁свѣ": 5668,
      "▁\n\n\n18": 5669,
      "▁Кре": 5670,
      "▁близ": 5671,
      "ния.": 5672,
      "йд": 5673,
      "чая": 5674,
      "Іо": 5675,
      "▁фе": 5676,
      "▁9,": 5677,
      "мент": 5678,
      "тий": 5679,
      "▁199": 5680,
      "▁неве": 5681,
      "гас": 5682,
      "ду.": 5683,
      "▁ез": 5684,
      "нес": 5685,
      "▁сг": 5686,
      "“,": 5687,
      "▁Вол": 5688,
      "▁rem": 5689,
      "▁человек": 5690,
      "▁СН": 5691,
      "13.": 5692,
      "▁(см.:": 5693,
      "▁\nс.": 5694,
      "▁связи": 5695,
      "lo": 5696,
      "▁гм.": 5697,
      "уд": 5698,
      "рабо": 5699,
      "ности.": 5700,
      "▁совет": 5701,
      "!и": 5702,
      "нин": 5703,
      "ну.": 5704,
      "шта": 5705,
      "▁ѵѵ": 5706,
      "▁сдела": 5707,
      "ОСТ": 5708,
      "▁\n\nОт": 5709,
      "кой,": 5710,
      "▁Se": 5711,
      "ЛЬ": 5712,
      "нци": 5713,
      "▁(20": 5714,
      "▁сами": 5715,
      "her": 5716,
      "▁Зе": 5717,
      "▁171": 5718,
      "▁Ca": 5719,
      "iter": 5720,
      "▁длин": 5721,
      "▁ins": 5722,
      "ept": 5723,
      "Пе": 5724,
      "имо": 5725,
      "▁118": 5726,
      "▁сум": 5727,
      "ныхъ,": 5728,
      "печ.": 5729,
      "or,": 5730,
      "yt": 5731,
      "▁\n\n\n13": 5732,
      "лот": 5733,
      "▁священ": 5734,
      "▁СВ": 5735,
      "мед": 5736,
      "▁Вас.": 5737,
      "▁примен": 5738,
      "рах": 5739,
      "▁отправ": 5740,
      "erf": 5741,
      "1емъ": 5742,
      "пь": 5743,
      "▁water": 5744,
      "▁R.": 5745,
      "ч,": 5746,
      "▁коми": 5747,
      "’;": 5748,
      "▁р.,": 5749,
      "АП": 5750,
      "грам": 5751,
      "▁уо": 5752,
      "▁Одна": 5753,
      "ще,": 5754,
      "▁ou": 5755,
      "▁\n16": 5756,
      "^г": 5757,
      "густа": 5758,
      "▁поле": 5759,
      "▁несколько": 5760,
      "▁такой": 5761,
      "▁\n\n29": 5762,
      "▁окт.": 5763,
      "▁t.": 5764,
      "▁184": 5765,
      "▁Маг": 5766,
      "▁\n\n\nФ": 5767,
      "▁доку": 5768,
      "р.:": 5769,
      "ram": 5770,
      "чные": 5771,
      "▁ао": 5772,
      "ва-": 5773,
      "сгі": 5774,
      "▁образова": 5775,
      "▁1918": 5776,
      "▁генера": 5777,
      "▁путе": 5778,
      "іпі": 5779,
      "ето": 5780,
      "cK": 5781,
      "шЪ": 5782,
      "▁Смо": 5783,
      "S,": 5784,
      "▁\nха": 5785,
      "езд": 5786,
      "ures": 5787,
      "шв": 5788,
      "тая": 5789,
      "▁(И": 5790,
      "ій.": 5791,
      "▁Лени": 5792,
      "▁Bul": 5793,
      "▁иногда": 5794,
      "▁оз": 5795,
      "▁образо": 5796,
      "▁характер": 5797,
      "▁\nны": 5798,
      "mi": 5799,
      "▁процес": 5800,
      "▁\n\nТа": 5801,
      "▁просто": 5802,
      "един": 5803,
      "▁\n\n6.": 5804,
      "▁посе": 5805,
      "▁noc": 5806,
      "▁Совет": 5807,
      "▁\n17": 5808,
      "кабря": 5809,
      "▁Ком": 5810,
      "▁практи": 5811,
      "Я,": 5812,
      "▁Кра": 5813,
      "▁сег": 5814,
      "до-": 5815,
      "▁Un": 5816,
      "▁«В": 5817,
      "▁учре": 5818,
      "ствие": 5819,
      "eB": 5820,
      "чн": 5821,
      "іоп": 5822,
      "сій": 5823,
      "мор": 5824,
      "16.": 5825,
      "▁95": 5826,
      "▁форма": 5827,
      "▁позво": 5828,
      "▁dif": 5829,
      "еха": 5830,
      "▁дв": 5831,
      "▁насе": 5832,
      "4;": 5833,
      "гоп": 5834,
      "град": 5835,
      "тый": 5836,
      "лег": 5837,
      "io.": 5838,
      "ё.": 5839,
      "лая": 5840,
      "▁Ги": 5841,
      "▁tem": 5842,
      "▁III": 5843,
      "во,": 5844,
      "▁\n\n\n\n\n\n\n\n": 5845,
      "стоятель": 5846,
      "іет": 5847,
      "яхъ": 5848,
      "ere,": 5849,
      "▁vol": 5850,
      "фек": 5851,
      "u.": 5852,
      "чаль": 5853,
      "зво": 5854,
      "ét": 5855,
      ":.": 5856,
      "si": 5857,
      "изи": 5858,
      "ители": 5859,
      "хЬ": 5860,
      "▁тыся": 5861,
      "спубли": 5862,
      "НЕ": 5863,
      "Ы.": 5864,
      "▁(1)": 5865,
      "it.": 5866,
      "-12": 5867,
      "▁\n,": 5868,
      "У,": 5869,
      "пля": 5870,
      "рак": 5871,
      "▁(во": 5872,
      "ati": 5873,
      "нав": 5874,
      "▁(Д": 5875,
      "Й.": 5876,
      "jie": 5877,
      "гру": 5878,
      "▁слы": 5879,
      "▁\nИсп.": 5880,
      "дро": 5881,
      "ез.": 5882,
      "▁\nС.": 5883,
      "▁D.": 5884,
      "1ег": 5885,
      "▁сд": 5886,
      "ший": 5887,
      "▁здесь": 5888,
      "ae,": 5889,
      "▁поверх": 5890,
      "▁лоша": 5891,
      "еме": 5892,
      "хо-": 5893,
      "мы,": 5894,
      "чены": 5895,
      "▁can": 5896,
      "CC": 5897,
      "▁объяс": 5898,
      "▁яс": 5899,
      "▁подда": 5900,
      "лод": 5901,
      "ІЙ,": 5902,
      "кро": 5903,
      "леж": 5904,
      "▁110": 5905,
      "ём": 5906,
      "▁аіі": 5907,
      "▁стре": 5908,
      "▁принима": 5909,
      "▁фран": 5910,
      "▁позд": 5911,
      "▁преж": 5912,
      "▁от-": 5913,
      "кь": 5914,
      "▁\n\n\n14": 5915,
      "▁учеб": 5916,
      "іл": 5917,
      "ров,": 5918,
      "oH": 5919,
      "▁8,": 5920,
      "КА": 5921,
      "ала": 5922,
      "вую": 5923,
      "лях": 5924,
      "▁\nпра": 5925,
      "▁\n\n27": 5926,
      "тки": 5927,
      "▁86": 5928,
      "eue": 5929,
      "▁\n\nа)": 5930,
      "▁совершенно": 5931,
      "▁какой": 5932,
      "тю": 5933,
      "▁min": 5934,
      "▁Pl": 5935,
      "▁\n\n\n19": 5936,
      "тами": 5937,
      "▁запа": 5938,
      "▁занима": 5939,
      "▁мои": 5940,
      "кп": 5941,
      "но:": 5942,
      "ales": 5943,
      "▁Іюня": 5944,
      "▁внутрен": 5945,
      "▁наз": 5946,
      "an,": 5947,
      "▁Бер": 5948,
      "°,": 5949,
      "▁гаплоти": 5950,
      "▁ер": 5951,
      "▁\n\nп": 5952,
      "▁прежде": 5953,
      "▁77": 5954,
      "ime": 5955,
      "ческихъ": 5956,
      "▁наш": 5957,
      "▁a)": 5958,
      "ового": 5959,
      "▁fin": 5960,
      "1з": 5961,
      "▁08.": 5962,
      "▁fe": 5963,
      "▁Горо": 5964,
      "▁всЬ": 5965,
      "тон": 5966,
      "▁form": 5967,
      "▁электро": 5968,
      "▁жена": 5969,
      "▁необходимо": 5970,
      "-10": 5971,
      "▁Br": 5972,
      "▁которыхъ": 5973,
      "▁plum": 5974,
      "▁буде": 5975,
      "▁reg": 5976,
      "▁\n\n\n\n\n\n\n\n\n\n\n\n\n\n\n\n\n\n\n": 5977,
      "▁Re": 5978,
      "Jie": 5979,
      "я;": 5980,
      "▁тс": 5981,
      "ents": 5982,
      "▁67": 5983,
      "Ша": 5984,
      "▁13.": 5985,
      "рм": 5986,
      "йи": 5987,
      "▁поро": 5988,
      "ру,": 5989,
      "▁прекра": 5990,
      "c,": 5991,
      "▁\n\n$": 5992,
      "нте": 5993,
      "га-": 5994,
      "▁\n\n\nг": 5995,
      "лича": 5996,
      "iy": 5997,
      "ano": 5998,
      "вший": 5999,
      "пут": 6000,
      "Га": 6001,
      "хар": 6002,
      "нок": 6003,
      "няется": 6004,
      "деб": 6005,
      "▁приговоренъ": 6006,
      "▁всю": 6007,
      "▁\nг.": 6008,
      "цѣ": 6009,
      "ріі": 6010,
      "▁185": 6011,
      "▁Ap": 6012,
      "Ьг": 6013,
      "тое": 6014,
      "▁начина": 6015,
      "▁Liv.": 6016,
      "▁измен": 6017,
      "ты.": 6018,
      "мер,": 6019,
      "▁\n14": 6020,
      "кам": 6021,
      "▁ед": 6022,
      "▁\n\nПро": 6023,
      "лян": 6024,
      "мар": 6025,
      "1»": 6026,
      "сф": 6027,
      "ги.": 6028,
      "ém": 6029,
      "ОЖ": 6030,
      "▁7,": 6031,
      "0-": 6032,
      "тия": 6033,
      "'Б": 6034,
      "дра": 6035,
      "▁ня": 6036,
      "▁69": 6037,
      "▁теле": 6038,
      "▁авто": 6039,
      "пит": 6040,
      "▁193": 6041,
      "zy": 6042,
      "▁63": 6043,
      "ka": 6044,
      "ніе": 6045,
      "*)": 6046,
      "дели": 6047,
      "▁некоторы": 6048,
      "▁CT": 6049,
      "УД": 6050,
      "▁получа": 6051,
      "▁Михаи": 6052,
      "Ф.": 6053,
      "гом": 6054,
      "ör": 6055,
      "-К": 6056,
      "▁руковод": 6057,
      "против": 6058,
      "▁спа": 6059,
      "▁сам": 6060,
      "перату": 6061,
      "▁15.": 6062,
      "ely": 6063,
      "▁16.": 6064,
      "е!": 6065,
      "▁От.": 6066,
      "еса": 6067,
      "▁мною": 6068,
      "тат": 6069,
      "▁17.": 6070,
      "▁кан": 6071,
      "rad": 6072,
      "▁тоже": 6073,
      "▁sol": 6074,
      "▁кров": 6075,
      "овое": 6076,
      "держа": 6077,
      "▁уд": 6078,
      "стр.": 6079,
      "trib": 6080,
      "за.": 6081,
      "евна": 6082,
      "дую": 6083,
      "лш": 6084,
      "^^^": 6085,
      "'b": 6086,
      "твер": 6087,
      "евр.": 6088,
      "▁//": 6089,
      "сом": 6090,
      "мышлен": 6091,
      "кн": 6092,
      "ведения": 6093,
      "пш": 6094,
      "▁быва": 6095,
      "лж": 6096,
      "’,": 6097,
      "▁\nпер": 6098,
      "▁Вилен": 6099,
      "g,": 6100,
      "рад": 6101,
      "▁acc": 6102,
      "▁общ": 6103,
      "се,": 6104,
      "▁\nков": 6105,
      "ныхь": 6106,
      "бав": 6107,
      "▁\nВы": 6108,
      "▁(СР": 6109,
      "▁мето": 6110,
      "▁«М": 6111,
      "▁196": 6112,
      "АВЛ": 6113,
      "▁иде": 6114,
      "бора": 6115,
      "▁pres": 6116,
      "kh": 6117,
      "▁\n\n\n15": 6118,
      "▁Be": 6119,
      "тит": 6120,
      "oa": 6121,
      "▁\n&": 6122,
      "доль": 6123,
      "▁\nну": 6124,
      "elle": 6125,
      "▁\n20": 6126,
      "УБ": 6127,
      "ко.": 6128,
      "▁нак.,": 6129,
      "тья": 6130,
      "▁cont": 6131,
      "▁случае": 6132,
      "лъ:": 6133,
      "16,": 6134,
      "▁2а": 6135,
      "▁дня.": 6136,
      "▁Высочай": 6137,
      "▁скло": 6138,
      "тЬ": 6139,
      "▁\n\n\n=": 6140,
      "▁Чу": 6141,
      "▁\nМ.": 6142,
      "на-": 6143,
      "▁журна": 6144,
      "И-": 6145,
      "▁\nлен": 6146,
      "▁наза": 6147,
      "▁sal": 6148,
      "▁самъ": 6149,
      "▁оч": 6150,
      "▁sont": 6151,
      "Ma": 6152,
      "—18": 6153,
      "▁\nби": 6154,
      "▁cou": 6155,
      "▁\n\nV": 6156,
      "тё": 6157,
      "▁ил": 6158,
      "▁\nской": 6159,
      "тѣ": 6160,
      "реди": 6161,
      "▁стол": 6162,
      "oii": 6163,
      "^к": 6164,
      "▁this": 6165,
      "вс": 6166,
      "мест": 6167,
      "цер": 6168,
      "▁сек": 6169,
      "▁возвра": 6170,
      "▁ори": 6171,
      "ров.": 6172,
      "▁\nРо": 6173,
      "уг": 6174,
      "▁/.": 6175,
      "▁\n\n30": 6176,
      "undum": 6177,
      "чества": 6178,
      "▁ИМ": 6179,
      "ровъ.": 6180,
      "▁car": 6181,
      "іеі": 6182,
      "▁ноября": 6183,
      "ОО": 6184,
      "▁Бож": 6185,
      "▁\n15": 6186,
      "▁\nные": 6187,
      "▁zu": 6188,
      "AH": 6189,
      "▁pe": 6190,
      "bt": 6191,
      "▁сб": 6192,
      "/о": 6193,
      "▁тое": 6194,
      "▁\nвер": 6195,
      "апа": 6196,
      "▁Комит": 6197,
      "▁noir": 6198,
      "жет": 6199,
      "▁87": 6200,
      "%,": 6201,
      "няго": 6202,
      "пё": 6203,
      "димо": 6204,
      "▁\nдру": 6205,
      "▁4ез": 6206,
      "▁деп": 6207,
      "%.": 6208,
      "лон": 6209,
      "▁\n12": 6210,
      "ымъ": 6211,
      "▁жени": 6212,
      "▁Зо": 6213,
      "M.": 6214,
      "ѣз": 6215,
      "гая": 6216,
      "▁fo": 6217,
      "▁ипЬ": 6218,
      "▁этому": 6219,
      "auf": 6220,
      "▁(Л": 6221,
      "▁еш": 6222,
      "по,": 6223,
      "Ыі": 6224,
      "▁«К": 6225,
      "▁i.": 6226,
      "ette": 6227,
      "▁Лит": 6228,
      "▁либо": 6229,
      "▁двухъ": 6230,
      "iat": 6231,
      "▁полови": 6232,
      "▁\nБо": 6233,
      "▁ag": 6234,
      "Ъ;": 6235,
      "▁62": 6236,
      "нш.": 6237,
      "▁97": 6238,
      "сіо": 6239,
      "▁\n\n28": 6240,
      "сса": 6241,
      "рам": 6242,
      "▁прим": 6243,
      "гае": 6244,
      "▁ce": 6245,
      "▁панъ": 6246,
      "▁там": 6247,
      "▁поля": 6248,
      "лов,": 6249,
      "▁равно": 6250,
      "▁\n»": 6251,
      "лами": 6252,
      "еси": 6253,
      "▁моя": 6254,
      "▁станов": 6255,
      "▁Ке": 6256,
      "▁скл.": 6257,
      "евраля": 6258,
      "раи": 6259,
      "1С": 6260,
      "▁\nкъ": 6261,
      "скъ": 6262,
      "ôt": 6263,
      "▁(І": 6264,
      "▁W.": 6265,
      "▁Екатери": 6266,
      "▁места": 6267,
      "ген": 6268,
      "▁\n\nпо": 6269,
      "струк": 6270,
      "▁июля": 6271,
      "▁ОБ": 6272,
      "sc": 6273,
      "мери": 6274,
      "▁черезъ": 6275,
      "▁сю": 6276,
      "▁89": 6277,
      "▁сама": 6278,
      "никовъ": 6279,
      "orn": 6280,
      "▁ход": 6281,
      "лиц": 6282,
      "▁\nof": 6283,
      "циаль": 6284,
      "▁особен": 6285,
      "▁Доб": 6286,
      "сред": 6287,
      "▁\n\nc": 6288,
      "jia": 6289,
      "▁лица": 6290,
      "ыя": 6291,
      "▁д.).": 6292,
      "Ы,": 6293,
      "IO": 6294,
      "▁прос": 6295,
      "ѵ.": 6296,
      "r,": 6297,
      "▁современ": 6298,
      "▁о,": 6299,
      "▁тамъ": 6300,
      "г.,": 6301,
      "шс": 6302,
      "▁Сл": 6303,
      "an.": 6304,
      "AT": 6305,
      "ule": 6306,
      "▁10,": 6307,
      ">,": 6308,
      "▁BO": 6309,
      "говор": 6310,
      "уи": 6311,
      "▁князя": 6312,
      "k,": 6313,
      "шую": 6314,
      "числен": 6315,
      "'к": 6316,
      "▁раз-": 6317,
      "нах": 6318,
      "ory": 6319,
      "Е-": 6320,
      "фег": 6321,
      "eng": 6322,
      "▁93": 6323,
      "▁l'": 6324,
      "▁Юрь": 6325,
      "iia": 6326,
      "ально": 6327,
      "нф": 6328,
      "▁Сто": 6329,
      "▁Соб": 6330,
      "вичъ": 6331,
      "ност": 6332,
      "▁уро": 6333,
      "▁98": 6334,
      "▁\nНо": 6335,
      "▁а4": 6336,
      "▁\nвсе": 6337,
      "▁вв": 6338,
      "еру": 6339,
      "▁1872.": 6340,
      "oph": 6341,
      "ной.": 6342,
      "▁\n\n+": 6343,
      "▁Онъ": 6344,
      "▁из-": 6345,
      "*-": 6346,
      "▁прил.": 6347,
      "«,": 6348,
      "ЯТ": 6349,
      "съ,": 6350,
      "▁двор": 6351,
      "гз": 6352,
      "▁осво": 6353,
      "HK": 6354,
      "соп": 6355,
      "мотря": 6356,
      "▁С,": 6357,
      "▁дъ": 6358,
      "▁\nзи": 6359,
      "▁наши": 6360,
      "е;": 6361,
      "▁Воз": 6362,
      "ваться": 6363,
      "целярш": 6364,
      "скй": 6365,
      "▁отнош": 6366,
      "uv": 6367,
      "когда": 6368,
      "▁серд": 6369,
      "▁тан": 6370,
      "▁84": 6371,
      "▁\nСа": 6372,
      "▁сь": 6373,
      "cTB": 6374,
      "несен": 6375,
      "▁\n\n33": 6376,
      "oz": 6377,
      "щение": 6378,
      "▁\nпи": 6379,
      "овых": 6380,
      "▁м.л.и.": 6381,
      "вшие": 6382,
      "▁игра": 6383,
      "йти": 6384,
      "▁\n\nE": 6385,
      "гиз": 6386,
      "▁\n\n\n16": 6387,
      "▁противо": 6388,
      "▁чрез": 6389,
      "▁области": 6390,
      "▁собою": 6391,
      "▁Тру": 6392,
      "новъ,": 6393,
      "▁родился": 6394,
      "▁Сла": 6395,
      "▁оі": 6396,
      "рид": 6397,
      "B.": 6398,
      "УП": 6399,
      "шан": 6400,
      "ыва": 6401,
      "▁Мих.": 6402,
      "▁уравн": 6403,
      "▁которого": 6404,
      "▁умень": 6405,
      "▁друг": 6406,
      "▁дф": 6407,
      "▁Ш.": 6408,
      "▁руки": 6409,
      "сЪ": 6410,
      "ныя,": 6411,
      "се.": 6412,
      "▁уч.,": 6413,
      "цов": 6414,
      "▁83": 6415,
      "▁\n\n2)": 6416,
      "▁ца": 6417,
      "▁\nde": 6418,
      "бле": 6419,
      "▁\nX": 6420,
      "кономи": 6421,
      "▁сме": 6422,
      "огит": 6423,
      "дел": 6424,
      "▁X.": 6425,
      "дств": 6426,
      "▁срав": 6427,
      "бин": 6428,
      "ox": 6429,
      "▁119": 6430,
      "▁bec": 6431,
      "▁чо": 6432,
      "▁напри": 6433,
      "рил": 6434,
      "▁передъ": 6435,
      "▁\nлов": 6436,
      "▁dem": 6437,
      "▁печат": 6438,
      "▁ответ": 6439,
      "кут": 6440,
      "▁comm": 6441,
      "ных,": 6442,
      "▁eine": 6443,
      "jt": 6444,
      "▁mag": 6445,
      "gh": 6446,
      "▁\n\nд": 6447,
      "AN": 6448,
      "^т": 6449,
      "пой": 6450,
      "▁хорошо": 6451,
      "щим": 6452,
      "▁\n\nN": 6453,
      "Со": 6454,
      "▁\n58": 6455,
      "▁бог": 6456,
      "-ли": 6457,
      "▁оче": 6458,
      "▁(2)": 6459,
      "▁АР": 6460,
      "веде": 6461,
      "▁Ас": 6462,
      "абри": 6463,
      "▁\n25": 6464,
      "▁вза": 6465,
      "▁райо": 6466,
      "ное.": 6467,
      "▁\n\n\nR": 6468,
      "▁Tr": 6469,
      "▁о!": 6470,
      "ствитель": 6471,
      "брь": 6472,
      "▁197": 6473,
      "▁\n\n>": 6474,
      "isc": 6475,
      "za": 6476,
      "Ни": 6477,
      "▁имеет": 6478,
      "▁Оте": 6479,
      "▁\nл.;": 6480,
      "рые": 6481,
      "|)": 6482,
      "▁\nЮ": 6483,
      "дель": 6484,
      "▁жизнь": 6485,
      "сей": 6486,
      "гель": 6487,
      "чем": 6488,
      "▁намъ": 6489,
      "▁pl.": 6490,
      "Г)": 6491,
      "▁e.": 6492,
      "ствии": 6493,
      "▁вообще": 6494,
      "▁силы": 6495,
      "▁своихъ": 6496,
      "чени": 6497,
      "▁тай": 6498,
      "▁экз.": 6499,
      "▁”": 6500,
      "rod": 6501,
      "емый": 6502,
      "ши.": 6503,
      "никъ,": 6504,
      "ческую": 6505,
      "\"'": 6506,
      "’а": 6507,
      "▁мет": 6508,
      "▁довольно": 6509,
      "ли:": 6510,
      "▁Исто": 6511,
      "1(": 6512,
      "▁АНДР": 6513,
      "▁пя": 6514,
      "are,": 6515,
      "Па": 6516,
      "раль": 6517,
      "▁господа": 6518,
      "▁\n\n\nу": 6519,
      "▁\nНи": 6520,
      "кв": 6521,
      "▁образу": 6522,
      "ib,": 6523,
      "▁\nВа": 6524,
      "лось,": 6525,
      "фъ": 6526,
      "▁\n1.": 6527,
      "▁\n\nO": 6528,
      "Х.": 6529,
      "клады": 6530,
      "▁Карте": 6531,
      "мии": 6532,
      "пара": 6533,
      "iae": 6534,
      "▁Как": 6535,
      "uii": 6536,
      "»...": 6537,
      "▁\n\n\n\n\n\n\n\n\n\n\n\n\n\n\n": 6538,
      "▁Ты": 6539,
      "ungen": 6540,
      "▁pet": 6541,
      "слѣ": 6542,
      "ܝܼ": 6543,
      "▁пап": 6544,
      "Ta": 6545,
      "▁причи": 6546,
      "▁\nДа": 6547,
      "▁низ": 6548,
      "▁Ярос": 6549,
      "▁оЬ": 6550,
      "▁\nГо": 6551,
      "▁постро": 6552,
      "мт": 6553,
      "сеп": 6554,
      "хт": 6555,
      "▁Мон": 6556,
      "▁науч": 6557,
      "▁Когда": 6558,
      "▁Фор": 6559,
      "яе": 6560,
      "▁\nного": 6561,
      "шг": 6562,
      "▁пост": 6563,
      "▁шё": 6564,
      "▁зло": 6565,
      "си,": 6566,
      "д.,": 6567,
      "▁pan": 6568,
      "▁\nтюр.": 6569,
      "o6": 6570,
      "шел": 6571,
      "▁книг": 6572,
      "He": 6573,
      "дый": 6574,
      "▁\nлу": 6575,
      "▁160": 6576,
      "ätre": 6577,
      "юй": 6578,
      "ict": 6579,
      "entr": 6580,
      "▁быв": 6581,
      "▁1880": 6582,
      "ніе,": 6583,
      "▁вот": 6584,
      "▁до-": 6585,
      "▁оказа": 6586,
      "нка": 6587,
      "ima": 6588,
      "уй": 6589,
      "▁\n\nF": 6590,
      "<1": 6591,
      "Ге": 6592,
      "лер": 6593,
      "▁подвод": 6594,
      "▁дума": 6595,
      "▁~": 6596,
      "▁неза": 6597,
      "ник,": 6598,
      "шё": 6599,
      "▁\n\n11": 6600,
      "▁\n\nРо": 6601,
      "зей": 6602,
      "▁сіі": 6603,
      "чь,": 6604,
      "ющим": 6605,
      "▁ОТ": 6606,
      "▁cl": 6607,
      "OR": 6608,
      "▁хри": 6609,
      "▁hab": 6610,
      "ете,": 6611,
      "▁баз": 6612,
      "▁\n\n\nT": 6613,
      "▁\n\n\n`": 6614,
      "▁\ny": 6615,
      "2а": 6616,
      "дит": 6617,
      "сх": 6618,
      "▁\nПро": 6619,
      "▁Боль": 6620,
      "торая": 6621,
      "▁74": 6622,
      "ЕНТ": 6623,
      "!)": 6624,
      "▁149": 6625,
      "НА": 6626,
      "▁ir": 6627,
      "auc": 6628,
      "иф": 6629,
      "ющая": 6630,
      "▁обна": 6631,
      "ЕРГ": 6632,
      "▁tu": 6633,
      "▁таб": 6634,
      "esc": 6635,
      "iil": 6636,
      "форма": 6637,
      "этому": 6638,
      "▁\n\n\n0": 6639,
      "▁99": 6640,
      "Аі": 6641,
      "▁\n\n/": 6642,
      "нина": 6643,
      "zt": 6644,
      "пн": 6645,
      "▁51": 6646,
      "кур": 6647,
      "вез": 6648,
      "ремя": 6649,
      "▁\nря": 6650,
      "▁Ир": 6651,
      "▁второй": 6652,
      "1Ю": 6653,
      "];": 6654,
      "УЗ": 6655,
      "зсі": 6656,
      "новь": 6657,
      "о^": 6658,
      "▁г.;": 6659,
      "сб": 6660,
      "4а": 6661,
      "▁одинъ": 6662,
      "▁\nболь": 6663,
      "()": 6664,
      "▁\n\nу": 6665,
      "гб": 6666,
      "▁сш": 6667,
      "▁Fl.": 6668,
      "▁республи": 6669,
      "ясь": 6670,
      "сот": 6671,
      "▁фами": 6672,
      "▁Ген": 6673,
      "en;": 6674,
      "▁кр": 6675,
      "▁нет": 6676,
      "овый": 6677,
      "▁тата": 6678,
      "▁ѵо": 6679,
      "▁писа": 6680,
      "aire": 6681,
      "▁\n\nЬ": 6682,
      "егі": 6683,
      "(е": 6684,
      "рай": 6685,
      "▁чит": 6686,
      "▁ae,": 6687,
      "пеп": 6688,
      "▁nom": 6689,
      "ated": 6690,
      "▁обыкнов": 6691,
      "port": 6692,
      "▁13,": 6693,
      "тов,": 6694,
      "▁тран": 6695,
      "▁Бори": 6696,
      "о1": 6697,
      "▁сар": 6698,
      "▁сбор": 6699,
      "▁суда": 6700,
      "▁\n>": 6701,
      "▁пет": 6702,
      "▁тако": 6703,
      "овые": 6704,
      "чку": 6705,
      "al.": 6706,
      "воря": 6707,
      "▁я,": 6708,
      "лф": 6709,
      "СКАЯ": 6710,
      "▁Варша": 6711,
      "кб": 6712,
      "▁we": 6713,
      "▁Ник.": 6714,
      "arum": 6715,
      "▁поб": 6716,
      "▁(15": 6717,
      "ott": 6718,
      "▁первой": 6719,
      "В,": 6720,
      "гр": 6721,
      "▁\n\n[": 6722,
      "▁\n\n\n$": 6723,
      "ние,": 6724,
      "мон": 6725,
      "прияти": 6726,
      "j,": 6727,
      "оа": 6728,
      "сво": 6729,
      "нан": 6730,
      "пом": 6731,
      "сіи": 6732,
      "▁большо": 6733,
      "▁Губсуд.": 6734,
      "xo": 6735,
      "▁Ры": 6736,
      "▁времен": 6737,
      "▁чре": 6738,
      "ente": 6739,
      "ene": 6740,
      "▁семь": 6741,
      "▁лежа": 6742,
      "Г,": 6743,
      "ору": 6744,
      "▁ничего": 6745,
      "▁которую": 6746,
      "дз": 6747,
      "▁113": 6748,
      "▁Рис": 6749,
      "ar.": 6750,
      "ре.": 6751,
      "иЬ": 6752,
      "лат": 6753,
      "rag": 6754,
      "▁нашего": 6755,
      "▁OT": 6756,
      "даря": 6757,
      "▁эту": 6758,
      "кса": 6759,
      "▁ще": 6760,
      "ili": 6761,
      "чено": 6762,
      "держ": 6763,
      "▁Ря": 6764,
      "▁моего": 6765,
      "сы,": 6766,
      "▁ох": 6767,
      "▁офи": 6768,
      "▁ИВАНЪ": 6769,
      "гер": 6770,
      "▁другихъ": 6771,
      "▁ter": 6772,
      "таль": 6773,
      "yl": 6774,
      "▁\n\n8.": 6775,
      "▁возра": 6776,
      "▁деятельно": 6777,
      "кт.": 6778,
      "▁коллек": 6779,
      "пЬ": 6780,
      "▁\nныхъ": 6781,
      "/912),": 6782,
      "стат": 6783,
      "▁\n\n\nпо": 6784,
      "л'Ь": 6785,
      "▁дра": 6786,
      "в^": 6787,
      "л*": 6788,
      "гаг": 6789,
      "станти": 6790,
      "▁\n\nб)": 6791,
      "'1": 6792,
      "ным,": 6793,
      "▁СС.": 6794,
      "▁Гру": 6795,
      "▁этотъ": 6796,
      "ЛАВ": 6797,
      "▁тё": 6798,
      "▁ке": 6799,
      "▁воро": 6800,
      "▁\nК.": 6801,
      "каде": 6802,
      "щается": 6803,
      "▁Аи": 6804,
      "nc": 6805,
      "▁96": 6806,
      "▁денег": 6807,
      "▁един": 6808,
      "▁бла": 6809,
      "▁аш": 6810,
      "▁согла": 6811,
      "етербург": 6812,
      "чное": 6813,
      "▁\nкон": 6814,
      "▁формы": 6815,
      "еспе": 6816,
      "▁Ю.": 6817,
      "gr.": 6818,
      "▁(е": 6819,
      "езе": 6820,
      "ra,": 6821,
      "нье": 6822,
      "▁Fish": 6823,
      "тет": 6824,
      "z.": 6825,
      "▁⁊": 6826,
      "▁b)": 6827,
      "ino": 6828,
      "▁про¬": 6829,
      "▁Ac": 6830,
      "Jia": 6831,
      "▁опе": 6832,
      "▁\n\n\nЯ": 6833,
      "il.": 6834,
      "д'Ь": 6835,
      "ника,": 6836,
      "бов": 6837,
      "жной": 6838,
      "▁кам": 6839,
      "▁опы": 6840,
      "▁Пет.": 6841,
      "более": 6842,
      "np": 6843,
      "▁продолжа": 6844,
      "▁(х": 6845,
      "▁\nto": 6846,
      "▁dur": 6847,
      "тр.": 6848,
      "▁Ивана": 6849,
      "▁нужно": 6850,
      "▁\n:": 6851,
      "▁\n\n<": 6852,
      "ін": 6853,
      "▁18.": 6854,
      "▁Le": 6855,
      "▁войска": 6856,
      "▁могут": 6857,
      "-А": 6858,
      "▁Pr": 6859,
      "▁Ov.": 6860,
      "лей.": 6861,
      "orth": 6862,
      "sa": 6863,
      "y-": 6864,
      "▁€": 6865,
      "▁li": 6866,
      "▁\n\n\nP": 6867,
      "ками,": 6868,
      "▁кому": 6869,
      "▁\n\n\n\n—": 6870,
      "надц": 6871,
      "лй": 6872,
      "▁\ne": 6873,
      "▁чл.": 6874,
      "▁допол": 6875,
      "мец": 6876,
      "▁топ": 6877,
      "▁прибы": 6878,
      "▁секре": 6879,
      "▁species": 6880,
      ").—": 6881,
      "ing,": 6882,
      "казы": 6883,
      "ИНА": 6884,
      "▁\n\n\n\n\n\n\n\n\n\n\n\n": 6885,
      "Ие": 6886,
      "▁\nqu": 6887,
      "торъ": 6888,
      "▁конеч": 6889,
      "▁\n24": 6890,
      "П,": 6891,
      "▁состо": 6892,
      "▁архи": 6893,
      "ГК": 6894,
      "чатель": 6895,
      "▁потом": 6896,
      "BB": 6897,
      "рое": 6898,
      "▁(На": 6899,
      "▁учили": 6900,
      "цуз": 6901,
      "▁\nотъ": 6902,
      "▁Ши": 6903,
      "▁12,": 6904,
      "АЛЬ": 6905,
      "ГО": 6906,
      "▁ам": 6907,
      "▁\nизъ": 6908,
      "ven": 6909,
      "▁112": 6910,
      "▁комп": 6911,
      "-14": 6912,
      "ке.": 6913,
      "ние.": 6914,
      "ение.": 6915,
      "гии": 6916,
      "▁паз": 6917,
      "▁вов": 6918,
      "▁sem": 6919,
      "▁ниже": 6920,
      "ств,": 6921,
      "ès": 6922,
      "▁поко": 6923,
      "▁при¬": 6924,
      "▁Ха": 6925,
      "▁источ": 6926,
      "▁вклю": 6927,
      "мя,": 6928,
      "▁внима": 6929,
      "▁го-": 6930,
      "ick": 6931,
      "▁==": 6932,
      "▁неиз": 6933,
      "ese": 6934,
      "▁ot": 6935,
      "2)": 6936,
      "Ма": 6937,
      "С:": 6938,
      "кг": 6939,
      "▁«.": 6940,
      "йс": 6941,
      "▁———": 6942,
      "▁реш": 6943,
      "▁secundum": 6944,
      "âtre": 6945,
      "ри.": 6946,
      "▁глас": 6947,
      "мин": 6948,
      "▁\n\n26": 6949,
      "nr": 6950,
      "ша.": 6951,
      "▁своему": 6952,
      "▁этихъ": 6953,
      "УН": 6954,
      "риц": 6955,
      "▁первый": 6956,
      "▁пять": 6957,
      "вают": 6958,
      "▁болѣ": 6959,
      "▁\nВъ": 6960,
      "мира": 6961,
      "▁А,": 6962,
      "▁тон": 6963,
      "▁ргі": 6964,
      "▁JI": 6965,
      "▁языка": 6966,
      "▁«Д": 6967,
      "nm": 6968,
      "▁раза": 6969,
      "УС": 6970,
      "▁dist": 6971,
      "ipt": 6972,
      "▁Казахста": 6973,
      "ature": 6974,
      "еты": 6975,
      "▁мЪ": 6976,
      "п1": 6977,
      "▁ГРИ": 6978,
      "(і": 6979,
      "АЕВ": 6980,
      "хит": 6981,
      "ѣ;": 6982,
      "лиш": 6983,
      "▁сына": 6984,
      "nb": 6985,
      "вказ": 6986,
      "iet": 6987,
      "▁г,": 6988,
      "▁немъ": 6989,
      "▁меся": 6990,
      "▁|е": 6991,
      "▁ними": 6992,
      "мян": 6993,
      "нов,": 6994,
      "▁бат": 6995,
      "▁должна": 6996,
      "час": 6997,
      "▁have": 6998,
      "▁л.;—": 6999,
      "jio": 7000,
      "дег": 7001,
      "▁(Г": 7002,
      "▁Николай": 7003,
      "▁такое": 7004,
      "▁нъ": 7005,
      "АНОВ": 7006,
      "4о": 7007,
      "шку": 7008,
      "тии": 7009,
      "вящен": 7010,
      "пись": 7011,
      "▁bo": 7012,
      "щь": 7013,
      "▁\n\nK": 7014,
      "гаі": 7015,
      "▁pra": 7016,
      "чита": 7017,
      "▁издан": 7018,
      "oss": 7019,
      "▁прочи": 7020,
      "?,": 7021,
      "▁умер": 7022,
      "▁анг": 7023,
      "▁дом": 7024,
      "▁npH": 7025,
      "▁сос": 7026,
      "▁живот": 7027,
      "ad.": 7028,
      "мей": 7029,
      "ischen": 7030,
      "рта": 7031,
      "▁иду": 7032,
      "▁De": 7033,
      "▁\n\nк": 7034,
      "ными,": 7035,
      "▁люд": 7036,
      "—3": 7037,
      "▁стан": 7038,
      "ШК": 7039,
      "▁73": 7040,
      "▁\n\ns": 7041,
      "▁чшо": 7042,
      "▁\nпол": 7043,
      "▁условия": 7044,
      "▁іт": 7045,
      "ровать": 7046,
      "▁крестьян": 7047,
      "ng": 7048,
      "вов": 7049,
      "▁силу": 7050,
      "нхъ": 7051,
      "пот": 7052,
      "▁рис.": 7053,
      "yst": 7054,
      "▁наде": 7055,
      "бран": 7056,
      "••": 7057,
      "▁Ян": 7058,
      "▁годы": 7059,
      "▁Soc.": 7060,
      "iit": 7061,
      "▁\nрг": 7062,
      "точно": 7063,
      "▁72": 7064,
      "▁ого": 7065,
      "▁устрой": 7066,
      "▁198": 7067,
      "▁Цар": 7068,
      "и1": 7069,
      "и$": 7070,
      "йш": 7071,
      "зап": 7072,
      "AO": 7073,
      "iK": 7074,
      "нику": 7075,
      "▁\n\n47": 7076,
      "▁ды": 7077,
      "▁--": 7078,
      "▁Берия": 7079,
      "д^": 7080,
      "ег-": 7081,
      "в'Ь": 7082,
      "▁\nап": 7083,
      "▁\nвод": 7084,
      "▁Она": 7085,
      "▁K.": 7086,
      "▁укра": 7087,
      "▁предъ": 7088,
      "▁требу": 7089,
      "▁сынъ": 7090,
      "▁Суво": 7091,
      "▁(З": 7092,
      "льныхъ": 7093,
      "am,": 7094,
      "це,": 7095,
      "el,": 7096,
      "▁находится": 7097,
      "ина": 7098,
      "ur.": 7099,
      "дован": 7100,
      "dd": 7101,
      "▁met": 7102,
      "▁ХХ": 7103,
      "-13": 7104,
      "ande": 7105,
      "ame": 7106,
      "▁$.": 7107,
      "рец": 7108,
      "▁(9": 7109,
      "▁Глав": 7110,
      "▁int": 7111,
      "ателей": 7112,
      "ющихъ": 7113,
      "fr": 7114,
      "HHe": 7115,
      "лением": 7116,
      "ода": 7117,
      "тот": 7118,
      "бы,": 7119,
      "'-": 7120,
      "Т,": 7121,
      "лета": 7122,
      "де.": 7123,
      "лых": 7124,
      "▁реак": 7125,
      "и^": 7126,
      "▁іг": 7127,
      "▁потомъ": 7128,
      "іев": 7129,
      "ек.": 7130,
      "aria": 7131,
      "емой": 7132,
      "▁Al": 7133,
      "▁Me": 7134,
      "▁\n29": 7135,
      "une": 7136,
      "▁имф": 7137,
      "лению": 7138,
      "▁Кн.": 7139,
      "enb": 7140,
      "велъ": 7141,
      "▁Gr": 7142,
      "▁IV": 7143,
      "▁um": 7144,
      "▁Рго": 7145,
      "▁[е": 7146,
      "▁\nсов": 7147,
      "▁Hor": 7148,
      "▁села": 7149,
      "▁маши": 7150,
      "▁сро": 7151,
      "1111": 7152,
      "ego": 7153,
      "▁\n\nМо": 7154,
      "▁its": 7155,
      "▁\n\nИтого": 7156,
      "пат": 7157,
      "сед": 7158,
      "пр.": 7159,
      "цами": 7160,
      "вать.": 7161,
      "▁\nар": 7162,
      "рета": 7163,
      "щихся": 7164,
      ",.": 7165,
      "■■": 7166,
      "▁Fr": 7167,
      "-С": 7168,
      "▁шу": 7169,
      "▁76": 7170,
      "▁inc": 7171,
      "▁могли": 7172,
      "▁pac": 7173,
      "▁Tac": 7174,
      "леп": 7175,
      "▁\nобраз": 7176,
      "зор": 7177,
      "шЬ": 7178,
      "лов.": 7179,
      "ung,": 7180,
      "45)": 7181,
      "пон": 7182,
      "aux": 7183,
      "▁пит": 7184,
      "▁обе": 7185,
      "▁(86,": 7186,
      "жн": 7187,
      "лив": 7188,
      "▁moins": 7189,
      "},": 7190,
      "—2": 7191,
      "ath": 7192,
      "▁диа": 7193,
      "▁mil": 7194,
      "▁описа": 7195,
      "▁19.": 7196,
      "▁противъ": 7197,
      "ini": 7198,
      "▁|.": 7199,
      "▁ико": 7200,
      "дия": 7201,
      "▁\n\n37": 7202,
      "▁всем": 7203,
      "тка": 7204,
      "▁\nU": 7205,
      "es;": 7206,
      "▁med": 7207,
      "гип": 7208,
      "nyv": 7209,
      "-е": 7210,
      "▁Am": 7211,
      "тори": 7212,
      "▁ad.": 7213,
      "ств.:": 7214,
      "ОФ": 7215,
      "▁\nние": 7216,
      "ité": 7217,
      "▁собой": 7218,
      "▁есми": 7219,
      "▁выс": 7220,
      "▁стар": 7221,
      "кш": 7222,
      "▁\nѵ": 7223,
      "рис.": 7224,
      "ование": 7225,
      "ii.": 7226,
      "К,": 7227,
      "вт": 7228,
      "пе.": 7229,
      "RI": 7230,
      "SH": 7231,
      "▁\n\n7.": 7232,
      "▁вд": 7233,
      "▁каса": 7234,
      "▁пе-": 7235,
      "воло": 7236,
      "▁об-": 7237,
      "▁губерн": 7238,
      "ес1": 7239,
      "▁94": 7240,
      "меча": 7241,
      "▁08": 7242,
      "uit": 7243,
      "ОЛЬ": 7244,
      "нему": 7245,
      "ловъ,": 7246,
      "йг": 7247,
      "▁нь": 7248,
      "▁ܕ": 7249,
      "▁пъ": 7250,
      "▁d'": 7251,
      "▁Бѣ": 7252,
      "▁\n\n39": 7253,
      "▁имени": 7254,
      "▁\nвой": 7255,
      "gan": 7256,
      "▁грошей": 7257,
      "▁нами": 7258,
      "▁Гог": 7259,
      "пеу": 7260,
      "ванге": 7261,
      "е^": 7262,
      "▁на¬": 7263,
      "▁свобод": 7264,
      "AL": 7265,
      "е1": 7266,
      "▁Ph": 7267,
      "igen": 7268,
      "JiH": 7269,
      "тог": 7270,
      "▁côt": 7271,
      "▁\n\n34": 7272,
      "тег": 7273,
      "-В": 7274,
      "▁11,": 7275,
      "▁Би": 7276,
      "▁ny": 7277,
      "▁мед": 7278,
      "ogy": 7279,
      "▁системы": 7280,
      "uer": 7281,
      "шать": 7282,
      "зии": 7283,
      "торое": 7284,
      "▁расположен": 7285,
      "HC": 7286,
      "▁\n\n\n20": 7287,
      "▁ук": 7288,
      "▁Поль": 7289,
      "?.": 7290,
      "усЬ": 7291,
      "▁лод": 7292,
      "▁зер": 7293,
      "▁КС.": 7294,
      "▁тяже": 7295,
      "▁закон": 7296,
      "▁женщи": 7297,
      "▁спис": 7298,
      "езз": 7299,
      "▁пят": 7300,
      "чная": 7301,
      "▁\n\nX": 7302,
      "▁\n\np": 7303,
      "▁проч.": 7304,
      "ственный": 7305,
      "сё": 7306,
      "▁уров": 7307,
      "-b": 7308,
      "▁лѵ": 7309,
      "чи-": 7310,
      "▁\n\n35": 7311,
      "Ьу": 7312,
      "▁напр.": 7313,
      "▁е,": 7314,
      "▁партии": 7315,
      "ет-": 7316,
      "рд": 7317,
      "▁ca": 7318,
      "▁алт.": 7319,
      "i^": 7320,
      "ual": 7321,
      "▁готов": 7322,
      "▁рису": 7323,
      "нат": 7324,
      "ук": 7325,
      "▁\nци": 7326,
      "гу.": 7327,
      "рь,": 7328,
      "▁\nр.": 7329,
      "▁£": 7330,
      "извод": 7331,
      "ту.": 7332,
      "ного,": 7333,
      "▁Сов.": 7334,
      "cul": 7335,
      "▁\n\n\n/": 7336,
      "tl": 7337,
      "пло": 7338,
      "▁Кара": 7339,
      "▁Эти": 7340,
      "ther": 7341,
      "е:": 7342,
      "▁Семен": 7343,
      "▁bre": 7344,
      "выхъ": 7345,
      "іиі": 7346,
      "▁святы": 7347,
      "▁защ": 7348,
      "▁\nтак": 7349,
      "▁Virg.": 7350,
      "ковъ.": 7351,
      "кова,": 7352,
      "Б,": 7353,
      "ИГ": 7354,
      "р!": 7355,
      "▁Степ": 7356,
      "▁ведо": 7357,
      "▁стали": 7358,
      "str": 7359,
      "рма": 7360,
      "▁\nal": 7361,
      "мск.": 7362,
      "\n\n\n": 7363,
      "▁неболь": 7364,
      "(^": 7365,
      "wa": 7366,
      "▁соз": 7367,
      "át": 7368,
      "сий": 7369,
      "▁образован": 7370,
      "▁\nы": 7371,
      "кій,": 7372,
      "Бе": 7373,
      "апо": 7374,
      "▁\nского": 7375,
      "11)": 7376,
      "-—": 7377,
      "▁ля": 7378,
      "▁же.": 7379,
      "▁\nand": 7380,
      "▁в,": 7381,
      "▁потреб": 7382,
      "▁НС.": 7383,
      "-15": 7384,
      "носи": 7385,
      "▁дни": 7386,
      "арта": 7387,
      "jiH": 7388,
      "▁йо": 7389,
      "АЧ": 7390,
      "▁\n09": 7391,
      "▁камен": 7392,
      "рович": 7393,
      "нович": 7394,
      "▁\n\n^^^^": 7395,
      "хг": 7396,
      "▁Sc": 7397,
      "ОЧ": 7398,
      "без": 7399,
      "из.": 7400,
      "і/": 7401,
      "тш": 7402,
      "ella": 7403,
      "емые": 7404,
      "▁спосо": 7405,
      "рй": 7406,
      "14,": 7407,
      "▁которыя": 7408,
      "▁Сената": 7409,
      "вей": 7410,
      "▁79": 7411,
      "ствия": 7412,
      "новъ.": 7413,
      "ba": 7414,
      "вЬ": 7415,
      "▁cap": 7416,
      "▁Анто": 7417,
      "ямъ": 7418,
      "виси": 7419,
      "▁шта": 7420,
      "▁рог": 7421,
      "▁Прав.": 7422,
      "tribution": 7423,
      "кома": 7424,
      "▁наше": 7425,
      "▁эпо": 7426,
      "ЛОВ": 7427,
      "pu": 7428,
      "ych": 7429,
      "▁коле": 7430,
      "Ца": 7431,
      "▁Нап": 7432,
      "▁\n\n67": 7433,
      "▁Общества": 7434,
      "trices": 7435,
      "▁\nпов": 7436,
      "iol": 7437,
      "▁\n\n74": 7438,
      "СКИЙ": 7439,
      "▁вни": 7440,
      "▁чита": 7441,
      "CCP": 7442,
      "мв": 7443,
      "▁оде": 7444,
      "▁группы": 7445,
      "ета.": 7446,
      "чинен": 7447,
      "▁актив": 7448,
      "1я.": 7449,
      "zer": 7450,
      "сга": 7451,
      "orum": 7452,
      "▁книга": 7453,
      "▁СТЕП": 7454,
      "чного": 7455,
      "▁КА.": 7456,
      "▁отсут": 7457,
      "▁III.": 7458,
      "тить": 7459,
      "▁изЪ": 7460,
      "▁\nгра": 7461,
      "▁экз.).": 7462,
      "▁покры": 7463,
      "▁Воен": 7464,
      "луб": 7465,
      "щими": 7466,
      "▁бума": 7467,
      "камъ": 7468,
      "става": 7469,
      "▁войны": 7470,
      "iiH": 7471,
      "▁ЗЗ": 7472,
      "ют,": 7473,
      "▁треть": 7474,
      "▁\nфи": 7475,
      "▁cos": 7476,
      "▁Казан": 7477,
      "▁Пл.": 7478,
      "iad": 7479,
      "▁Ta": 7480,
      "▁русской": 7481,
      "АИЛ": 7482,
      "▁da": 7483,
      "▁заво": 7484,
      "▁фото": 7485,
      "▁was": 7486,
      "ТВ": 7487,
      "▁ten": 7488,
      "сиі": 7489,
      "▁ожи": 7490,
      "▁ина": 7491,
      "▁СЪ": 7492,
      "чество": 7493,
      "▁бур": 7494,
      "ская,": 7495,
      "нь,": 7496,
      "▁\n\n9.": 7497,
      "▁гим": 7498,
      "▁\n\nРаз": 7499,
      "унки": 7500,
      "'о": 7501,
      "дё": 7502,
      "▁(10": 7503,
      "▁Оси": 7504,
      "емых": 7505,
      "i:": 7506,
      "ива": 7507,
      "▁ПР": 7508,
      "▁ф.": 7509,
      "▁\n\n\nЭ": 7510,
      "таго": 7511,
      "▁лп": 7512,
      "▁o6": 7513,
      "▁\n\n21": 7514,
      "▁up": 7515,
      "щё": 7516,
      "▁нео": 7517,
      "▁року": 7518,
      "▁цѣ": 7519,
      "▁ть": 7520,
      "▁элемен": 7521,
      "wo": 7522,
      "цевъ": 7523,
      "▁пользу": 7524,
      "▁Коп": 7525,
      "▁\n\nДа": 7526,
      "бре": 7527,
      "псі": 7528,
      "▁КПСС": 7529,
      "▁ним": 7530,
      "сті": 7531,
      "▁жъ": 7532,
      "пусти": 7533,
      "сѵ": 7534,
      "▁нему": 7535,
      "▁хи": 7536,
      "▁\n\nна": 7537,
      "▁рё": 7538,
      "жа,": 7539,
      "ermin": 7540,
      "▁blanch": 7541,
      "fc": 7542,
      "mo": 7543,
      "ѣмъ": 7544,
      "▁out": 7545,
      "▁образомъ": 7546,
      "▁указан": 7547,
      "▁\no": 7548,
      "▁Исп": 7549,
      "urs": 7550,
      "АСТ": 7551,
      "кну": 7552,
      "▁оши": 7553,
      "ough": 7554,
      "▁празд": 7555,
      "▁товари": 7556,
      "▁НЕ": 7557,
      "Це": 7558,
      "егЬ": 7559,
      "а^": 7560,
      "лла": 7561,
      "работ": 7562,
      "▁каждо": 7563,
      "AP": 7564,
      "щан": 7565,
      "конец": 7566,
      "гие": 7567,
      "ха.": 7568,
      "ograph": 7569,
      "▁Геор": 7570,
      "A.": 7571,
      "кта": 7572,
      "▁\nное": 7573,
      "▁leg": 7574,
      "жев": 7575,
      "▁Plan": 7576,
      "ed.": 7577,
      "▁\n\nЧто": 7578,
      "ain": 7579,
      "ül": 7580,
      "▁пб": 7581,
      "тина": 7582,
      "arb": 7583,
      "▁fol": 7584,
      "os,": 7585,
      "Из": 7586,
      "тие": 7587,
      "▁После": 7588,
      "т^": 7589,
      "▁ill": 7590,
      "▁СЕМ": 7591,
      "▁\nРаз": 7592,
      "▁mor": 7593,
      "?»": 7594,
      "ТР": 7595,
      "▁пози": 7596,
      "▁\nТо": 7597,
      "▁поль": 7598,
      "▁Вот": 7599,
      "ustr": 7600,
      "З.": 7601,
      "ді": 7602,
      "▁нашей": 7603,
      "детъ": 7604,
      "▁жел": 7605,
      "иу": 7606,
      "пе,": 7607,
      "р$": 7608,
      "вом": 7609,
      "ork": 7610,
      "▁указыва": 7611,
      "▁(17": 7612,
      "▁лиц": 7613,
      "▁перево": 7614,
      "▁им.": 7615,
      "▁Сот": 7616,
      "сіе": 7617,
      "▁нару": 7618,
      "110": 7619,
      "АА": 7620,
      "’.": 7621,
      "▁ba": 7622,
      "▁музы": 7623,
      "вит": 7624,
      "▁саг": 7625,
      "ЕНКО,": 7626,
      "▁сеп": 7627,
      "хва": 7628,
      "▁ССР": 7629,
      "гре": 7630,
      "▁Фо": 7631,
      "▁говоря": 7632,
      "КА,": 7633,
      "ас.": 7634,
      "▁lo": 7635,
      "▁1812": 7636,
      "▁капита": 7637,
      "▁гри": 7638,
      "▁Губер": 7639,
      "▁х.": 7640,
      "▁музе": 7641,
      "▁\nкак": 7642,
      "шем": 7643,
      "▁\nбе": 7644,
      "▁дать": 7645,
      "▁редак": 7646,
      "▁\nle": 7647,
      "ic.": 7648,
      "d,": 7649,
      "▁стру": 7650,
      "▁has": 7651,
      "ift": 7652,
      "▁Жи": 7653,
      "▁\nst": 7654,
      "▁пі": 7655,
      "1П": 7656,
      "гіі": 7657,
      "▁уа": 7658,
      "тов.": 7659,
      "▁оси": 7660,
      "▁\n188": 7661,
      "гова": 7662,
      "▁раство": 7663,
      "паз": 7664,
      "▁мир": 7665,
      "лись,": 7666,
      "чп": 7667,
      "чемъ": 7668,
      "▁сни": 7669,
      "▁78": 7670,
      "▁апре": 7671,
      "Ме": 7672,
      "▁преи": 7673,
      "I,": 7674,
      "IC": 7675,
      "▁ив": 7676,
      "▁07": 7677,
      "▁образом": 7678,
      "-Г": 7679,
      "рап": 7680,
      "▁ДМ": 7681,
      "цией": 7682,
      "etr": 7683,
      "▁\n\nРа": 7684,
      "▁ГРИГОР": 7685,
      "▁Ана": 7686,
      "лу,": 7687,
      "ЬЕВИЧ,": 7688,
      "▁\nт.": 7689,
      "Та": 7690,
      "чи.": 7691,
      "▁сим": 7692,
      "ос.": 7693,
      "▁Ос": 7694,
      "IB": 7695,
      "▁\nu": 7696,
      "OCT": 7697,
      "hal": 7698,
      "ен-": 7699,
      "ряжен": 7700,
      "▁впол": 7701,
      "iM": 7702,
      "▁80.": 7703,
      "▁Яков": 7704,
      "пег": 7705,
      "▁49.": 7706,
      "▁рге": 7707,
      "ждение": 7708,
      "▁И,": 7709,
      "▁\n\n44": 7710,
      "ж,": 7711,
      "▁\nЪ": 7712,
      "▁величи": 7713,
      "▁слож": 7714,
      "▁21.": 7715,
      "ме-": 7716,
      "рз": 7717,
      "▁Однако": 7718,
      "нья": 7719,
      "▁землю": 7720,
      "▁развити": 7721,
      "▁Васил": 7722,
      "тав": 7723,
      "▁20.": 7724,
      "бри": 7725,
      "лого": 7726,
      "▁\n\n\n25": 7727,
      "ata,": 7728,
      "▁ра-": 7729,
      "iti": 7730,
      "▁августа": 7731,
      "^у": 7732,
      "▁\n\nѴ": 7733,
      "мый": 7734,
      "тай": 7735,
      "▁затем": 7736,
      "▁однако": 7737,
      "▁сіо": 7738,
      "▁(т.": 7739,
      "▁Кро": 7740,
      "▁опис": 7741,
      "sp": 7742,
      "ige": 7743,
      "▁\n\n50": 7744,
      "▁gris": 7745,
      "чё": 7746,
      "▁под-": 7747,
      "▁meg": 7748,
      "▁дале": 7749,
      "▁апо": 7750,
      "сог": 7751,
      "▁Co": 7752,
      "сем": 7753,
      "че,": 7754,
      "▁вм": 7755,
      "▁\n\n43": 7756,
      "▁опа": 7757,
      "▁300": 7758,
      "▁у,": 7759,
      "▁бед": 7760,
      "ная.": 7761,
      "▁ири": 7762,
      "19,": 7763,
      "ется.": 7764,
      "УХ": 7765,
      "▁мастер": 7766,
      "▁развит": 7767,
      "оя": 7768,
      "▁предмет": 7769,
      "iH,": 7770,
      "рх": 7771,
      "▁ен": 7772,
      "'0": 7773,
      "дии": 7774,
      "▁(85,": 7775,
      "су,": 7776,
      "▁дов": 7777,
      "▁\n\n40": 7778,
      "ешь,": 7779,
      "1б": 7780,
      "ди.": 7781,
      "▁\nрод": 7782,
      "ita": 7783,
      "▁посы": 7784,
      "шка,": 7785,
      "▁назна": 7786,
      "▁\n\n\n\n\n\n\n\n\n\n": 7787,
      "▁вое": 7788,
      "▁друж": 7789,
      "явлен": 7790,
      "▁ато": 7791,
      "▁проек": 7792,
      "▁Зап": 7793,
      "ения.": 7794,
      "oM": 7795,
      "▁\nбра": 7796,
      "▁потер": 7797,
      "▁находя": 7798,
      "▁Коз": 7799,
      "▁tout": 7800,
      "▁unb": 7801,
      "▁Григорь": 7802,
      "▁tot": 7803,
      "▁большеви": 7804,
      "onn": 7805,
      "▁привод": 7806,
      "ста.": 7807,
      "ЕЧ": 7808,
      "▁дня,": 7809,
      "с!": 7810,
      "▁МАР": 7811,
      "alis": 7812,
      "iew": 7813,
      "▁ang": 7814,
      "▁ѵі": 7815,
      "▁queue": 7816,
      "OJ": 7817,
      "сВ": 7818,
      "▁июня": 7819,
      "ological": 7820,
      "bo": 7821,
      "▁aa": 7822,
      "▁Ех": 7823,
      "▁Евро": 7824,
      "ЛЯ": 7825,
      "▁непре": 7826,
      "▁Ху": 7827,
      "-17": 7828,
      "ІІІІІІІІ": 7829,
      "▁имуще": 7830,
      "▁оба": 7831,
      "спек": 7832,
      "▁Fl": 7833,
      "АНТ": 7834,
      "▁хле": 7835,
      "//": 7836,
      "ara": 7837,
      "▁194": 7838,
      "▁власти": 7839,
      "▁ква": 7840,
      "▁ро-": 7841,
      "▁bei": 7842,
      "Ла": 7843,
      "гш": 7844,
      "▁\n\nСа": 7845,
      "▁одну": 7846,
      "▁rel": 7847,
      "ститу": 7848,
      "жай": 7849,
      "▁узна": 7850,
      "▁\nтолько": 7851,
      "1*": 7852,
      "▁лист": 7853,
      "▁гес": 7854,
      "же-": 7855,
      "сто-": 7856,
      "ч.,": 7857,
      "▁слав": 7858,
      "\n\n\n\n\n\n\n\n\n\n\n\n\n\n\n\n\n\n\n\n\n\n\n\n\n\n\n\n\n\n\n\n\n\n\n\n\n\n\n\n\n\n\n\n\n\n\n\n\n\n\n\n\n\n\n\n\n\n\n\n\n\n\n\n\n\n\n\n\n\n\n\n\n\n\n\n\n\n\n\n\n\n\n\n\n\n\n\n\n\n\n\n\n\n\n\n\n\n\n\n\n\n\n\n\n\n\n\n\n\n\n\n\n\n\n\n\n\n\n\n\n\n\n\n\n\n\n\n": 7859,
      "юро": 7860,
      "▁пот": 7861,
      "erc": 7862,
      "▁\n\n45": 7863,
      "довлет": 7864,
      "гей": 7865,
      "hm": 7866,
      "▁\n+": 7867,
      "вари": 7868,
      "▁АВ": 7869,
      "ственных": 7870,
      "АТЬ": 7871,
      "▁ка-": 7872,
      "▁годъ": 7873,
      "геу": 7874,
      "^о,": 7875,
      "amm": 7876,
      "▁Жена": 7877,
      "▁брать": 7878,
      "▁МИХАИЛ": 7879,
      "▁Бар": 7880,
      "зации": 7881,
      "ствовать": 7882,
      "опз": 7883,
      "лх": 7884,
      "ator": 7885,
      "▁бук": 7886,
      "▁\nА.": 7887,
      "▁\n07": 7888,
      "▁115": 7889,
      "▁определен": 7890,
      "▁электри": 7891,
      "▁представлен": 7892,
      "iin": 7893,
      "▁ими": 7894,
      "▁раб.": 7895,
      "▁фабри": 7896,
      "▁рабочих": 7897,
      "▁мо-": 7898,
      "▁avec": 7899,
      "ув": 7900,
      "▁рап": 7901,
      "▁trans": 7902,
      "▁а)": 7903,
      "al,": 7904,
      "▁\n\n49": 7905,
      "f,": 7906,
      "яа": 7907,
      "поп": 7908,
      "el.": 7909,
      "▁Par": 7910,
      "18,": 7911,
      "жели": 7912,
      "сил": 7913,
      "▁ha": 7914,
      "ép": 7915,
      "▁яр": 7916,
      "▁рус.": 7917,
      "ПР": 7918,
      "бв": 7919,
      "▁опера": 7920,
      "▁судь": 7921,
      "ban": 7922,
      "стить": 7923,
      "▁народа": 7924,
      "eries": 7925,
      "▁П,": 7926,
      "рони": 7927,
      "▁\n\n\nE": 7928,
      "▁\n\n\nЦ": 7929,
      "fen": 7930,
      "ений,": 7931,
      "▁НА": 7932,
      "▁авг.": 7933,
      "вомъ": 7934,
      "нов.": 7935,
      "▁кана": 7936,
      "▁Коро": 7937,
      "pn": 7938,
      "овали": 7939,
      "▁stud": 7940,
      "serv": 7941,
      "кот": 7942,
      "▁рез": 7943,
      "гх": 7944,
      "▁чт": 7945,
      "евы": 7946,
      "оп,": 7947,
      "(12": 7948,
      "жат": 7949,
      "▁Коб": 7950,
      "▁день,": 7951,
      "▁нимъ": 7952,
      "▁де-": 7953,
      "разу": 7954,
      "▁твер": 7955,
      "▁(12": 7956,
      "▁61": 7957,
      "▁фрон": 7958,
      "2-": 7959,
      "▁похо": 7960,
      "▁Госуда": 7961,
      "▁значитель": 7962,
      "▁исправ": 7963,
      "KOB": 7964,
      "h,": 7965,
      "tus": 7966,
      "▁ἐ": 7967,
      "▁т,": 7968,
      "▁проз": 7969,
      "ческим": 7970,
      "Te": 7971,
      "нецъ": 7972,
      "ieu": 7973,
      "▁рой": 7974,
      "1е.": 7975,
      "▁\n\n66": 7976,
      "▁своими": 7977,
      "▁характери": 7978,
      "oy": 7979,
      "ски;": 7980,
      "ле.": 7981,
      "ur,": 7982,
      "urr": 7983,
      "Мо": 7984,
      "▁начала": 7985,
      "▁корот": 7986,
      "▁испы": 7987,
      "сно": 7988,
      "▁ску": 7989,
      "▁уж": 7990,
      "▁лнш.": 7991,
      "▁мел": 7992,
      "овск.": 7993,
      "▁(Е": 7994,
      "▁CCCP": 7995,
      "▁хло": 7996,
      "бен": 7997,
      "й)": 7998,
      "цки": 7999,
      "і'": 8000,
      "▁конца": 8001,
      "▁(4": 8002,
      "▁\nдей": 8003,
      "▁\nстра": 8004,
      "▁1п": 8005,
      "▁граж": 8006,
      "▁семей": 8007,
      "!;": 8008,
      "▁Su": 8009,
      "ЕЦ": 8010,
      "дд": 8011,
      "0.00": 8012,
      "▁вамъ": 8013,
      "▁препо": 8014,
      "▁вида": 8015,
      "▁140": 8016,
      "▁\n\nсо": 8017,
      "re,": 8018,
      "ряда": 8019,
      "▁Зем": 8020,
      "▁КОН": 8021,
      "скрес": 8022,
      "▁ft": 8023,
      "цкого": 8024,
      "тах": 8025,
      "▁человѣ": 8026,
      "▁корпу": 8027,
      "▁держа": 8028,
      "лим": 8029,
      "▁cy": 8030,
      "ски.": 8031,
      "обств.": 8032,
      "іиг": 8033,
      "▁\n\n\nПо": 8034,
      "алисти": 8035,
      "▁\nсы": 8036,
      "льзя": 8037,
      "▁\n\n38": 8038,
      "▁Пар": 8039,
      "еви": 8040,
      "шя,": 8041,
      "▁Изъ": 8042,
      "▁сколько": 8043,
      "дем": 8044,
      "▁ов.": 8045,
      "▁4)": 8046,
      "мера": 8047,
      "!^": 8048,
      "токъ": 8049,
      "▁тебе": 8050,
      "fle": 8051,
      "ери": 8052,
      "де-": 8053,
      "▁свобо": 8054,
      "▁значен": 8055,
      "▁1871.": 8056,
      "▁температу": 8057,
      "▁упра": 8058,
      "▁отв": 8059,
      "asp": 8060,
      "▁\nбез": 8061,
      "▁исслед": 8062,
      "яр": 8063,
      "▁\n\nG": 8064,
      "▁твор": 8065,
      "▁Слу": 8066,
      "▁ДН": 8067,
      "▁Ца": 8068,
      "▁епис": 8069,
      "ena": 8070,
      "pac": 8071,
      "та-": 8072,
      "▁Гав": 8073,
      "je": 8074,
      "гф": 8075,
      "21.": 8076,
      "gn": 8077,
      "▁письмо": 8078,
      "iqu": 8079,
      "Ьѳ": 8080,
      "▁вст": 8081,
      "иск.": 8082,
      "▁д.,": 8083,
      "▁(25": 8084,
      "▁blanc": 8085,
      "▁\n\nn": 8086,
      "▁\n\n\n>": 8087,
      "▁Рас": 8088,
      "▁заня": 8089,
      "▁СЬ": 8090,
      "▁Никол.": 8091,
      "▁\n\nd": 8092,
      "▁\n\n\nр": 8093,
      "▁\n\n\n1)": 8094,
      "▁подготов": 8095,
      "▁F.": 8096,
      "CES": 8097,
      "пан": 8098,
      "тех": 8099,
      "ня.": 8100,
      "▁\n\n\\": 8101,
      "▁дис": 8102,
      "▁продук": 8103,
      "пен": 8104,
      "▁В,": 8105,
      "▁Ник": 8106,
      "▁глубо": 8107,
      "▁тип": 8108,
      "▁бата": 8109,
      "куда": 8110,
      "1ап": 8111,
      "лосо": 8112,
      "лую": 8113,
      "▁вода:": 8114,
      "24.": 8115,
      "ютъ,": 8116,
      "sh": 8117,
      "шет": 8118,
      "▁профес": 8119,
      "▁135,": 8120,
      "▁особы": 8121,
      "E.": 8122,
      "▁Без": 8123,
      "▁140,": 8124,
      "(а": 8125,
      "к1е": 8126,
      "▁\nЫ": 8127,
      "▁ву": 8128,
      "iem": 8129,
      "дь,": 8130,
      "▁ܡ": 8131,
      "▁ев.": 8132,
      "▁ран": 8133,
      "къ),": 8134,
      "▁пред-": 8135,
      "▁\nН.": 8136,
      "▁большой": 8137,
      "▁См.:": 8138,
      "▁тф": 8139,
      "▁fac": 8140,
      "▁легко": 8141,
      "ните": 8142,
      "▁«А": 8143,
      "▁нс": 8144,
      "ск:": 8145,
      "▁post": 8146,
      "чъ,": 8147,
      "нимъ": 8148,
      "▁\n\nОб": 8149,
      "итай": 8150,
      "MB": 8151,
      "min": 8152,
      "ником": 8153,
      "▁val": 8154,
      "▁\nзем": 8155,
      "▁\n\n64": 8156,
      "▁положи": 8157,
      "▁сап": 8158,
      "▁гео": 8159,
      "▁собира": 8160,
      "ски,": 8161,
      "▁что,": 8162,
      "▁150": 8163,
      "▁па-": 8164,
      "13,": 8165,
      "да-": 8166,
      "▁Бого": 8167,
      "▁справ": 8168,
      "вос": 8169,
      "▁ПРО": 8170,
      "ес.": 8171,
      "▁in.": 8172,
      "вання": 8173,
      "▁Нар": 8174,
      "▁CB": 8175,
      "▁виду": 8176,
      "▁Сара": 8177,
      "▁материа": 8178,
      "poc": 8179,
      "▁(45)": 8180,
      "▁котораго": 8181,
      "▁есте": 8182,
      "ias": 8183,
      "▁зас": 8184,
      "▁разно": 8185,
      "детель": 8186,
      "ake": 8187,
      "▁внутри": 8188,
      "O,": 8189,
      "еф": 8190,
      "▁\n\n!": 8191,
      "aft": 8192,
      "бн": 8193,
      "леше": 8194,
      "▁\n\nJ": 8195,
      "▁Св.": 8196,
      "никами": 8197,
      "Иа": 8198,
      "ull": 8199,
      "ющими": 8200,
      "-16": 8201,
      "вели": 8202,
      "▁Пояб.": 8203,
      "хай": 8204,
      "▁Er": 8205,
      "▁Кри": 8206,
      "жей": 8207,
      "іііі": 8208,
      "и;": 8209,
      "▁IV.": 8210,
      "стю": 8211,
      "▁(Ч": 8212,
      "▁Кры": 8213,
      "▁распростран": 8214,
      "▁Вра": 8215,
      "▁,,": 8216,
      "▁жало": 8217,
      "▁след": 8218,
      "▁мер": 8219,
      "▁обеспе": 8220,
      "С,": 8221,
      "iac": 8222,
      "ъ-": 8223,
      "▁остав": 8224,
      "тиз": 8225,
      "12,": 8226,
      "▁отношен": 8227,
      "▁über": 8228,
      "ле¬": 8229,
      "▁форм": 8230,
      "▁обязан": 8231,
      "▁универ": 8232,
      "мана": 8233,
      "▁Св": 8234,
      "▁разс": 8235,
      "ЕГ": 8236,
      "▁января": 8237,
      "шз": 8238,
      "щя": 8239,
      "▁24.": 8240,
      "даго": 8241,
      "bb": 8242,
      "▁сбо": 8243,
      "▁во-": 8244,
      "▁Зи": 8245,
      "▁117": 8246,
      "▁Одес": 8247,
      "мость": 8248,
      "бит": 8249,
      "лм": 8250,
      "▁со¬": 8251,
      "▁\n\n1)": 8252,
      "тою": 8253,
      "вого": 8254,
      "поль": 8255,
      "▁pot": 8256,
      "▁подроб": 8257,
      "шеви": 8258,
      "КП(б": 8259,
      "Фа": 8260,
      "▁\n\nн": 8261,
      "▁\n\n36": 8262,
      "▁декабря": 8263,
      "▁кото-": 8264,
      "^я": 8265,
      "ОШ": 8266,
      "ік": 8267,
      "▁\n\n\n■": 8268,
      "▁which": 8269,
      "▁\nсоб": 8270,
      "ц-": 8271,
      "▁\n\nR": 8272,
      "▁кур": 8273,
      "▁движен": 8274,
      "онъ": 8275,
      "▁хоте": 8276,
      "cy": 8277,
      "▁ем": 8278,
      "▁Reg": 8279,
      "▁larg": 8280,
      "▁отца": 8281,
      "▁его.": 8282,
      "ig,": 8283,
      "▁за¬": 8284,
      "▁num": 8285,
      "▁такого": 8286,
      "▁опять": 8287,
      "гн": 8288,
      "▁22.": 8289,
      "▁\n\n——": 8290,
      "▁\n\nМа": 8291,
      "————": 8292,
      "▁правитель": 8293,
      "▁изу": 8294,
      "▁\n\nНо": 8295,
      "▁Мас": 8296,
      "▁октября": 8297,
      "▁\nмѣ": 8298,
      "▁«Р": 8299,
      "▁воды": 8300,
      "arg": 8301,
      "▁цвет": 8302,
      "четъ": 8303,
      "лах": 8304,
      "лок": 8305,
      "егеп": 8306,
      "▁^а": 8307,
      "▁апа": 8308,
      "▁«Б": 8309,
      "III.": 8310,
      "i;": 8311,
      "чт": 8312,
      "▁аѵ": 8313,
      "ЕЕ": 8314,
      "▁(4)": 8315,
      "▁меха": 8316,
      "▁крист.": 8317,
      "▁bem": 8318,
      "лове": 8319,
      "25.": 8320,
      "▁ел": 8321,
      "▁васъ": 8322,
      "іх": 8323,
      "▁\n\n\nШ": 8324,
      "итан": 8325,
      "X.": 8326,
      "▁BH": 8327,
      "▁No.": 8328,
      "▁аще": 8329,
      "щи,": 8330,
      "▁степени": 8331,
      "ляет": 8332,
      "▁теат": 8333,
      "cript": 8334,
      "ee": 8335,
      "▁труд": 8336,
      "▁\nсоп": 8337,
      "ные.": 8338,
      "9).": 8339,
      "стор": 8340,
      "НЫЙ": 8341,
      "коль": 8342,
      "▁д-Ь": 8343,
      "▁кЪ": 8344,
      "▁энер": 8345,
      "ecTB": 8346,
      "▁дѣла": 8347,
      "édian": 8348,
      "▁показыва": 8349,
      "▁Иль": 8350,
      "іаіі": 8351,
      "▁\n\nГо": 8352,
      "▁д'Ь": 8353,
      "arr": 8354,
      "піі": 8355,
      "▁уоп": 8356,
      "▁\n30": 8357,
      "сия": 8358,
      "▁14,": 8359,
      "▁\nИз": 8360,
      "лый,": 8361,
      "▁сопротив": 8362,
      "▁фло": 8363,
      "▁говорить": 8364,
      "▁поне": 8365,
      "▁\n3.": 8366,
      "▁ору": 8367,
      "red": 8368,
      "^ш": 8369,
      "Н,": 8370,
      "див": 8371,
      "дим": 8372,
      "▁\nин": 8373,
      "26.": 8374,
      "-ва": 8375,
      "гк": 8376,
      "▁\n\n0,": 8377,
      "1т": 8378,
      "»;": 8379,
      "оваго": 8380,
      "▁чемъ": 8381,
      "▁кгрод": 8382,
      "zen": 8383,
      "▁Pro": 8384,
      "▁вари": 8385,
      "▁вар": 8386,
      "ющихся": 8387,
      "▁вез": 8388,
      "стѣ": 8389,
      "коло": 8390,
      "комъ,": 8391,
      "▁Раг": 8392,
      "▁Pet": 8393,
      "▁Рисунки": 8394,
      "▁ol": 8395,
      "use": 8396,
      "▁\nпис": 8397,
      "ская.": 8398,
      "гут": 8399,
      "20.": 8400,
      "bet": 8401,
      "▁уби": 8402,
      "лое": 8403,
      "▁быстро": 8404,
      "щемъ": 8405,
      "igh": 8406,
      "бй": 8407,
      "вания": 8408,
      "ic,": 8409,
      "ament": 8410,
      "-х": 8411,
      "gl": 8412,
      "н*": 8413,
      "▁хими": 8414,
      "▁пути": 8415,
      "▁fa": 8416,
      "ственное": 8417,
      "▁Раств.:": 8418,
      "»)": 8419,
      "чета": 8420,
      "▁Ат": 8421,
      "ге-": 8422,
      "▁подвер": 8423,
      "laut": 8424,
      "27.": 8425,
      "етро": 8426,
      "▁Ита": 8427,
      "▁утвержден": 8428,
      "▁\n\n‚": 8429,
      "▁23.": 8430,
      "▁\nскаго": 8431,
      "ider": 8432,
      "▁являются": 8433,
      "st.": 8434,
      "ИШ": 8435,
      "цы.": 8436,
      "ENCES": 8437,
      "x,": 8438,
      "▁Поп": 8439,
      "▁яви": 8440,
      "▁\nрабо": 8441,
      "vers": 8442,
      "ост": 8443,
      "▁гид": 8444,
      "▁pod": 8445,
      "iir": 8446,
      "доволь": 8447,
      "▁\nтов": 8448,
      "▁\n\nм": 8449,
      "▁томъ,": 8450,
      "▁06": 8451,
      "▁\nкакъ": 8452,
      "▁НИКОЛАЙ": 8453,
      "29.": 8454,
      "ѵ,": 8455,
      "▁мощ": 8456,
      "▁стат": 8457,
      "▁оборо": 8458,
      "▁использова": 8459,
      "І,": 8460,
      "нв": 8461,
      "▁500": 8462,
      "▁ju": 8463,
      "por": 8464,
      "▁\nro": 8465,
      "дали": 8466,
      "еп-": 8467,
      "itr": 8468,
      "То": 8469,
      "▁\n\nДо": 8470,
      "ТО": 8471,
      "рій": 8472,
      "▁мла": 8473,
      "-18": 8474,
      "▁гдѣ": 8475,
      "▁относя": 8476,
      "▁év": 8477,
      "городи": 8478,
      "сиз": 8479,
      "суд": 8480,
      "▁em": 8481,
      "▁друга": 8482,
      "owsk": 8483,
      "▁могутъ": 8484,
      "1н": 8485,
      "▁сильно": 8486,
      "▁1ю": 8487,
      "▁mod": 8488,
      "вѣт": 8489,
      "лений": 8490,
      "▁тую": 8491,
      "▁aus": 8492,
      "ант": 8493,
      "▁Ог": 8494,
      "▁своим": 8495,
      "▁135": 8496,
      "▁Ov": 8497,
      "▁сторону": 8498,
      "ропей": 8499,
      "BT": 8500,
      "▁пунк": 8501,
      "▁пои": 8502,
      "old": 8503,
      "▁Поэтому": 8504,
      "▁ае": 8505,
      "▁период": 8506,
      "▁чрезъ": 8507,
      "ума": 8508,
      "зг": 8509,
      "▁оф": 8510,
      "ловъ.": 8511,
      "▁\nтер": 8512,
      "шелъ": 8513,
      "ЕВИЧ": 8514,
      "ben,": 8515,
      "▁аре": 8516,
      "▁16,": 8517,
      "▁\n\n46": 8518,
      "▁зв": 8519,
      "▁\n\n\nі": 8520,
      "мини": 8521,
      "▁||": 8522,
      "ходят": 8523,
      "тиви": 8524,
      "▁долго": 8525,
      "бт": 8526,
      "жск.": 8527,
      "▁-и,": 8528,
      "▁Іез": 8529,
      "▁инди": 8530,
      "ОГО": 8531,
      "ше-": 8532,
      "ál": 8533,
      "ііс": 8534,
      "ременно": 8535,
      "уі": 8536,
      "▁иска": 8537,
      "нымъ,": 8538,
      "▁ae": 8539,
      "▁dies": 8540,
      "мое": 8541,
      "▁р.),": 8542,
      "ка;": 8543,
      "силь": 8544,
      "ІС": 8545,
      "▁пого": 8546,
      "▁г/": 8547,
      "iles": 8548,
      "▁С.-П": 8549,
      ":,": 8550,
      "йя": 8551,
      "чка,": 8552,
      "▁и.,": 8553,
      "ЕНИЕ": 8554,
      "ника.": 8555,
      "igr": 8556,
      "ленъ": 8557,
      "▁\nОб": 8558,
      "▁\nес": 8559,
      "ста-": 8560,
      "ммати": 8561,
      "стно": 8562,
      "its": 8563,
      "▁Иванович": 8564,
      "▁пожа": 8565,
      "ба.": 8566,
      "сили": 8567,
      "▁пример": 8568,
      "▁оГ": 8569,
      "▁\nски": 8570,
      "▁пен": 8571,
      "▁люби": 8572,
      "▁каждый": 8573,
      "ít": 8574,
      "мая": 8575,
      "▁\n\n3)": 8576,
      "▁площа": 8577,
      "гал": 8578,
      "пи-": 8579,
      "▁земле": 8580,
      "▁\n\n\nL": 8581,
      "▁абы": 8582,
      "▁небо": 8583,
      "шимъ": 8584,
      "*^": 8585,
      "▁Къ": 8586,
      "▁ночь": 8587,
      "▁(0": 8588,
      "ковский": 8589,
      "1ес": 8590,
      "▁очи": 8591,
      "▁полю": 8592,
      "▁py": 8593,
      "▁\n23": 8594,
      "▁\n\nИз": 8595,
      "яг": 8596,
      "▁учен": 8597,
      "▁Ов": 8598,
      "▁Ну": 8599,
      "▁pat": 8600,
      "▁It": 8601,
      "▁котором": 8602,
      "дп": 8603,
      "▁Оп": 8604,
      "▁dic": 8605,
      "▁забо": 8606,
      "▁einen": 8607,
      "▁анти": 8608,
      "▁\n#": 8609,
      "льнаго": 8610,
      "вай": 8611,
      "па-": 8612,
      "ву,": 8613,
      "ke": 8614,
      "▁асі": 8615,
      "▁npa": 8616,
      "и:": 8617,
      "сЫ": 8618,
      "▁).": 8619,
      "▁вв.": 8620,
      "ляются": 8621,
      "▁ct": 8622,
      "atus": 8623,
      "CKH": 8624,
      "▁Биб": 8625,
      "▁*)": 8626,
      "ocT": 8627,
      "▁@е": 8628,
      "лато": 8629,
      "iid": 8630,
      "со-": 8631,
      "ний,": 8632,
      "row": 8633,
      "▁относительно": 8634,
      "▁ܠ": 8635,
      "▁радо": 8636,
      "▁fonc": 8637,
      "▁разви": 8638,
      "▁слѣду": 8639,
      "ФСР": 8640,
      "▁faun": 8641,
      "▁повы": 8642,
      "▁Пари": 8643,
      "▁ыы": 8644,
      "вп": 8645,
      "▁контро": 8646,
      "▁Андрей": 8647,
      "'а": 8648,
      "к^": 8649,
      "▁убо": 8650,
      "▁ИЗ": 8651,
      "сказа": 8652,
      "вых": 8653,
      "▁298": 8654,
      "ищ": 8655,
      "бг": 8656,
      "іеу": 8657,
      "анов": 8658,
      "овал": 8659,
      "▁моей": 8660,
      "QU": 8661,
      "те-": 8662,
      "▁deux": 8663,
      "ЛИ": 8664,
      "СС.": 8665,
      "▁пяти": 8666,
      "▁бь": 8667,
      "▁ц.": 8668,
      "▁\n\n\nПри": 8669,
      "▁памят": 8670,
      "ood": 8671,
      "!..": 8672,
      "мирова": 8673,
      "▁ныне": 8674,
      "aHH": 8675,
      "är": 8676,
      "ІЯ": 8677,
      "вались": 8678,
      "лы.": 8679,
      "▁трех": 8680,
      "▁своимъ": 8681,
      "держи": 8682,
      "bie": 8683,
      "льным": 8684,
      "дот": 8685,
      "▁Алдръ": 8686,
      "▁сох": 8687,
      "▁sch": 8688,
      "!й": 8689,
      "▁неб": 8690,
      "▁your": 8691,
      "▁Тол": 8692,
      "▁XVI": 8693,
      "Ъа": 8694,
      "▁одина": 8695,
      "▁чисто": 8696,
      "ферен": 8697,
      "'s": 8698,
      "ательно": 8699,
      "▁смерти": 8700,
      "\"Ъ.": 8701,
      "кій": 8702,
      "▁\n08": 8703,
      "▁loc": 8704,
      "▁МИХАЙ": 8705,
      "бить": 8706,
      "дил": 8707,
      "Іи": 8708,
      "сег": 8709,
      "ух": 8710,
      "▁\n\n\n•": 8711,
      "шло": 8712,
      "▁тес": 8713,
      "дая": 8714,
      "ало": 8715,
      "▁ОС": 8716,
      "дили": 8717,
      "ата,": 8718,
      "▁Правитель": 8719,
      "ваетъ": 8720,
      "▁\nод": 8721,
      "^п": 8722,
      "ям": 8723,
      "ваются": 8724,
      "▁od": 8725,
      "▁возник": 8726,
      "ложение": 8727,
      "ершен": 8728,
      "▁пре-": 8729,
      "▁Ber": 8730,
      "2.00": 8731,
      "▁время,": 8732,
      "CI": 8733,
      "ера": 8734,
      "нам": 8735,
      "▁\n\n\nп": 8736,
      "▁рапа": 8737,
      "▁обстоятель": 8738,
      "емое": 8739,
      "▁sin": 8740,
      "▁Канцелярш": 8741,
      "▁ИВАНОВИЧ,": 8742,
      "▁организ": 8743,
      "-либо": 8744,
      "вати": 8745,
      "▁Дет": 8746,
      "▁hogy": 8747,
      "▁\n\n\n‘": 8748,
      "зах": 8749,
      "▁непосред": 8750,
      "▁осуществ": 8751,
      "▁оказыва": 8752,
      "▁sim": 8753,
      "ИЧЕ": 8754,
      "▁гимна": 8755,
      "ko": 8756,
      "▁следует": 8757,
      "!-": 8758,
      "-та": 8759,
      "що": 8760,
      "юсь": 8761,
      "▁нар.": 8762,
      "▁б-": 8763,
      "▁оби": 8764,
      "?)": 8765,
      "гну": 8766,
      "▁вси": 8767,
      "мо-": 8768,
      "▁line": 8769,
      "igt": 8770,
      "va": 8771,
      "муни": 8772,
      "ete": 8773,
      "имъ": 8774,
      "сз": 8775,
      "уль": 8776,
      "▁ess": 8777,
      "▁\nla": 8778,
      "етъ.": 8779,
      "р'Ь": 8780,
      "шитель": 8781,
      "pan": 8782,
      "бою": 8783,
      "tain": 8784,
      "(о": 8785,
      "уга": 8786,
      "iim": 8787,
      "сль": 8788,
      "▁жо": 8789,
      "ников,": 8790,
      "нимать": 8791,
      "1Г": 8792,
      "éc": 8793,
      "▁\net": 8794,
      "▁\n40": 8795,
      "▁Ср.": 8796,
      "ленно": 8797,
      "▁Bl": 8798,
      "▁\nфор": 8799,
      "гоз": 8800,
      "револю": 8801,
      "▁Оо": 8802,
      "ange": 8803,
      "ража,": 8804,
      "бЪ": 8805,
      "—4": 8806,
      "▁ܒ": 8807,
      "'&": 8808,
      "ффек": 8809,
      "▁изд.": 8810,
      "▁Петра": 8811,
      "fa": 8812,
      "тЪ": 8813,
      "▁\n\nз": 8814,
      "▁\nправ": 8815,
      "щимъ": 8816,
      "........": 8817,
      "▁Арх.": 8818,
      "▁вопрос": 8819,
      "▁пото": 8820,
      "▁обяз": 8821,
      "▁177": 8822,
      "россій": 8823,
      "|>": 8824,
      "во.": 8825,
      "il,": 8826,
      "рл": 8827,
      "▁peu": 8828,
      "▁от.": 8829,
      "ecK": 8830,
      "en-": 8831,
      "▁ПЕР": 8832,
      "ОВО,": 8833,
      "ose": 8834,
      "▁освобо": 8835,
      "▁влия": 8836,
      "▁истории": 8837,
      "емая": 8838,
      "hod": 8839,
      "i>": 8840,
      "▁губ": 8841,
      "▁für": 8842,
      "ницу": 8843,
      "▁рече": 8844,
      "▁\nВ.": 8845,
      "▁Or": 8846,
      "▁вновь": 8847,
      "торой": 8848,
      "▁мит": 8849,
      "ito": 8850,
      "▁\nЦ.": 8851,
      "ii-": 8852,
      "▁молоды": 8853,
      "▁взгля": 8854,
      "▁ои": 8855,
      "пе-": 8856,
      "нюю": 8857,
      "вала": 8858,
      "▁Петербург": 8859,
      "вшей": 8860,
      "▁918": 8861,
      "ходитъ": 8862,
      "ЕСТ": 8863,
      "десь": 8864,
      "ь-": 8865,
      "▁Министер": 8866,
      "нл": 8867,
      "▁(B": 8868,
      "форм": 8869,
      "▁Менде": 8870,
      "уда": 8871,
      "▁\nды": 8872,
      "▁cum": 8873,
      "agy": 8874,
      "пыт": 8875,
      "рои": 8876,
      "геа": 8877,
      "ing.": 8878,
      "▁\n\n77": 8879,
      "▁(г": 8880,
      "дѣла": 8881,
      "ND": 8882,
      "▁120": 8883,
      "él": 8884,
      "блен": 8885,
      "OK": 8886,
      "дри": 8887,
      "нибудь": 8888,
      "лости": 8889,
      "хъ;": 8890,
      "▁183": 8891,
      "▁двадц": 8892,
      "▁könyv": 8893,
      "▁Император": 8894,
      "▁пли": 8895,
      "▁бан": 8896,
      "ііи": 8897,
      "сии": 8898,
      "▁попа": 8899,
      "▁\nска": 8900,
      "▁anim": 8901,
      "ioc": 8902,
      "иг,": 8903,
      "гв": 8904,
      "▁lib": 8905,
      "▁ір": 8906,
      "креп": 8907,
      "нно": 8908,
      "iver": 8909,
      "ov,": 8910,
      "му.": 8911,
      "▁власть": 8912,
      "man": 8913,
      "р:": 8914,
      "тл": 8915,
      "▁Оль": 8916,
      "▁ГО": 8917,
      "▁Марта": 8918,
      "1).": 8919,
      "tra": 8920,
      "КО": 8921,
      "▁дней": 8922,
      "▁техни": 8923,
      "och": 8924,
      "▁25.": 8925,
      "▁торгов": 8926,
      "ръ.": 8927,
      "▁\n\n\nНа": 8928,
      "▁воспо": 8929,
      "стис": 8930,
      "▁pop": 8931,
      "▁sed": 8932,
      "]и": 8933,
      "▁вспо": 8934,
      "ка:": 8935,
      "▁(рис.": 8936,
      "▁Чет": 8937,
      "бло": 8938,
      "▁замѣ": 8939,
      "▁\n\n31": 8940,
      "▁дек.": 8941,
      "чныхъ": 8942,
      "▁простран": 8943,
      "▁рели": 8944,
      "ТЬ": 8945,
      "емъ,": 8946,
      "оф": 8947,
      "ks": 8948,
      "ИСТ": 8949,
      "г1": 8950,
      "ль¬": 8951,
      "▁центра": 8952,
      "▁dom": 8953,
      "овод": 8954,
      "▁Sail": 8955,
      "▁земля": 8956,
      "▁\nThe": 8957,
      "▁принадлежа": 8958,
      ":⁊": 8959,
      "▁ко¬": 8960,
      "▁линей": 8961,
      "▁off": 8962,
      "▁lat": 8963,
      "ОВА,": 8964,
      "▁сентября": 8965,
      "▁д-": 8966,
      "▁ката": 8967,
      "▁vari": 8968,
      "гіо": 8969,
      "▁другу": 8970,
      "▁пс": 8971,
      "ase": 8972,
      "▁Э.": 8973,
      "цеп": 8974,
      "рави": 8975,
      "▁1:": 8976,
      "кол": 8977,
      "iii,": 8978,
      "▁\nтого": 8979,
      "торж.": 8980,
      "▁участи": 8981,
      "лся.": 8982,
      "ifl": 8983,
      "кри": 8984,
      "▁Ис": 8985,
      "▁«И": 8986,
      "▁\n\n79": 8987,
      "▁Ые": 8988,
      "УШ": 8989,
      "юп": 8990,
      "аров": 8991,
      "▁ДМИТ": 8992,
      "▁\n“": 8993,
      "тека": 8994,
      "§.": 8995,
      "▁понима": 8996,
      "ненія": 8997,
      "▁этим": 8998,
      "▁вместе": 8999,
      "UH": 9000,
      "▁\n\n63": 9001,
      "jn": 9002,
      "кого,": 9003,
      "▁nie": 9004,
      "лован": 9005,
      "▁всё": 9006,
      "гли": 9007,
      "▁назначен": 9008,
      "сюда": 9009,
      "▁116": 9010,
      "▁еше": 9011,
      "arm": 9012,
      "aeT": 9013,
      "▁\n\nГр.": 9014,
      "▁\nбыло": 9015,
      "логруп": 9016,
      "етеп": 9017,
      "▁стран": 9018,
      "▁очере": 9019,
      "Ча": 9020,
      "кЬ": 9021,
      "ю;": 9022,
      "▁уег": 9023,
      "ней,": 9024,
      "емЪ": 9025,
      "ствъ": 9026,
      "нй": 9027,
      "▁послу": 9028,
      "At": 9029,
      "шить": 9030,
      "кой.": 9031,
      "00,": 9032,
      "acter": 9033,
      "▁but": 9034,
      "бай": 9035,
      "▁ограни": 9036,
      "жу,": 9037,
      "▁nos": 9038,
      "тй": 9039,
      "дев": 9040,
      "▁тутъ": 9041,
      "ection": 9042,
      "▁mtph": 9043,
      "|е": 9044,
      "ог,": 9045,
      "яй": 9046,
      "—15": 9047,
      "скія": 9048,
      "▁точки": 9049,
      "▁присут": 9050,
      "▁will": 9051,
      "▁(3)": 9052,
      "▁дЬ": 9053,
      "ник.": 9054,
      "▁(і": 9055,
      "unc": 9056,
      "']^": 9057,
      "▁оре": 9058,
      "иска": 9059,
      "Ьс": 9060,
      "м'Ь": 9061,
      "фли": 9062,
      "рг-": 9063,
      "▁самого": 9064,
      "начала": 9065,
      "cH": 9066,
      "▁Генера": 9067,
      "▁Тер": 9068,
      "▁менее": 9069,
      "Ke": 9070,
      "ческом": 9071,
      "▁fort": 9072,
      "▁расши": 9073,
      "uo": 9074,
      "▁\nЩ": 9075,
      "▁27.": 9076,
      "дал": 9077,
      "▁клю": 9078,
      "▁[10": 9079,
      "flH": 9080,
      "Be": 9081,
      "pon": 9082,
      "▁\n\nпри": 9083,
      "ноп": 9084,
      "ла:": 9085,
      "▁Ней.": 9086,
      "▁интер": 9087,
      "▁полка": 9088,
      "▁Объ": 9089,
      "▁столь": 9090,
      "▁другие": 9091,
      "▁Сен": 9092,
      "▁\n\n48": 9093,
      "▁нуж": 9094,
      "▁Константи": 9095,
      "ology": 9096,
      "▁удоб": 9097,
      "▁Ае": 9098,
      "▁прибли": 9099,
      "нъ-": 9100,
      "ura": 9101,
      "▁(ка": 9102,
      "▁зуб": 9103,
      "▁вл": 9104,
      "▁(n": 9105,
      "шими": 9106,
      "нь.": 9107,
      "казатель": 9108,
      "Са": 9109,
      "▁вино": 9110,
      "▁поэтому": 9111,
      "▁\nства": 9112,
      "▁ЯКОВ": 9113,
      "▁\nнаго": 9114,
      "матри": 9115,
      "▁\n\nТо": 9116,
      "▁деньги": 9117,
      "гами": 9118,
      "▁tec": 9119,
      "▁выде": 9120,
      "▁HH": 9121,
      "▁библиографи": 9122,
      "\\е": 9123,
      "зяй": 9124,
      "валъ": 9125,
      "▁тыхъ": 9126,
      "▁помощи": 9127,
      "▁направлен": 9128,
      "EA": 9129,
      "фс": 9130,
      "ьи": 9131,
      "ѣд": 9132,
      "ипд": 9133,
      "н.,": 9134,
      "я:": 9135,
      "▁ув": 9136,
      "ep.": 9137,
      "ydro": 9138,
      "щать": 9139,
      "▁\n;": 9140,
      "юза": 9141,
      "▁\n27": 9142,
      "▁Zo": 9143,
      "▁nem": 9144,
      "▁\n\nМи": 9145,
      "лемъ": 9146,
      "анта": 9147,
      "▁іако": 9148,
      "▁нельзя": 9149,
      "емати": 9150,
      "ского.": 9151,
      "ЕХ": 9152,
      "▁dec": 9153,
      "▁крат": 9154,
      "лта": 9155,
      "▁\n2.": 9156,
      "▁\n\nf": 9157,
      "▁Ее": 9158,
      "к.и.": 9159,
      "▁печ": 9160,
      "▁любо": 9161,
      "ушки": 9162,
      "p,": 9163,
      "ék": 9164,
      "▁\nДо": 9165,
      "▁СТЕПАН": 9166,
      "8.00": 9167,
      "▁нос": 9168,
      "▁\n\n\n<": 9169,
      "▁побе": 9170,
      "▁Аб": 9171,
      "лыхъ": 9172,
      "С1": 9173,
      "хом": 9174,
      "▁ДЛ.": 9175,
      "вд": 9176,
      "▁(ф": 9177,
      "▁Вну": 9178,
      "ди-": 9179,
      "ствующ": 9180,
      "▁(Напеч.": 9181,
      "▁(c": 9182,
      "▁суд": 9183,
      "▁\nгово": 9184,
      "▁TO": 9185,
      "▁опредѣ": 9186,
      "/^": 9187,
      "▁(не": 9188,
      "воли": 9189,
      "▁Пор": 9190,
      "▁обу": 9191,
      "▁никогда": 9192,
      "скольку": 9193,
      "▁\nд.": 9194,
      "манъ": 9195,
      "(>": 9196,
      "▁заг": 9197,
      "6.00": 9198,
      "▁plan": 9199,
      "▁01": 9200,
      "зкі": 9201,
      "—16": 9202,
      "ро,": 9203,
      "рея": 9204,
      "іит": 9205,
      "но¬": 9206,
      "лео": 9207,
      "▁1930": 9208,
      "▁\nчис": 9209,
      "▁случай": 9210,
      "3-": 9211,
      "пят": 9212,
      "▁(fl": 9213,
      "рых": 9214,
      "▁происхо": 9215,
      "CB": 9216,
      "▁\n50": 9217,
      "▁\n\n\nG": 9218,
      "▁бъ": 9219,
      "до,": 9220,
      "▁ant": 9221,
      "▁Стани": 9222,
      "atic": 9223,
      "ек,": 9224,
      "рной": 9225,
      "▁geb": 9226,
      "▁мину": 9227,
      "Me": 9228,
      "йз": 9229,
      "”.": 9230,
      "▁nu": 9231,
      "▁еее": 9232,
      "гъ,": 9233,
      "ця": 9234,
      "cean": 9235,
      "/и": 9236,
      "ИФ": 9237,
      "боро": 9238,
      "▁СЕМЕН": 9239,
      "▁\nная": 9240,
      "гад": 9241,
      "▁lac": 9242,
      "3.00": 9243,
      "▁\nтельно": 9244,
      "▁круг": 9245,
      "мом": 9246,
      "гина": 9247,
      "▁у.;": 9248,
      "▁труб": 9249,
      "овь": 9250,
      "▁(13": 9251,
      "7.00": 9252,
      "▁всѣхъ": 9253,
      "▁лЪ": 9254,
      "▁реа": 9255,
      "апу": 9256,
      "▁Ter": 9257,
      "▁Мало": 9258,
      "▁работу": 9259,
      "ничто": 9260,
      "▁·": 9261,
      "ношен": 9262,
      "вою": 9263,
      "▁Аф": 9264,
      "ма-": 9265,
      "аге,": 9266,
      "▁ряд": 9267,
      "eral": 9268,
      "▁превра": 9269,
      "▁суффи": 9270,
      "▁\nПа": 9271,
      "])": 9272,
      "▁гез": 9273,
      "^^^^": 9274,
      "▁великого": 9275,
      "іе-": 9276,
      "aches": 9277,
      "▁человека": 9278,
      "▁мъ": 9279,
      "▁\n\n32": 9280,
      "▁\n\n\n\\": 9281,
      "▁импера": 9282,
      "▁\n\n\nм": 9283,
      "▁корен": 9284,
      "жеб": 9285,
      "кович": 9286,
      "▁тока": 9287,
      "▁\n\n\nОід": 9288,
      "kton": 9289,
      "ią": 9290,
      "—5": 9291,
      "▁\nz": 9292,
      "▁снова": 9293,
      "▁\n\nНи": 9294,
      "▁\n\n\nХ": 9295,
      "▁Иен.": 9296,
      "ческими": 9297,
      "▁ты,": 9298,
      "▁\n\n\n58": 9299,
      "cht": 9300,
      "▁one": 9301,
      "▁Петръ": 9302,
      "▁кажда": 9303,
      "▁разд": 9304,
      "▁Ьеп": 9305,
      "▁105": 9306,
      "▁распростра": 9307,
      "{е": 9308,
      "▁иже": 9309,
      "▁гли": 9310,
      "уу": 9311,
      "▁Сог": 9312,
      "▁како": 9313,
      "▁Hor.": 9314,
      "атели": 9315,
      "▁\nО.": 9316,
      "▁\nII": 9317,
      "▁sich": 9318,
      "5.00": 9319,
      "▁\nСи": 9320,
      "▁Ль": 9321,
      "id.": 9322,
      "▁использу": 9323,
      "▁\nіі": 9324,
      "▁\nров": 9325,
      "▁\nще": 9326,
      "▁экономи": 9327,
      "ИНО,": 9328,
      "скаго.": 9329,
      "▁\n\n\n\"": 9330,
      "▁Харь": 9331,
      "issim": 9332,
      "ві": 9333,
      "кл": 9334,
      "▁собы": 9335,
      "лъ-": 9336,
      "▁bef": 9337,
      "▁брата": 9338,
      "cz": 9339,
      "ція": 9340,
      "▁ген": 9341,
      "▁москов": 9342,
      "▁стара": 9343,
      "▁(т);": 9344,
      "▁удовлет": 9345,
      "▁приказ": 9346,
      "▁cb": 9347,
      "▁178": 9348,
      "▁30.": 9349,
      "▁посред": 9350,
      "вѣст": 9351,
      "ки;": 9352,
      "▁путь": 9353,
      "iT": 9354,
      "▁\n\n\n2.": 9355,
      "▁côtés": 9356,
      "▁4а": 9357,
      "товъ,": 9358,
      "лектро": 9359,
      "тика": 9360,
      "▁пере-": 9361,
      "▁\nэто": 9362,
      "аръ": 9363,
      "▁законо": 9364,
      "▁сол": 9365,
      "чили": 9366,
      "▁Такъ": 9367,
      "▁\nдол": 9368,
      "▁возможность": 9369,
      "х^": 9370,
      "▁сф": 9371,
      "пущен": 9372,
      "м^": 9373,
      "шѵ": 9374,
      "▁сокра": 9375,
      "▁«в": 9376,
      "▁ве-": 9377,
      "осф": 9378,
      "▁арти": 9379,
      "▁\n\n\nЗа": 9380,
      "ág": 9381,
      "▁ест": 9382,
      "езда": 9383,
      "▁роль": 9384,
      "ственного": 9385,
      "▁Вой": 9386,
      "▁интерес": 9387,
      "роди": 9388,
      "▁ВЫ": 9389,
      "▁\n\n10.": 9390,
      "▁Зас": 9391,
      "рокъ": 9392,
      "▁(gr.": 9393,
      "▁Дере": 9394,
      "▁сигна": 9395,
      "els": 9396,
      "jib": 9397,
      "nia": 9398,
      "Те": 9399,
      "▁впере": 9400,
      "части": 9401,
      "▁Іи": 9402,
      "▁Ман": 9403,
      "anb": 9404,
      "со,": 9405,
      "▁худож": 9406,
      "к:": 9407,
      "▁опас": 9408,
      "нин,": 9409,
      "▁Рег": 9410,
      "вшись": 9411,
      "▁Алексе": 9412,
      "кы": 9413,
      "▁(F": 9414,
      "виду": 9415,
      "▁приказа": 9416,
      "▁двумя": 9417,
      "▁каждой": 9418,
      "▁иі": 9419,
      "▁Три": 9420,
      "рян": 9421,
      "irt": 9422,
      "▁куда": 9423,
      "▁комит": 9424,
      "▁докумен": 9425,
      "гд": 9426,
      "наго,": 9427,
      "▁бас": 9428,
      "▁гё": 9429,
      "ер-": 9430,
      "рядо": 9431,
      "▁берегу": 9432,
      "'А": 9433,
      "nf": 9434,
      "поз": 9435,
      "▁Иса": 9436,
      "▁ci": 9437,
      "▁із": 9438,
      "рно": 9439,
      "▁книж": 9440,
      "▁\n\nю": 9441,
      "▁ий": 9442,
      "гиб": 9443,
      "▁Чо": 9444,
      "▁Воро": 9445,
      "▁шесть": 9446,
      "▁Михайлович": 9447,
      "*'": 9448,
      "т:": 9449,
      "ціи": 9450,
      "▁дес": 9451,
      "▁іЬе": 9452,
      "▁взять": 9453,
      "▁интере": 9454,
      "▁дальней": 9455,
      "as.": 9456,
      "▁\n\n53": 9457,
      "▁спр.": 9458,
      "uH": 9459,
      "▁ипе": 9460,
      "▁«Г": 9461,
      "▁дело": 9462,
      "▁\n\n41": 9463,
      "▁mac": 9464,
      "ois": 9465,
      "арЪ": 9466,
      "▁став": 9467,
      "ner": 9468,
      "▁\nстро": 9469,
      "ar,": 9470,
      "маг": 9471,
      "ща,": 9472,
      "▁конце": 9473,
      "L,": 9474,
      "▁Зна": 9475,
      "▁сил": 9476,
      "(.": 9477,
      ")-": 9478,
      "Ке": 9479,
      "▁трав": 9480,
      "ми-": 9481,
      "▁приведен": 9482,
      "▁Тт": 9483,
      "сомъ": 9484,
      "4.00": 9485,
      "▁революции": 9486,
      "▁\nіп": 9487,
      "реи": 9488,
      "▁Ада": 9489,
      "мо,": 9490,
      "кови": 9491,
      "▁бой": 9492,
      "овыхъ": 9493,
      "ющего": 9494,
      "емся": 9495,
      "егь": 9496,
      "itud": 9497,
      "ский.": 9498,
      "▁Май": 9499,
      "▁іф": 9500,
      "▁подви": 9501,
      "▁прі": 9502,
      "лова,": 9503,
      "геі": 9504,
      "ques": 9505,
      "'Ь,": 9506,
      "imm": 9507,
      "▁образом,": 9508,
      "▁граждан": 9509,
      "дю": 9510,
      "оди": 9511,
      "▁«б": 9512,
      "▁Высочайше": 9513,
      "▁моря": 9514,
      "▁глаза": 9515,
      "▁вопроса": 9516,
      "тез": 9517,
      "Да": 9518,
      "пуск": 9519,
      "▁воз-": 9520,
      "▁книгъ": 9521,
      "▁\nван": 9522,
      "▁урав": 9523,
      "▁промышлен": 9524,
      "i,,": 9525,
      "▁класс": 9526,
      "руго": 9527,
      "печата": 9528,
      "▁into": 9529,
      "л1": 9530,
      "▁\nfl": 9531,
      "исан": 9532,
      "<>": 9533,
      "с¬": 9534,
      "▁семъ": 9535,
      "ueur": 9536,
      "▁вр": 9537,
      "▁догово": 9538,
      "▁шт": 9539,
      "▁Ab": 9540,
      "били": 9541,
      "рест,": 9542,
      "▁\n]": 9543,
      "▁кораб": 9544,
      "▁преступ": 9545,
      "мы.": 9546,
      "▁\n22": 9547,
      "сЬ.": 9548,
      "▁large": 9549,
      "сЬ,": 9550,
      "▁сош": 9551,
      "▁быть,": 9552,
      "▁09": 9553,
      "▁СО;": 9554,
      "▁запре": 9555,
      "ления,": 9556,
      "ць,": 9557,
      "скій.": 9558,
      "ОВИЧ": 9559,
      "асі": 9560,
      "▁Какъ": 9561,
      "▁преимуще": 9562,
      "5;": 9563,
      "IN": 9564,
      "▁Бор": 9565,
      "теля": 9566,
      "▁tar": 9567,
      "...».": 9568,
      "▁Петрогра": 9569,
      "н1": 9570,
      "▁ПОЛ": 9571,
      "▁шап": 9572,
      "опу": 9573,
      "▁\nдѣ": 9574,
      "▁Москв": 9575,
      "▁назван": 9576,
      "ковой": 9577,
      "▁пти": 9578,
      "▁непри": 9579,
      "опі": 9580,
      "▁брат": 9581,
      "6)": 9582,
      "ковск.": 9583,
      "▁нрав": 9584,
      "e,/.": 9585,
      "ога": 9586,
      "ш^": 9587,
      "▁\n\nч": 9588,
      "нол:": 9589,
      "нили": 9590,
      "ch.": 9591,
      "▁\nкни": 9592,
      "R.": 9593,
      "▁рЪ": 9594,
      "▁médian": 9595,
      "▁подтвер": 9596,
      "'і": 9597,
      "▁.,": 9598,
      "▁\n\n\n„": 9599,
      "▁невоз": 9600,
      "ild": 9601,
      "|,": 9602,
      "▁\n§": 9603,
      "▁ссы": 9604,
      "▁іпі": 9605,
      "▁eff": 9606,
      "мые": 9607,
      "ЕРН": 9608,
      "▁prod": 9609,
      "(;": 9610,
      "рева": 9611,
      "ру.": 9612,
      "▁Іп": 9613,
      "ole": 9614,
      "дс": 9615,
      "ёге": 9616,
      "▁вмѣ": 9617,
      "▁вам": 9618,
      "MM": 9619,
      "▁свадь": 9620,
      "нии,": 9621,
      "▁отвер": 9622,
      "сп,": 9623,
      "▁которомъ": 9624,
      "по.": 9625,
      "▁закры": 9626,
      "▁лен": 9627,
      "▁сила": 9628,
      "▁‚,": 9629,
      "▁связан": 9630,
      "▁\nii": 9631,
      "2;": 9632,
      "▁типи": 9633,
      "▁Александра": 9634,
      "▁России": 9635,
      "jii": 9636,
      "Фи": 9637,
      "атеп": 9638,
      "▁прото": 9639,
      "▁\n\nПос": 9640,
      "ность.": 9641,
      "▁дѣйств": 9642,
      "aires": 9643,
      "хй": 9644,
      "▁(16": 9645,
      "▁more": 9646,
      "▁\n\n55": 9647,
      "▁количество": 9648,
      "ény": 9649,
      "▁принци": 9650,
      "▁есть,": 9651,
      "▁почему": 9652,
      "Ле": 9653,
      "гка": 9654,
      "лЪ,": 9655,
      "’s": 9656,
      "▁полага": 9657,
      "▁ec": 9658,
      "вы.": 9659,
      "▁15,": 9660,
      "▁sea": 9661,
      "go": 9662,
      "ЕШ": 9663,
      "м.,": 9664,
      "▁бого": 9665,
      "▁суб": 9666,
      "▁наиболее": 9667,
      "▁\nшо": 9668,
      "▁топо": 9669,
      "uld": 9670,
      "▁\nдер": 9671,
      "стый": 9672,
      "зк": 9673,
      "цовъ": 9674,
      "▁Ä": 9675,
      "скры": 9676,
      "▁\nсвя": 9677,
      "▁горя": 9678,
      "▁лич": 9679,
      "▁\nим": 9680,
      "-М": 9681,
      "Ч.": 9682,
      "▁бЪ": 9683,
      "ска.": 9684,
      "▁Федоров": 9685,
      "▁терри": 9686,
      "ана": 9687,
      "▁скры": 9688,
      "▁5-": 9689,
      "▁occ": 9690,
      "▁Ver": 9691,
      "▁сын": 9692,
      "читы": 9693,
      "ѵег": 9694,
      "скіе": 9695,
      "ul.": 9696,
      "вшихся": 9697,
      "пап": 9698,
      "yio": 9699,
      "▁нев": 9700,
      "▁\nполу": 9701,
      "шно": 9702,
      "▁\nеп": 9703,
      "▁АБ": 9704,
      "▁\nсла": 9705,
      "...»)": 9706,
      "▁(СРГК": 9707,
      "гро": 9708,
      "яо": 9709,
      "▁(Х": 9710,
      "▁самое": 9711,
      "▁пит.": 9712,
      "▁коль": 9713,
      "▁mill": 9714,
      "менно": 9715,
      "▁Mos": 9716,
      "писи": 9717,
      "МА": 9718,
      "▁Вѣ": 9719,
      "▁tê": 9720,
      "▁nn": 9721,
      "шель": 9722,
      "пу,": 9723,
      "лене": 9724,
      "▁gre": 9725,
      "17,": 9726,
      "▁\nее": 9727,
      "▁Новгород": 9728,
      "ites": 9729,
      "▁einem": 9730,
      "▁оконча": 9731,
      "▁\nнен": 9732,
      "▁\n\n\n[": 9733,
      "гаи": 9734,
      "▁Il": 9735,
      "▁рука": 9736,
      "▁\n28": 9737,
      "q;": 9738,
      "ріе": 9739,
      "ти-": 9740,
      "▁gef": 9741,
      "zie": 9742,
      "х:": 9743,
      "▁ре-": 9744,
      "▁their": 9745,
      "▁СПБ.": 9746,
      "▁РСФСР": 9747,
      "нта": 9748,
      "▁\n\n\nд": 9749,
      "▁Кража,": 9750,
      "▁das": 9751,
      "▁нЪ": 9752,
      "▁106": 9753,
      "дѣсь": 9754,
      "▁качестве": 9755,
      "-'": 9756,
      "ог.": 9757,
      "шени": 9758,
      "іса": 9759,
      "▁Пл.:": 9760,
      "h-": 9761,
      "▁оса": 9762,
      "▁ВЛ": 9763,
      "▁НК": 9764,
      "соеди": 9765,
      "▁\nIn": 9766,
      "к*": 9767,
      "9.00": 9768,
      "ter,": 9769,
      "▁(C": 9770,
      "▁piz": 9771,
      "▁\n\nВа": 9772,
      "оруж": 9773,
      "спи": 9774,
      "▁\nМ.,": 9775,
      "цъ),": 9776,
      "▁Слова": 9777,
      "нят": 9778,
      "▁71": 9779,
      "у1": 9780,
      "▁ܐ": 9781,
      "ати,": 9782,
      "▁особо": 9783,
      "ЕЕВИЧ,": 9784,
      "ОХ": 9785,
      "чали": 9786,
      "▁\n\n\nІ": 9787,
      "▁Аз": 9788,
      "▁\n\nЮ": 9789,
      "▁о{": 9790,
      "▁регу": 9791,
      "пи,": 9792,
      "âle": 9793,
      "▁нее": 9794,
      "▁обыча": 9795,
      "▁рос": 9796,
      "тябрь": 9797,
      "▁опо": 9798,
      "ций,": 9799,
      "▁района": 9800,
      "вание": 9801,
      "ibi": 9802,
      "▁\n\n68": 9803,
      "▁денегъ": 9804,
      "в.,": 9805,
      "мес": 9806,
      "▁\n\nл": 9807,
      "▁вф": 9808,
      "ico": 9809,
      "▁\nГ.": 9810,
      "▁самой": 9811,
      "▁рат": 9812,
      "ііп": 9813,
      "сон": 9814,
      "lex": 9815,
      "οῦ": 9816,
      "▁\n\nза": 9817,
      "▁Дол": 9818,
      "спе": 9819,
      "▁Влад.": 9820,
      "iego": 9821,
      "▁ero": 9822,
      "ники,": 9823,
      "▁Фили": 9824,
      "ir.": 9825,
      "▁называется": 9826,
      "пог": 9827,
      "▁\nство": 9828,
      "▁тог": 9829,
      "▁18,": 9830,
      "▁«Т": 9831,
      "ита,": 9832,
      "▁с,": 9833,
      "▁\n\n\nк": 9834,
      "▁служи": 9835,
      "▁\nобъ": 9836,
      "▁матер": 9837,
      "Гс": 9838,
      "дЬ": 9839,
      "▁1'": 9840,
      "▁Тогда": 9841,
      "▁реги": 9842,
      "▁[о": 9843,
      "▁типа": 9844,
      "Ги": 9845,
      "▁\nет": 9846,
      "▁\nчен": 9847,
      "▁приход": 9848,
      "▁постав": 9849,
      "▁засе": 9850,
      "еня": 9851,
      "enk": 9852,
      "▁зап": 9853,
      "eter": 9854,
      "▁vers": 9855,
      "im,": 9856,
      "▁\nком": 9857,
      "▁\nno": 9858,
      "^a": 9859,
      "▁позна": 9860,
      "▁\n\nl": 9861,
      "▁вен": 9862,
      "▁вред": 9863,
      "▁bar": 9864,
      "▁село": 9865,
      "Op": 9866,
      "▁(при": 9867,
      "ази": 9868,
      "лга": 9869,
      "щеп": 9870,
      "ваютъ": 9871,
      "ве-": 9872,
      "▁Bec": 9873,
      "▁контр": 9874,
      "7]": 9875,
      "ИБ": 9876,
      "Ра": 9877,
      "▁пѣ": 9878,
      "▁\n\n\nна": 9879,
      "▁Лав": 9880,
      "жи,": 9881,
      "рь.": 9882,
      "▁Сиби": 9883,
      "ёа": 9884,
      "рее": 9885,
      "▁февраля": 9886,
      "▁\nок": 9887,
      "-20": 9888,
      "зкіе": 9889,
      "чі": 9890,
      "▁(У": 9891,
      "▁29.": 9892,
      "▁домъ": 9893,
      "▁ЛЬ": 9894,
      "▁\nВи": 9895,
      "довъ,": 9896,
      "▁большин": 9897,
      "Л.,": 9898,
      "▁означа": 9899,
      "▁Сеп": 9900,
      "леку": 9901,
      "▁termin": 9902,
      "▁приро": 9903,
      "хи,": 9904,
      "▁ܘ": 9905,
      "▁(.": 9906,
      "▁присла": 9907,
      "rac": 9908,
      "▁ift": 9909,
      "▁дал": 9910,
      "▁ven": 9911,
      "▁монастыря": 9912,
      "рети": 9913,
      "▁(11": 9914,
      "аз,": 9915,
      "▁\n\nМ.": 9916,
      "▁\n\n\nРис.": 9917,
      "▁\n\n\n*)": 9918,
      "uj": 9919,
      "ЕЖ": 9920,
      "чв": 9921,
      "▁мол": 9922,
      "▁возмож": 9923,
      "▁Ex": 9924,
      "НЫЙ,": 9925,
      "СА": 9926,
      "▁поступ": 9927,
      "▁Мор": 9928,
      "▁таких": 9929,
      "ction": 9930,
      "▁благослов": 9931,
      "овича": 9932,
      "гать": 9933,
      "▁Кап": 9934,
      "▁выраж": 9935,
      "elt": 9936,
      "hen": 9937,
      "ink": 9938,
      "стори": 9939,
      "ю:": 9940,
      "тъ:": 9941,
      "▁разу": 9942,
      "вый,": 9943,
      "▁28.": 9944,
      "лес": 9945,
      "te.": 9946,
      "▁арми": 9947,
      "▁plant": 9948,
      "ы:": 9949,
      "ystem": 9950,
      "ними": 9951,
      "▁утра": 9952,
      "аз.": 9953,
      "▁вече": 9954,
      "▁правила": 9955,
      "▁пь": 9956,
      "▁нар": 9957,
      "▁специ": 9958,
      "ждо": 9959,
      "▁тт": 9960,
      "гау": 9961,
      "няются": 9962,
      "шеніе": 9963,
      "кту": 9964,
      "▁20,": 9965,
      "▁ОГ": 9966,
      "▁та-": 9967,
      "гуз": 9968,
      "▁вед": 9969,
      "▁\nЧто": 9970,
      "▁сн": 9971,
      "▁(Н": 9972,
      "бу,": 9973,
      "▁\nМе": 9974,
      "жени": 9975,
      "мети": 9976,
      "лея": 9977,
      "ibus,": 9978,
      "ИН,": 9979,
      "▁Пав.": 9980,
      "▁(E": 9981,
      "ве.": 9982,
      "▁ток": 9983,
      "▁програм": 9984,
      "ственные": 9985,
      ")а": 9986,
      "▁сат": 9987,
      "▁Сло": 9988,
      "лева": 9989,
      "атья": 9990,
      "▁цель": 9991,
      "18),": 9992,
      "▁\n\nСи": 9993,
      "жность": 9994,
      "егп": 9995,
      "▁изоб": 9996,
      "▁стал": 9997,
      "▁Макси": 9998,
      "▁уви": 9999,
      "▁(A": 10000,
      "▁than": 10001,
      "славян": 10002,
      "▁результате": 10003,
      "▁море": 10004,
      "ленный": 10005,
      "гіз": 10006,
      "лагатель": 10007,
      "▁(1о": 10008,
      "▁воево": 10009,
      "1й,": 10010,
      "рр": 10011,
      "▁вя": 10012,
      "▁изуч": 10013,
      "▁\n\n57": 10014,
      "кадеми": 10015,
      "▁точно": 10016,
      "няет": 10017,
      "матрива": 10018,
      "▁a,": 10019,
[...]
